TRT-100300-EntropyCalibration2
input: 3cd81f94
/emb/emb.0/Transpose_output_0: 3cd81f94
/emb/emb.1/patches/patches.0/Conv_output_0: 3d35ed55
/emb/emb.1/patches/patches.2/Relu_output_0: 3d3612e0
/emb/emb.1/patches/patches.3/AveragePool_output_0: 3d3612e0
/emb/emb.2/Transpose_output_0: 3d3612e0
/enc/enc.1/mha/Reshape_2_output_0: 3ca4643f
/enc/enc.1/mha/Constant_12_output_0_output: 3ab67d3d
ONNXTRT_Broadcast_87_output: 3a59ada8
/enc/enc.2/mlp/mlp.0/Add_output_0: 3ccb9a88
/enc/enc.5/Flatten_output_0: 3bebcb1c
/enc/enc.2/mlp/mlp.0/MatMul_output_0: 3cc57abe
/enc/enc.1/mha/Reshape_1_output_0: 3c8c30d6
ONNXTRT_Broadcast_81_output: 3add34a5
/enc/enc.2/mlp/mlp.3/MatMul_output_0: 3c83e063
onnx::MatMul_234_output: 3add34a5
/enc/enc.1/mha/Transpose_1_output_0: 3c8c30d6
/enc/enc.4/GlobalAveragePool_output_0: 3bebcb1c
/enc/enc.1/post_norm/post_norm.0/Transpose_output_0: 3cfa25da
ONNXTRT_Broadcast_83_output: 3aca3b8a
/enc/enc.1/mha/Concat_4_output_0: 3be4acd9
/enc/enc.1/mha/Transpose_3_output_0: 3be4acd9
onnx::Reshape_36_output: 3c010a14
/enc/enc.0/Reshape_output_0: 3c010a14
/enc/enc.0/Constant_3_output_0_output: 3c810a14
ONNXTRT_Broadcast_output: 3c810a14
/enc/enc.0/Mul_output_0: 3c810a14
/enc/enc.0/Constant_4_output_0_output: 3c010a14
ONNXTRT_Broadcast_5_output: 3c010a14
/enc/enc.0/Sub_output_0: 3c010a14
ONNXTRT_Broadcast_7_output: 3c010a14
/enc/enc.0/add/Add_output_0: 3c02218a
/enc/enc.1/mha/Transpose_2_output_0: 3ca4643f
/enc/enc.2/post_norm/post_norm.1/BatchNormalization_output_0: 3d5e0a5f
/enc/enc.1/mha/Reshape_3_output_0: 3be4acd9
ONNXTRT_Broadcast_85_output: 3a884b9e
/enc/enc.1/mha/MatMul_output_0: 3be35b2a
ONNXTRT_Broadcast_34_output: 3ad744cf
/enc/enc.1/mha/softmax/softmax.1/Softmax_output: 39635e83
/enc/enc.2/post_norm/post_norm.0/Transpose_output_0: 3d7c7305
onnx::MatMul_230_output: 3ad744cf
/enc/enc.2/mlp/mlp.3/Add_output_0: 3c8227ee
ONNXTRT_unsqueezeTensor_output: 3cfa25da
/enc/enc.1/mha/o_projection/MatMul_output_0: 3bafc925
/enc/enc.1/Reshape_1_output_0: 3d4e2080
/enc/enc.1/post_norm/post_norm.1/BatchNormalization_output_0: 3d4e2080
enc.2.mlp.3.bias_output: 3a59ada8
onnx::MatMul_235_output: 3a884b9e
/enc/enc.1/post_norm/post_norm.1/BatchNormalization_output: 3d4e2080
/enc/enc.1/mha/MatMul_1_output_0: 3be4acd9
/enc/enc.1/Slice_output_0: 3d4e2080
/enc/enc.2/mlp/mlp.1/Relu_output_0: 3ccb4566
/enc/enc.1/Reshape_output_0: 3c02218a
/enc/enc.1/Concat_1_output_0: 3c02218a
onnx::MatMul_221_output: 3ac8d56b
ONNXTRT_Broadcast_12_output: 3ac8d56b
/enc/enc.1/mha/q_projection/MatMul_output_0: 3c9d9711
onnx::MatMul_222_output: 3ad2f8c6
ONNXTRT_Broadcast_14_output: 3ad2f8c6
/enc/enc.1/mha/k_projection/MatMul_output_0: 3c8c30d6
onnx::MatMul_223_output: 3ada8df7
ONNXTRT_Broadcast_16_output: 3ada8df7
/enc/enc.1/mha/v_projection/MatMul_output_0: 3ca4643f
/enc/enc.1/mha/softmax/softmax.1/Softmax_output_0: 39635e83
/enc/enc.1/mha/Mul_output_0: 3b5eddb6
cls.0.weight_output: 3b14488c
ONNXTRT_Broadcast_98_output: 3b0e65a6
/enc/enc.1/Add_output_0: 3cfa25da
ONNXTRT_Broadcast_27_output: 3ab67d3d
enc.2.mlp.0.bias_output: 3aca3b8a
/enc/enc.1/mha/Transpose_output_0: 3c9d9711
/cls/cls.0/Gemm_output: 3c0bacd6
/enc/enc.1/post_norm/post_norm.2/Transpose_output_0: 3d4e2080
/enc/enc.2/Add_output_0: 3d7c7305
output: 3bfa2ed4
cls.0.bias_output: 3b0e65a6
/enc/enc.1/mha/Reshape_output_0: 3c9d9711
