{
  "version": "1.0",
  "truncation": null,
  "padding": null,
  "added_tokens": [
    {
      "id": 0,
      "content": "[PAD]",
      "single_word": false,
      "lstrip": false,
      "rstrip": false,
      "normalized": false,
      "special": true
    },
    {
      "id": 1,
      "content": "[UNK]",
      "single_word": false,
      "lstrip": false,
      "rstrip": false,
      "normalized": false,
      "special": true
    },
    {
      "id": 2,
      "content": "[CLS]",
      "single_word": false,
      "lstrip": false,
      "rstrip": false,
      "normalized": false,
      "special": true
    },
    {
      "id": 3,
      "content": "[SEP]",
      "single_word": false,
      "lstrip": false,
      "rstrip": false,
      "normalized": false,
      "special": true
    },
    {
      "id": 4,
      "content": "[MASK]",
      "single_word": false,
      "lstrip": false,
      "rstrip": false,
      "normalized": false,
      "special": true
    }
  ],
  "normalizer": {
    "type": "BertNormalizer",
    "clean_text": true,
    "handle_chinese_chars": true,
    "strip_accents": null,
    "lowercase": false
  },
  "pre_tokenizer": {
    "type": "BertPreTokenizer"
  },
  "post_processor": {
    "type": "TemplateProcessing",
    "single": [
      {
        "SpecialToken": {
          "id": "[CLS]",
          "type_id": 0
        }
      },
      {
        "Sequence": {
          "id": "A",
          "type_id": 0
        }
      },
      {
        "SpecialToken": {
          "id": "[SEP]",
          "type_id": 0
        }
      }
    ],
    "pair": [
      {
        "SpecialToken": {
          "id": "[CLS]",
          "type_id": 0
        }
      },
      {
        "Sequence": {
          "id": "A",
          "type_id": 0
        }
      },
      {
        "SpecialToken": {
          "id": "[SEP]",
          "type_id": 0
        }
      },
      {
        "Sequence": {
          "id": "B",
          "type_id": 1
        }
      },
      {
        "SpecialToken": {
          "id": "[SEP]",
          "type_id": 1
        }
      }
    ],
    "special_tokens": {
      "[CLS]": {
        "id": "[CLS]",
        "ids": [
          2
        ],
        "tokens": [
          "[CLS]"
        ]
      },
      "[SEP]": {
        "id": "[SEP]",
        "ids": [
          3
        ],
        "tokens": [
          "[SEP]"
        ]
      }
    }
  },
  "decoder": {
    "type": "WordPiece",
    "prefix": "##",
    "cleanup": true
  },
  "model": {
    "type": "WordPiece",
    "unk_token": "[UNK]",
    "continuing_subword_prefix": "##",
    "max_input_chars_per_word": 100,
    "vocab": {
      "[PAD]": 0,
      "[UNK]": 1,
      "[CLS]": 2,
      "[SEP]": 3,
      "[MASK]": 4,
      "!": 5,
      "\"": 6,
      "#": 7,
      "$": 8,
      "%": 9,
      "&": 10,
      "'": 11,
      "(": 12,
      ")": 13,
      "*": 14,
      "+": 15,
      ",": 16,
      "-": 17,
      ".": 18,
      "/": 19,
      "0": 20,
      "1": 21,
      "2": 22,
      "3": 23,
      "4": 24,
      "5": 25,
      "6": 26,
      "7": 27,
      "8": 28,
      "9": 29,
      ":": 30,
      ";": 31,
      "<": 32,
      "=": 33,
      ">": 34,
      "?": 35,
      "A": 36,
      "B": 37,
      "C": 38,
      "D": 39,
      "E": 40,
      "F": 41,
      "G": 42,
      "H": 43,
      "I": 44,
      "J": 45,
      "K": 46,
      "L": 47,
      "M": 48,
      "N": 49,
      "O": 50,
      "P": 51,
      "Q": 52,
      "R": 53,
      "S": 54,
      "T": 55,
      "U": 56,
      "V": 57,
      "W": 58,
      "X": 59,
      "Y": 60,
      "Z": 61,
      "[": 62,
      "\\": 63,
      "]": 64,
      "_": 65,
      "`": 66,
      "a": 67,
      "b": 68,
      "c": 69,
      "d": 70,
      "e": 71,
      "f": 72,
      "g": 73,
      "h": 74,
      "i": 75,
      "j": 76,
      "k": 77,
      "l": 78,
      "m": 79,
      "n": 80,
      "o": 81,
      "p": 82,
      "q": 83,
      "r": 84,
      "s": 85,
      "t": 86,
      "u": 87,
      "v": 88,
      "w": 89,
      "x": 90,
      "y": 91,
      "z": 92,
      "{": 93,
      "|": 94,
      "}": 95,
      "~": 96,
      "¡": 97,
      "¢": 98,
      "£": 99,
      "¤": 100,
      "¦": 101,
      "§": 102,
      "¨": 103,
      "©": 104,
      "ª": 105,
      "«": 106,
      "¬": 107,
      "¯": 108,
      "°": 109,
      "±": 110,
      "³": 111,
      "´": 112,
      "¶": 113,
      "·": 114,
      "¸": 115,
      "º": 116,
      "»": 117,
      "½": 118,
      "¿": 119,
      "Â": 120,
      "Ã": 121,
      "Ä": 122,
      "Å": 123,
      "É": 124,
      "Ê": 125,
      "Ò": 126,
      "á": 127,
      "â": 128,
      "ã": 129,
      "ï": 130,
      "ð": 131,
      "Œ": 132,
      "œ": 133,
      "Š": 134,
      "Ÿ": 135,
      "Ž": 136,
      "ž": 137,
      "ˆ": 138,
      "˜": 139,
      "–": 140,
      "‘": 141,
      "’": 142,
      "‚": 143,
      "“": 144,
      "”": 145,
      "„": 146,
      "‡": 147,
      "•": 148,
      "…": 149,
      "‰": 150,
      "‹": 151,
      "›": 152,
      "€": 153,
      "™": 154,
      "##r": 155,
      "##e": 156,
      "##s": 157,
      "##d": 158,
      "##a": 159,
      "##m": 160,
      "##€": 161,
      "##œ": 162,
      "##P": 163,
      "##l": 164,
      "##n": 165,
      "##t": 166,
      "##y": 167,
      "##u": 168,
      "##o": 169,
      "##g": 170,
      "##p": 171,
      "##h": 172,
      "##c": 173,
      "##w": 174,
      "##i": 175,
      "##k": 176,
      "##f": 177,
      "##â": 178,
      "##b": 179,
      "##z": 180,
      "##S": 181,
      "##¦": 182,
      "##1": 183,
      "##0": 184,
      "##x": 185,
      "##Ã": 186,
      "##±": 187,
      "##˜": 188,
      "##™": 189,
      "##U": 190,
      "##I": 191,
      "##L": 192,
      "##T": 193,
      "##v": 194,
      "##q": 195,
      "##M": 196,
      "##C": 197,
      "##B": 198,
      "##R": 199,
      "##N": 200,
      "##G": 201,
      "##E": 202,
      "##J": 203,
      "##A": 204,
      "##H": 205,
      "##O": 206,
      "##F": 207,
      "##³": 208,
      "##X": 209,
      "##Y": 210,
      "##Â": 211,
      "##K": 212,
      "##D": 213,
      "##j": 214,
      "##W": 215,
      "##3": 216,
      "##°": 217,
      "##Z": 218,
      "##´": 219,
      "##á": 220,
      "##4": 221,
      "##V": 222,
      "##8": 223,
      "##6": 224,
      "##2": 225,
      "##¤": 226,
      "##ï": 227,
      "##¸": 228,
      "##5": 229,
      "##9": 230,
      "##Q": 231,
      "##Š": 232,
      "##7": 233,
      "##©": 234,
      "##¨": 235,
      "##Ä": 236,
      "##É": 237,
      "##ª": 238,
      "##¢": 239,
      "##Ê": 240,
      "##Ÿ": 241,
      "##Œ": 242,
      "##ž": 243,
      "##¯": 244,
      "##£": 245,
      "##¬": 246,
      "##Ž": 247,
      "##Å": 248,
      "##Ò": 249,
      "##º": 250,
      "##ð": 251,
      "##ˆ": 252,
      "##he": 253,
      "##nd": 254,
      "the": 255,
      "##ed": 256,
      "and": 257,
      "##er": 258,
      "to": 259,
      "wa": 260,
      "##ou": 261,
      "##in": 262,
      "##re": 263,
      "was": 264,
      "##om": 265,
      "The": 266,
      "##ay": 267,
      "##ar": 268,
      "##ing": 269,
      "##il": 270,
      "##it": 271,
      "##id": 272,
      "##at": 273,
      "sa": 274,
      "##en": 275,
      "ha": 276,
      "##is": 277,
      "##an": 278,
      "##or": 279,
      "##im": 280,
      "he": 281,
      "##on": 282,
      "it": 283,
      "th": 284,
      "##ut": 285,
      "##ll": 286,
      "##le": 287,
      "her": 288,
      "##et": 289,
      "He": 290,
      "##ot": 291,
      "She": 292,
      "##ir": 293,
      "##es": 294,
      "They": 295,
      "in": 296,
      "##ow": 297,
      "##ck": 298,
      "##ld": 299,
      "##oo": 300,
      "said": 301,
      "##ily": 302,
      "be": 303,
      "##ig": 304,
      "##am": 305,
      "st": 306,
      "##ce": 307,
      "she": 308,
      "##pp": 309,
      "##ith": 310,
      "##ve": 311,
      "with": 312,
      "Lily": 313,
      "On": 314,
      "on": 315,
      "you": 316,
      "of": 317,
      "##ked": 318,
      "##ri": 319,
      "so": 320,
      "his": 321,
      "pl": 322,
      "##ery": 323,
      "##ad": 324,
      "##ke": 325,
      "##nt": 326,
      "day": 327,
      "that": 328,
      "up": 329,
      "play": 330,
      "had": 331,
      "they": 332,
      "##el": 333,
      "mom": 334,
      "for": 335,
      "##st": 336,
      "##un": 337,
      "##ould": 338,
      "##my": 339,
      "##ent": 340,
      "li": 341,
      "##ch": 342,
      "happ": 343,
      "want": 344,
      "##itt": 345,
      "sh": 346,
      "##her": 347,
      "It": 348,
      "do": 349,
      "##ly": 350,
      "not": 351,
      "##ome": 352,
      "very": 353,
      "##se": 354,
      "##ound": 355,
      "##end": 356,
      "##all": 357,
      "wh": 358,
      "##ime": 359,
      "##ittle": 360,
      "time": 361,
      "little": 362,
      "##al": 363,
      "there": 364,
      "ne": 365,
      "##ht": 366,
      "happy": 367,
      "sm": 368,
      "big": 369,
      "is": 370,
      "but": 371,
      "##ra": 372,
      "an": 373,
      "saw": 374,
      "##riend": 375,
      "friend": 376,
      "as": 377,
      "##ry": 378,
      "##ack": 379,
      "One": 380,
      "##ake": 381,
      "re": 382,
      "##ere": 383,
      "Tim": 384,
      "##ter": 385,
      "##ug": 386,
      "loo": 387,
      "##ved": 388,
      "were": 389,
      "Once": 390,
      "lo": 391,
      "##ore": 392,
      "##ec": 393,
      "him": 394,
      "too": 395,
      "go": 396,
      "##ur": 397,
      "bo": 398,
      "##ide": 399,
      "se": 400,
      "##irl": 401,
      "##ver": 402,
      "are": 403,
      "Tom": 404,
      "wanted": 405,
      "##ard": 406,
      "##ill": 407,
      "girl": 408,
      "upon": 409,
      "out": 410,
      "them": 411,
      "at": 412,
      "Ben": 413,
      "their": 414,
      "##fu": 415,
      "sp": 416,
      "##way": 417,
      "##ind": 418,
      "smil": 419,
      "did": 420,
      "could": 421,
      "##hen": 422,
      "have": 423,
      "##ted": 424,
      "##ain": 425,
      "ex": 426,
      "##hed": 427,
      "But": 428,
      "##rom": 429,
      "went": 430,
      "ar": 431,
      "##lp": 432,
      "can": 433,
      "##ic": 434,
      "##ful": 435,
      "##ood": 436,
      "##hing": 437,
      "friends": 438,
      "nam": 439,
      "##ight": 440,
      "all": 441,
      "kn": 442,
      "help": 443,
      "##um": 444,
      "##ark": 445,
      "##one": 446,
      "back": 447,
      "say": 448,
      "cl": 449,
      "fun": 450,
      "You": 451,
      "no": 452,
      "##are": 453,
      "##ear": 454,
      "##very": 455,
      "Timmy": 456,
      "##op": 457,
      "star": 458,
      "smiled": 459,
      "sc": 460,
      "named": 461,
      "al": 462,
      "##oug": 463,
      "loved": 464,
      "##side": 465,
      "man": 466,
      "##elt": 467,
      "asked": 468,
      "##ick": 469,
      "toy": 470,
      "Mom": 471,
      "like": 472,
      "felt": 473,
      "see": 474,
      "looked": 475,
      "some": 476,
      "around": 477,
      "me": 478,
      "##ep": 479,
      "##ame": 480,
      "##omet": 481,
      "fe": 482,
      "ro": 483,
      "br": 484,
      "##ure": 485,
      "bir": 486,
      "##get": 487,
      "boy": 488,
      "would": 489,
      "##ong": 490,
      "##ea": 491,
      "##ss": 492,
      "somet": 493,
      "bird": 494,
      "fa": 495,
      "##dd": 496,
      "##est": 497,
      "##ings": 498,
      "wor": 499,
      "ag": 500,
      "what": 501,
      "##ade": 502,
      "##king": 503,
      "make": 504,
      "##ie": 505,
      "car": 506,
      "##own": 507,
      "tre": 508,
      "##gether": 509,
      "ran": 510,
      "away": 511,
      "##ag": 512,
      "Th": 513,
      "we": 514,
      "says": 515,
      "started": 516,
      "##ice": 517,
      "##oud": 518,
      "made": 519,
      "something": 520,
      "together": 521,
      "##ther": 522,
      "##ited": 523,
      "park": 524,
      "co": 525,
      "sad": 526,
      "other": 527,
      "new": 528,
      "exc": 529,
      "put": 530,
      "from": 531,
      "##out": 532,
      "pr": 533,
      "scar": 534,
      "la": 535,
      "hug": 536,
      "##ble": 537,
      "mu": 538,
      "##ook": 539,
      "again": 540,
      "home": 541,
      "when": 542,
      "good": 543,
      "who": 544,
      "ch": 545,
      "##ried": 546,
      "fl": 547,
      "found": 548,
      "then": 549,
      "dec": 550,
      "##pped": 551,
      "wal": 552,
      "get": 553,
      "playing": 554,
      "##ought": 555,
      "##ach": 556,
      "##pl": 557,
      "##ally": 558,
      "Su": 559,
      "sw": 560,
      "##ous": 561,
      "â€": 562,
      "things": 563,
      "##nn": 564,
      "excited": 565,
      "liked": 566,
      "got": 567,
      "##uck": 568,
      "Sam": 569,
      "##ro": 570,
      "##ided": 571,
      "##as": 572,
      "##ell": 573,
      "decided": 574,
      "bl": 575,
      "every": 576,
      "came": 577,
      "##ara": 578,
      "Ann": 579,
      "your": 580,
      "##ax": 581,
      "one": 582,
      "scared": 583,
      "##ust": 584,
      "dog": 585,
      "down": 586,
      "##ny": 587,
      "##ouse": 588,
      "find": 589,
      "care": 590,
      "bec": 591,
      "than": 592,
      "Sara": 593,
      "feel": 594,
      "We": 595,
      "Anna": 596,
      "dad": 597,
      "ab": 598,
      "my": 599,
      "Max": 600,
      "look": 601,
      "##ap": 602,
      "##ist": 603,
      "will": 604,
      "gr": 605,
      "##nder": 606,
      "gra": 607,
      "##ways": 608,
      "##ess": 609,
      "didn": 610,
      "po": 611,
      "took": 612,
      "always": 613,
      "about": 614,
      "##bb": 615,
      "##ers": 616,
      "mommy": 617,
      "##ned": 618,
      "lot": 619,
      "toys": 620,
      "kne": 621,
      "So": 622,
      "##ise": 623,
      "##ant": 624,
      "bu": 625,
      "old": 626,
      "##ite": 627,
      "outside": 628,
      "##ave": 629,
      "tree": 630,
      "ball": 631,
      "thought": 632,
      "lear": 633,
      "more": 634,
      "##eci": 635,
      "##ened": 636,
      "ta": 637,
      "##ched": 638,
      "ho": 639,
      "When": 640,
      "##ret": 641,
      "##ged": 642,
      "know": 643,
      "pu": 644,
      "Jo": 645,
      "Wh": 646,
      "##to": 647,
      "laug": 648,
      "take": 649,
      "sor": 650,
      "speci": 651,
      "special": 652,
      "cat": 653,
      "##dden": 654,
      "knew": 655,
      "##ty": 656,
      "##ive": 657,
      "Her": 658,
      "##ff": 659,
      "any": 660,
      "##ddenly": 661,
      "##ia": 662,
      "##fter": 663,
      "how": 664,
      "##au": 665,
      "##ue": 666,
      "##ma": 667,
      "show": 668,
      "##ink": 669,
      "sorry": 670,
      "Jack": 671,
      "tw": 672,
      "much": 673,
      "##ish": 674,
      "run": 675,
      "tr": 676,
      "Every": 677,
      "hand": 678,
      "sl": 679,
      "##ven": 680,
      "house": 681,
      "##and": 682,
      "or": 683,
      "op": 684,
      "sk": 685,
      "mo": 686,
      "clo": 687,
      "sun": 688,
      "into": 689,
      "tried": 690,
      "inside": 691,
      "##ate": 692,
      "told": 693,
      "this": 694,
      "water": 695,
      "en": 696,
      "proud": 697,
      "if": 698,
      "##ump": 699,
      "couldn": 700,
      "over": 701,
      "##dy": 702,
      "gave": 703,
      "heard": 704,
      "##ank": 705,
      "never": 706,
      "each": 707,
      "##by": 708,
      "room": 709,
      "eat": 710,
      "expl": 711,
      "Suddenly": 712,
      "##other": 713,
      "##ause": 714,
      "##ion": 715,
      "pick": 716,
      "pret": 717,
      "played": 718,
      "Then": 719,
      "##ge": 720,
      "##etter": 721,
      "Mia": 722,
      "just": 723,
      "gre": 724,
      "hugged": 725,
      "qu": 726,
      "Let": 727,
      "##here": 728,
      "off": 729,
      "wat": 730,
      "com": 731,
      "##oth": 732,
      "box": 733,
      "##our": 734,
      "nice": 735,
      "And": 736,
      "From": 737,
      "because": 738,
      "str": 739,
      "need": 740,
      "ra": 741,
      "His": 742,
      "pe": 743,
      "##ile": 744,
      "many": 745,
      "##ft": 746,
      "##fe": 747,
      "##uc": 748,
      "bear": 749,
      "fo": 750,
      "small": 751,
      "jo": 752,
      "##eep": 753,
      "##iz": 754,
      "##sed": 755,
      "##ving": 756,
      "long": 757,
      "##kes": 758,
      "##em": 759,
      "##gry": 760,
      "##ine": 761,
      "##imal": 762,
      "animal": 763,
      "sn": 764,
      "##ough": 765,
      "try": 766,
      "That": 767,
      "unt": 768,
      "##ort": 769,
      "##ild": 770,
      "##sel": 771,
      "##urt": 772,
      "until": 773,
      "kind": 774,
      "learned": 775,
      "im": 776,
      "bea": 777,
      "better": 778,
      "love": 779,
      "call": 780,
      "flow": 781,
      "don": 782,
      "end": 783,
      "ad": 784,
      "##vent": 785,
      "best": 786,
      "##ning": 787,
      "##ady": 788,
      "##urp": 789,
      "##ream": 790,
      "cle": 791,
      "##ves": 792,
      "ma": 793,
      "â€œ": 794,
      "##arden": 795,
      "garden": 796,
      "cu": 797,
      "fast": 798,
      "##lly": 799,
      "careful": 800,
      "##ber": 801,
      "Mommy": 802,
      "beaut": 803,
      "fi": 804,
      "even": 805,
      "by": 806,
      "bra": 807,
      "thanked": 808,
      "##ies": 809,
      "che": 810,
      "laughed": 811,
      "sky": 812,
      "What": 813,
      "##sh": 814,
      "jump": 815,
      "gl": 816,
      "Yes": 817,
      "loud": 818,
      "##self": 819,
      "##iny": 820,
      "way": 821,
      "beauti": 822,
      "##lew": 823,
      "come": 824,
      "list": 825,
      "wo": 826,
      "beautiful": 827,
      "hard": 828,
      "lots": 829,
      "##ase": 830,
      "fam": 831,
      "Can": 832,
      "still": 833,
      "animals": 834,
      "Joh": 835,
      "hurt": 836,
      "under": 837,
      "let": 838,
      "stay": 839,
      "##wn": 840,
      "both": 841,
      "##hes": 842,
      "##ct": 843,
      "safe": 844,
      "##be": 845,
      "##ool": 846,
      "##ree": 847,
      "col": 848,
      "lea": 849,
      "two": 850,
      "di": 851,
      "bad": 852,
      "book": 853,
      "##ace": 854,
      "##ane": 855,
      "imp": 856,
      "##ople": 857,
      "rem": 858,
      "As": 859,
      "lived": 860,
      "Luc": 861,
      "##kay": 862,
      "Lucy": 863,
      "walked": 864,
      "##ock": 865,
      "su": 866,
      "should": 867,
      "brave": 868,
      "##urpr": 869,
      "##ob": 870,
      "its": 871,
      "##ished": 872,
      "family": 873,
      "angry": 874,
      "surpr": 875,
      "##ept": 876,
      "flew": 877,
      "##igh": 878,
      "##ress": 879,
      "Thank": 880,
      "people": 881,
      "called": 882,
      "red": 883,
      "After": 884,
      "##ip": 885,
      "stor": 886,
      "fin": 887,
      "##eet": 888,
      "soon": 889,
      "##ast": 890,
      "##led": 891,
      "kept": 892,
      "fore": 893,
      "##ect": 894,
      "Dad": 895,
      "##art": 896,
      "##fore": 897,
      "John": 898,
      "dan": 899,
      "fly": 900,
      "share": 901,
      "##xt": 902,
      "le": 903,
      "##ised": 904,
      "No": 905,
      "##dded": 906,
      "pic": 907,
      "door": 908,
      "going": 909,
      "tur": 910,
      "pretty": 911,
      "keep": 912,
      "##â€": 913,
      "now": 914,
      "rock": 915,
      "clean": 916,
      "##ummy": 917,
      "dra": 918,
      "advent": 919,
      "noise": 920,
      "opened": 921,
      "shiny": 922,
      "##age": 923,
      "wind": 924,
      "con": 925,
      "before": 926,
      "id": 927,
      "cry": 928,
      "doll": 929,
      "real": 930,
      "idea": 931,
      "##illy": 932,
      "sto": 933,
      "Sp": 934,
      "##so": 935,
      "ground": 936,
      "explore": 937,
      "also": 938,
      "far": 939,
      "##les": 940,
      "##ied": 941,
      "ey": 942,
      "fr": 943,
      "##â€™": 944,
      "color": 945,
      "nodded": 946,
      "war": 947,
      "feeling": 948,
      "Bob": 949,
      "un": 950,
      "picked": 951,
      "##oy": 952,
      "next": 953,
      "##imb": 954,
      "walking": 955,
      "##thing": 956,
      "##ture": 957,
      "##ting": 958,
      "has": 959,
      "climb": 960,
      "thr": 961,
      "while": 962,
      "bed": 963,
      "smile": 964,
      "adventure": 965,
      "##th": 966,
      "##aybe": 967,
      "##ser": 968,
      "##iced": 969,
      "##ious": 970,
      "##qu": 971,
      "##ger": 972,
      "looking": 973,
      "being": 974,
      "wr": 975,
      "diff": 976,
      "food": 977,
      "##joy": 978,
      "give": 979,
      "picture": 980,
      "think": 981,
      "del": 982,
      "wait": 983,
      "Spot": 984,
      "eyes": 985,
      "truck": 986,
      "tow": 987,
      "##ught": 988,
      "tra": 989,
      "repl": 990,
      "gi": 991,
      "bro": 992,
      "stopped": 993,
      "listen": 994,
      "after": 995,
      "Do": 996,
      "walk": 997,
      "bre": 998,
      "vo": 999,
      "year": 1000,
      "##ember": 1001,
      "great": 1002,
      "wonder": 1003,
      "Sue": 1004,
      "hands": 1005,
      "head": 1006,
      "enjoy": 1007,
      "import": 1008,
      "forest": 1009,
      "ever": 1010,
      "##bbit": 1011,
      "blue": 1012,
      "flowers": 1013,
      "noticed": 1014,
      "near": 1015,
      "##ized": 1016,
      "own": 1017,
      "quick": 1018,
      "app": 1019,
      "dis": 1020,
      "##irst": 1021,
      "ac": 1022,
      "##able": 1023,
      "important": 1024,
      "remember": 1025,
      "fish": 1026,
      "sound": 1027,
      "##llow": 1028,
      "##maz": 1029,
      "replied": 1030,
      "us": 1031,
      "slide": 1032,
      "amaz": 1033,
      "watch": 1034,
      "rain": 1035,
      "work": 1036,
      "##lease": 1037,
      "showed": 1038,
      "rabbit": 1039,
      "tal": 1040,
      "##gan": 1041,
      "okay": 1042,
      "##bbed": 1043,
      "ru": 1044,
      "ask": 1045,
      "Sarah": 1046,
      "differ": 1047,
      "mean": 1048,
      "right": 1049,
      "tou": 1050,
      "##bye": 1051,
      "Look": 1052,
      "##day": 1053,
      "watched": 1054,
      "bright": 1055,
      "everyone": 1056,
      "follow": 1057,
      "strong": 1058,
      "This": 1059,
      "use": 1060,
      "stick": 1061,
      "mor": 1062,
      "been": 1063,
      "voice": 1064,
      "##ered": 1065,
      "quickly": 1066,
      "our": 1067,
      "where": 1068,
      "Jane": 1069,
      "##ath": 1070,
      "yell": 1071,
      "different": 1072,
      "curi": 1073,
      "child": 1074,
      "sure": 1075,
      "##ng": 1076,
      "boat": 1077,
      "##ey": 1078,
      "goodbye": 1079,
      "Maybe": 1080,
      "became": 1081,
      "face": 1082,
      "place": 1083,
      "##ange": 1084,
      "hop": 1085,
      "high": 1086,
      "##oon": 1087,
      "am": 1088,
      "closer": 1089,
      "##aught": 1090,
      "store": 1091,
      "##unny": 1092,
      "warm": 1093,
      "does": 1094,
      "tea": 1095,
      "##ila": 1096,
      "dress": 1097,
      "##llo": 1098,
      "mag": 1099,
      "curious": 1100,
      "bel": 1101,
      "cook": 1102,
      "forg": 1103,
      "tell": 1104,
      "fav": 1105,
      "Lila": 1106,
      "##ndma": 1107,
      "##ass": 1108,
      "three": 1109,
      "##ount": 1110,
      "##leep": 1111,
      "ba": 1112,
      "##co": 1113,
      "cake": 1114,
      "night": 1115,
      "open": 1116,
      "shar": 1117,
      "here": 1118,
      "##more": 1119,
      "block": 1120,
      "anymore": 1121,
      "##itc": 1122,
      "##ull": 1123,
      "first": 1124,
      "##iss": 1125,
      "pull": 1126,
      "##ached": 1127,
      "##imes": 1128,
      "##ired": 1129,
      "butter": 1130,
      "In": 1131,
      "pain": 1132,
      "##isy": 1133,
      "sweet": 1134,
      "grabbed": 1135,
      "kid": 1136,
      "##orn": 1137,
      "mon": 1138,
      "only": 1139,
      "fell": 1140,
      "Everyone": 1141,
      "birds": 1142,
      "cont": 1143,
      "jumped": 1144,
      "##itchen": 1145,
      "kitchen": 1146,
      "glad": 1147,
      "sand": 1148,
      "bit": 1149,
      "sees": 1150,
      "Don": 1151,
      "per": 1152,
      "fire": 1153,
      "helped": 1154,
      "squ": 1155,
      "flo": 1156,
      "stop": 1157,
      "hear": 1158,
      "##outed": 1159,
      "Joe": 1160,
      "happened": 1161,
      "cra": 1162,
      "bunny": 1163,
      "sing": 1164,
      "Tommy": 1165,
      "grass": 1166,
      "tri": 1167,
      "##nts": 1168,
      "shouted": 1169,
      "story": 1170,
      "dr": 1171,
      "##air": 1172,
      "realized": 1173,
      "brother": 1174,
      "yummy": 1175,
      "beh": 1176,
      "reached": 1177,
      "cr": 1178,
      "##ppy": 1179,
      "lady": 1180,
      "mum": 1181,
      "having": 1182,
      "favor": 1183,
      "##ins": 1184,
      "prin": 1185,
      "learn": 1186,
      "##ary": 1187,
      "mess": 1188,
      "favorite": 1189,
      "hat": 1190,
      "cre": 1191,
      "ate": 1192,
      "through": 1193,
      "game": 1194,
      "soft": 1195,
      "underst": 1196,
      "draw": 1197,
      "less": 1198,
      "##zy": 1199,
      "pare": 1200,
      "thing": 1201,
      "##ather": 1202,
      "really": 1203,
      "ready": 1204,
      "##where": 1205,
      "began": 1206,
      "pretend": 1207,
      "world": 1208,
      "himself": 1209,
      "##ken": 1210,
      "magic": 1211,
      "looks": 1212,
      "##fully": 1213,
      "pap": 1214,
      "done": 1215,
      "Now": 1216,
      "butterf": 1217,
      "making": 1218,
      "cut": 1219,
      "rest": 1220,
      "coming": 1221,
      "duck": 1222,
      "why": 1223,
      "pond": 1224,
      "##ater": 1225,
      "waved": 1226,
      "kids": 1227,
      "fro": 1228,
      "prom": 1229,
      "tired": 1230,
      "worry": 1231,
      "fix": 1232,
      "fill": 1233,
      "##olly": 1234,
      "cars": 1235,
      "delic": 1236,
      "Fin": 1237,
      "name": 1238,
      "mouse": 1239,
      "##aisy": 1240,
      "flower": 1241,
      "##eddy": 1242,
      "Sally": 1243,
      "touch": 1244,
      "funny": 1245,
      "catch": 1246,
      "thank": 1247,
      "tast": 1248,
      "seen": 1249,
      "used": 1250,
      "hair": 1251,
      "##ak": 1252,
      "##ient": 1253,
      "##bo": 1254,
      "top": 1255,
      "another": 1256,
      "parents": 1257,
      "##rel": 1258,
      "hopped": 1259,
      "Wow": 1260,
      "cried": 1261,
      "##oney": 1262,
      "hold": 1263,
      "blocks": 1264,
      "There": 1265,
      "doing": 1266,
      "##iver": 1267,
      "cool": 1268,
      "##mer": 1269,
      "##ac": 1270,
      "surprise": 1271,
      "green": 1272,
      "turn": 1273,
      "light": 1274,
      "##ster": 1275,
      "years": 1276,
      "lesson": 1277,
      "##ation": 1278,
      "read": 1279,
      "floor": 1280,
      "dri": 1281,
      "din": 1282,
      "wood": 1283,
      "full": 1284,
      "trees": 1285,
      "##ards": 1286,
      "running": 1287,
      "window": 1288,
      "worked": 1289,
      "dark": 1290,
      "dro": 1291,
      "par": 1292,
      "spot": 1293,
      "smell": 1294,
      "wished": 1295,
      "##ons": 1296,
      "likes": 1297,
      "behind": 1298,
      "wear": 1299,
      "paper": 1300,
      "bow": 1301,
      "##ued": 1302,
      "bag": 1303,
      "yellow": 1304,
      "Daisy": 1305,
      "happily": 1306,
      "swim": 1307,
      "##ely": 1308,
      "##andy": 1309,
      "##ren": 1310,
      "##ul": 1311,
      "sho": 1312,
      "sat": 1313,
      "Em": 1314,
      "sleep": 1315,
      "##us": 1316,
      "Benny": 1317,
      "frog": 1318,
      "Jim": 1319,
      "surprised": 1320,
      "butterfly": 1321,
      "set": 1322,
      "swing": 1323,
      "carefully": 1324,
      "##â€™s": 1325,
      "lost": 1326,
      "cold": 1327,
      "slow": 1328,
      "held": 1329,
      "remembered": 1330,
      "##ike": 1331,
      "ice": 1332,
      "To": 1333,
      "##uff": 1334,
      "At": 1335,
      "laugh": 1336,
      "buy": 1337,
      "hole": 1338,
      "##rew": 1339,
      "needed": 1340,
      "perf": 1341,
      "Gra": 1342,
      "ste": 1343,
      "left": 1344,
      "move": 1345,
      "Billy": 1346,
      "anything": 1347,
      "##reed": 1348,
      "enjoyed": 1349,
      "tall": 1350,
      "wrong": 1351,
      "dream": 1352,
      "Hello": 1353,
      "##cess": 1354,
      "air": 1355,
      "arri": 1356,
      "Finally": 1357,
      "fair": 1358,
      "el": 1359,
      "followed": 1360,
      "books": 1361,
      "##ross": 1362,
      "hun": 1363,
      "children": 1364,
      "bus": 1365,
      "delicious": 1366,
      "Molly": 1367,
      "please": 1368,
      "table": 1369,
      "finished": 1370,
      "friendly": 1371,
      "contin": 1372,
      "hot": 1373,
      "snow": 1374,
      "herself": 1375,
      "dir": 1376,
      "##lf": 1377,
      "##ds": 1378,
      "understand": 1379,
      "cream": 1380,
      "##ens": 1381,
      "Amy": 1382,
      "hill": 1383,
      "close": 1384,
      "##ined": 1385,
      "cast": 1386,
      "arm": 1387,
      "arrived": 1388,
      "else": 1389,
      "hid": 1390,
      "baby": 1391,
      "wonderful": 1392,
      "might": 1393,
      "tight": 1394,
      "gent": 1395,
      "res": 1396,
      "yes": 1397,
      "forgot": 1398,
      "##ield": 1399,
      "bug": 1400,
      "Jen": 1401,
      "rel": 1402,
      "sig": 1403,
      "build": 1404,
      "colors": 1405,
      "##ner": 1406,
      "broken": 1407,
      "able": 1408,
      "##av": 1409,
      "gone": 1410,
      "filled": 1411,
      "squir": 1412,
      "song": 1413,
      "wall": 1414,
      "##ich": 1415,
      "agreed": 1416,
      "someone": 1417,
      "gu": 1418,
      "mat": 1419,
      "fur": 1420,
      "##room": 1421,
      "continued": 1422,
      "count": 1423,
      "creat": 1424,
      "ll": 1425,
      "##asure": 1426,
      "##set": 1427,
      "pat": 1428,
      "wants": 1429,
      "squirrel": 1430,
      "##ask": 1431,
      "pink": 1432,
      "leaves": 1433,
      "enough": 1434,
      "bar": 1435,
      "lion": 1436,
      "##ama": 1437,
      "morning": 1438,
      "moment": 1439,
      "vis": 1440,
      "Why": 1441,
      "OK": 1442,
      "finally": 1443,
      "getting": 1444,
      "stayed": 1445,
      "break": 1446,
      "cookies": 1447,
      "##shed": 1448,
      "beach": 1449,
      "##ence": 1450,
      "##ance": 1451,
      "sometimes": 1452,
      "poin": 1453,
      "##app": 1454,
      "few": 1455,
      "##ries": 1456,
      "scary": 1457,
      "fight": 1458,
      "##ced": 1459,
      "hungry": 1460,
      "##row": 1461,
      "##red": 1462,
      "turned": 1463,
      "fall": 1464,
      "grandma": 1465,
      "dinner": 1466,
      "##gon": 1467,
      "wet": 1468,
      "amazing": 1469,
      "trying": 1470,
      "ju": 1471,
      "mother": 1472,
      "pi": 1473,
      "##apped": 1474,
      "daddy": 1475,
      "perfect": 1476,
      "makes": 1477,
      "castle": 1478,
      "plan": 1479,
      "others": 1480,
      "pictures": 1481,
      "comp": 1482,
      "##key": 1483,
      "##oup": 1484,
      "climbed": 1485,
      "talk": 1486,
      "met": 1487,
      "mus": 1488,
      "mar": 1489,
      "##man": 1490,
      "##amp": 1491,
      "white": 1492,
      "listened": 1493,
      "smiles": 1494,
      "##oring": 1495,
      "##oom": 1496,
      "balloon": 1497,
      "clot": 1498,
      "Jill": 1499,
      "Come": 1500,
      "alone": 1501,
      "clothes": 1502,
      "##rot": 1503,
      "pol": 1504,
      "spl": 1505,
      "joy": 1506,
      "tail": 1507,
      "##ated": 1508,
      "wasn": 1509,
      "##ee": 1510,
      "puppy": 1511,
      "brought": 1512,
      "deep": 1513,
      "everything": 1514,
      "##ctor": 1515,
      "pet": 1516,
      "strange": 1517,
      "sear": 1518,
      "##ister": 1519,
      "spark": 1520,
      "##elc": 1521,
      "sit": 1522,
      "##der": 1523,
      "grow": 1524,
      "woods": 1525,
      "##ling": 1526,
      "pulled": 1527,
      "start": 1528,
      "sail": 1529,
      "##sp": 1530,
      "##ott": 1531,
      "won": 1532,
      "ride": 1533,
      "asks": 1534,
      "##eter": 1535,
      "pie": 1536,
      "treat": 1537,
      "roll": 1538,
      "danger": 1539,
      "visit": 1540,
      "Daddy": 1541,
      "fox": 1542,
      "Soon": 1543,
      "##med": 1544,
      "##os": 1545,
      "music": 1546,
      "##uffy": 1547,
      "teddy": 1548,
      "leave": 1549,
      "Oh": 1550,
      "Mama": 1551,
      "##ucky": 1552,
      "ow": 1553,
      "hide": 1554,
      "amazed": 1555,
      "waited": 1556,
      "##ang": 1557,
      "towards": 1558,
      "All": 1559,
      "pre": 1560,
      "##ever": 1561,
      "##me": 1562,
      "##ower": 1563,
      "field": 1564,
      "land": 1565,
      "##ead": 1566,
      "##zz": 1567,
      "##lep": 1568,
      "flying": 1569,
      "##cy": 1570,
      "silly": 1571,
      "##ained": 1572,
      "shared": 1573,
      "owner": 1574,
      "runs": 1575,
      "pen": 1576,
      "cloud": 1577,
      "##ugg": 1578,
      "living": 1579,
      "belie": 1580,
      "##ape": 1581,
      "job": 1582,
      "##ol": 1583,
      "qui": 1584,
      "##ames": 1585,
      "##ash": 1586,
      "promised": 1587,
      "##igg": 1588,
      "side": 1589,
      "moral": 1590,
      "lake": 1591,
      "##orm": 1592,
      "##gs": 1593,
      "Mary": 1594,
      "##cket": 1595,
      "thinks": 1596,
      "paint": 1597,
      "sister": 1598,
      "##ope": 1599,
      "sec": 1600,
      "##thy": 1601,
      "##ually": 1602,
      "party": 1603,
      "##ises": 1604,
      "quiet": 1605,
      "must": 1606,
      "money": 1607,
      "##avy": 1608,
      "worried": 1609,
      "Okay": 1610,
      "pot": 1611,
      "##unch": 1612,
      "##cle": 1613,
      "race": 1614,
      "##sw": 1615,
      "Just": 1616,
      "Mr": 1617,
      "##eces": 1618,
      "answ": 1619,
      "grate": 1620,
      "slowly": 1621,
      "colorful": 1622,
      "pieces": 1623,
      "faster": 1624,
      "bran": 1625,
      "welc": 1626,
      "dance": 1627,
      "##ix": 1628,
      "bott": 1629,
      "cup": 1630,
      "broke": 1631,
      "Sure": 1632,
      "grateful": 1633,
      "such": 1634,
      "##ze": 1635,
      "bigger": 1636,
      "Fl": 1637,
      "snack": 1638,
      "train": 1639,
      "cho": 1640,
      "St": 1641,
      "blank": 1642,
      "reach": 1643,
      "monster": 1644,
      "pro": 1645,
      "##less": 1646,
      "black": 1647,
      "##uit": 1648,
      "river": 1649,
      "join": 1650,
      "stu": 1651,
      "scream": 1652,
      "pea": 1653,
      "blanket": 1654,
      "win": 1655,
      "magical": 1656,
      "##ased": 1657,
      "candy": 1658,
      "ear": 1659,
      "smart": 1660,
      "treasure": 1661,
      "dragon": 1662,
      "princess": 1663,
      "dangerous": 1664,
      "Mum": 1665,
      "bike": 1666,
      "everywhere": 1667,
      "##eak": 1668,
      "most": 1669,
      "nap": 1670,
      "monkey": 1671,
      "across": 1672,
      "Jimmy": 1673,
      "em": 1674,
      "helping": 1675,
      "##aw": 1676,
      "##outh": 1677,
      "##cked": 1678,
      "farmer": 1679,
      "mouth": 1680,
      "Grandma": 1681,
      "##icy": 1682,
      "disapp": 1683,
      "words": 1684,
      "stre": 1685,
      "##eared": 1686,
      "tower": 1687,
      "stepped": 1688,
      "##ming": 1689,
      "##leph": 1690,
      "heavy": 1691,
      "bowl": 1692,
      "pass": 1693,
      "threw": 1694,
      "##de": 1695,
      "dolls": 1696,
      "bite": 1697,
      "spr": 1698,
      "believe": 1699,
      "bee": 1700,
      "dirty": 1701,
      "doctor": 1702,
      "twins": 1703,
      "crying": 1704,
      "##ored": 1705,
      "##â€™t": 1706,
      "same": 1707,
      "sign": 1708,
      "acc": 1709,
      "##ches": 1710,
      "##ident": 1711,
      "heal": 1712,
      "carrot": 1713,
      "Hi": 1714,
      "##fort": 1715,
      "wouldn": 1716,
      "bath": 1717,
      "closed": 1718,
      "hig": 1719,
      "##chool": 1720,
      "fruit": 1721,
      "##ale": 1722,
      "##bble": 1723,
      "stuck": 1724,
      "heart": 1725,
      "cour": 1726,
      "att": 1727,
      "min": 1728,
      "buck": 1729,
      "Emma": 1730,
      "Please": 1731,
      "hoped": 1732,
      "plant": 1733,
      "##asket": 1734,
      "brown": 1735,
      "mix": 1736,
      "basket": 1737,
      "school": 1738,
      "##ipped": 1739,
      "suddenly": 1740,
      "##iting": 1741,
      "eating": 1742,
      "cray": 1743,
      "feels": 1744,
      "town": 1745,
      "clapped": 1746,
      "chair": 1747,
      "course": 1748,
      "##cher": 1749,
      "butt": 1750,
      "gentle": 1751,
      "fairy": 1752,
      "coll": 1753,
      "pack": 1754,
      "##pping": 1755,
      "##ventually": 1756,
      "stand": 1757,
      "##ier": 1758,
      "drove": 1759,
      "welcome": 1760,
      "pushed": 1761,
      "##ire": 1762,
      "##ors": 1763,
      "##issed": 1764,
      "##br": 1765,
      "without": 1766,
      "Inside": 1767,
      "higher": 1768,
      "swings": 1769,
      "##orrow": 1770,
      "today": 1771,
      "ve": 1772,
      "neigh": 1773,
      "hit": 1774,
      "pocket": 1775,
      "teacher": 1776,
      "â€œI": 1777,
      "smo": 1778,
      "pers": 1779,
      "neighb": 1780,
      "free": 1781,
      "piece": 1782,
      "##ord": 1783,
      "cheered": 1784,
      "games": 1785,
      "wings": 1786,
      "explained": 1787,
      "##ourn": 1788,
      "##ible": 1789,
      "journ": 1790,
      "forget": 1791,
      "ben": 1792,
      "yard": 1793,
      "longer": 1794,
      "accident": 1795,
      "along": 1796,
      "corn": 1797,
      "dry": 1798,
      "##umb": 1799,
      "##ment": 1800,
      "neck": 1801,
      "Their": 1802,
      "noises": 1803,
      "inst": 1804,
      "##itting": 1805,
      "sang": 1806,
      "late": 1807,
      "##ract": 1808,
      "happen": 1809,
      "hugs": 1810,
      "throw": 1811,
      "How": 1812,
      "##vel": 1813,
      "shoes": 1814,
      "young": 1815,
      "##lephant": 1816,
      "stories": 1817,
      "turns": 1818,
      "miss": 1819,
      "##sc": 1820,
      "lon": 1821,
      "Re": 1822,
      "trou": 1823,
      "adventures": 1824,
      "gift": 1825,
      "well": 1826,
      "singing": 1827,
      "lunch": 1828,
      "shap": 1829,
      "Tw": 1830,
      "upset": 1831,
      "key": 1832,
      "jar": 1833,
      "apple": 1834,
      "lonely": 1835,
      "tom": 1836,
      "street": 1837,
      "secret": 1838,
      "elephant": 1839,
      "mine": 1840,
      "plac": 1841,
      "dist": 1842,
      "wish": 1843,
      "belong": 1844,
      "##oun": 1845,
      "##bby": 1846,
      "shook": 1847,
      "fence": 1848,
      "exploring": 1849,
      "##ountain": 1850,
      "Go": 1851,
      "soup": 1852,
      "owl": 1853,
      "moved": 1854,
      "nearby": 1855,
      "##ts": 1856,
      "bring": 1857,
      "Sammy": 1858,
      "##aughty": 1859,
      "shop": 1860,
      "##bow": 1861,
      "naughty": 1862,
      "Fluffy": 1863,
      "purp": 1864,
      "##fused": 1865,
      "stars": 1866,
      "wise": 1867,
      "##ocked": 1868,
      "whe": 1869,
      "caught": 1870,
      "exp": 1871,
      "inv": 1872,
      "##yard": 1873,
      "bat": 1874,
      "seemed": 1875,
      "sea": 1876,
      "relie": 1877,
      "##ward": 1878,
      "backyard": 1879,
      "##ail": 1880,
      "Be": 1881,
      "dropped": 1882,
      "ph": 1883,
      "##aughter": 1884,
      "rocks": 1885,
      "##adow": 1886,
      "resp": 1887,
      "drink": 1888,
      "je": 1889,
      "taking": 1890,
      "swam": 1891,
      "farm": 1892,
      "##ces": 1893,
      "##sy": 1894,
      "mail": 1895,
      "bucket": 1896,
      "Al": 1897,
      "des": 1898,
      "orange": 1899,
      "purple": 1900,
      "though": 1901,
      "##ions": 1902,
      "past": 1903,
      "shapes": 1904,
      "My": 1905,
      "fit": 1906,
      "##og": 1907,
      "woke": 1908,
      "hello": 1909,
      "##ity": 1910,
      "af": 1911,
      "sounds": 1912,
      "bench": 1913,
      "rainbow": 1914,
      "busy": 1915,
      "wondered": 1916,
      "nose": 1917,
      "##ung": 1918,
      "Later": 1919,
      "cow": 1920,
      "tiny": 1921,
      "ob": 1922,
      "daughter": 1923,
      "mark": 1924,
      "sitting": 1925,
      "nest": 1926,
      "kite": 1927,
      "mad": 1928,
      "takes": 1929,
      "nothing": 1930,
      "##fish": 1931,
      "cou": 1932,
      "##ese": 1933,
      "holding": 1934,
      "##cing": 1935,
      "##col": 1936,
      "##read": 1937,
      "arms": 1938,
      "juice": 1939,
      "part": 1940,
      "##ceful": 1941,
      "Ell": 1942,
      "comes": 1943,
      "##thday": 1944,
      "de": 1945,
      "coat": 1946,
      "With": 1947,
      "##cks": 1948,
      "pig": 1949,
      "cir": 1950,
      "round": 1951,
      "##ining": 1952,
      "relieved": 1953,
      "branch": 1954,
      "##raid": 1955,
      "driver": 1956,
      "afraid": 1957,
      "ca": 1958,
      "spoon": 1959,
      "##gn": 1960,
      "forever": 1961,
      "Ch": 1962,
      "##que": 1963,
      "cute": 1964,
      "inter": 1965,
      "##ose": 1966,
      "##vered": 1967,
      "Jenny": 1968,
      "##idge": 1969,
      "mil": 1970,
      "carry": 1971,
      "te": 1972,
      "##ost": 1973,
      "sick": 1974,
      "##ours": 1975,
      "##ek": 1976,
      "boun": 1977,
      "Tweet": 1978,
      "promise": 1979,
      "king": 1980,
      "Good": 1981,
      "huge": 1982,
      "##unt": 1983,
      "touched": 1984,
      "letter": 1985,
      "fing": 1986,
      "birthday": 1987,
      "patient": 1988,
      "grab": 1989,
      "##ching": 1990,
      "sunny": 1991,
      "exciting": 1992,
      "days": 1993,
      "##ped": 1994,
      "Of": 1995,
      "laughing": 1996,
      "onto": 1997,
      "cheese": 1998,
      "band": 1999,
      "##board": 2000,
      "journey": 2001,
      "gigg": 2002,
      "bush": 2003,
      "creature": 2004,
      "disco": 2005,
      "shell": 2006,
      "life": 2007,
      "ret": 2008,
      "##oph": 2009,
      "imag": 2010,
      "kick": 2011,
      "##ittens": 2012,
      "hope": 2013,
      "##gged": 2014,
      "power": 2015,
      "##shine": 2016,
      "bread": 2017,
      "cozy": 2018,
      "swimming": 2019,
      "Emily": 2020,
      "inc": 2021,
      "craw": 2022,
      "bottle": 2023,
      "mist": 2024,
      "suc": 2025,
      "##ness": 2026,
      "##let": 2027,
      "wra": 2028,
      "sharp": 2029,
      "whist": 2030,
      "##gg": 2031,
      "instead": 2032,
      "spin": 2033,
      "retur": 2034,
      "watching": 2035,
      "##ten": 2036,
      "##alm": 2037,
      "##esting": 2038,
      "eas": 2039,
      "milk": 2040,
      "accidentally": 2041,
      "sunshine": 2042,
      "shout": 2043,
      "##pa": 2044,
      "cave": 2045,
      "spo": 2046,
      "Hey": 2047
    }
  }
}