{
  "version": "1.0",
  "truncation": null,
  "padding": null,
  "added_tokens": [
    {
      "id": 0,
      "content": "[PAD]",
      "single_word": false,
      "lstrip": false,
      "rstrip": false,
      "normalized": false,
      "special": true
    },
    {
      "id": 1,
      "content": "[UNK]",
      "single_word": false,
      "lstrip": false,
      "rstrip": false,
      "normalized": false,
      "special": true
    },
    {
      "id": 2,
      "content": "[CLS]",
      "single_word": false,
      "lstrip": false,
      "rstrip": false,
      "normalized": false,
      "special": true
    },
    {
      "id": 3,
      "content": "[SEP]",
      "single_word": false,
      "lstrip": false,
      "rstrip": false,
      "normalized": false,
      "special": true
    },
    {
      "id": 4,
      "content": "[MASK]",
      "single_word": false,
      "lstrip": false,
      "rstrip": false,
      "normalized": false,
      "special": true
    }
  ],
  "normalizer": {
    "type": "BertNormalizer",
    "clean_text": true,
    "handle_chinese_chars": true,
    "strip_accents": null,
    "lowercase": false
  },
  "pre_tokenizer": {
    "type": "BertPreTokenizer"
  },
  "post_processor": {
    "type": "TemplateProcessing",
    "single": [
      {
        "SpecialToken": {
          "id": "[CLS]",
          "type_id": 0
        }
      },
      {
        "Sequence": {
          "id": "A",
          "type_id": 0
        }
      },
      {
        "SpecialToken": {
          "id": "[SEP]",
          "type_id": 0
        }
      }
    ],
    "pair": [
      {
        "SpecialToken": {
          "id": "[CLS]",
          "type_id": 0
        }
      },
      {
        "Sequence": {
          "id": "A",
          "type_id": 0
        }
      },
      {
        "SpecialToken": {
          "id": "[SEP]",
          "type_id": 0
        }
      },
      {
        "Sequence": {
          "id": "B",
          "type_id": 1
        }
      },
      {
        "SpecialToken": {
          "id": "[SEP]",
          "type_id": 1
        }
      }
    ],
    "special_tokens": {
      "[CLS]": {
        "id": "[CLS]",
        "ids": [
          2
        ],
        "tokens": [
          "[CLS]"
        ]
      },
      "[SEP]": {
        "id": "[SEP]",
        "ids": [
          3
        ],
        "tokens": [
          "[SEP]"
        ]
      }
    }
  },
  "decoder": {
    "type": "WordPiece",
    "prefix": "##",
    "cleanup": true
  },
  "model": {
    "type": "WordPiece",
    "unk_token": "[UNK]",
    "continuing_subword_prefix": "##",
    "max_input_chars_per_word": 100,
    "vocab": {
      "[PAD]": 0,
      "[UNK]": 1,
      "[CLS]": 2,
      "[SEP]": 3,
      "[MASK]": 4,
      "!": 5,
      "\"": 6,
      "#": 7,
      "$": 8,
      "%": 9,
      "&": 10,
      "'": 11,
      "(": 12,
      ")": 13,
      "*": 14,
      "+": 15,
      ",": 16,
      "-": 17,
      ".": 18,
      "/": 19,
      "0": 20,
      "1": 21,
      "2": 22,
      "3": 23,
      "4": 24,
      "5": 25,
      "6": 26,
      "7": 27,
      "8": 28,
      "9": 29,
      ":": 30,
      ";": 31,
      "<": 32,
      "=": 33,
      ">": 34,
      "?": 35,
      "@": 36,
      "A": 37,
      "B": 38,
      "C": 39,
      "D": 40,
      "E": 41,
      "F": 42,
      "G": 43,
      "H": 44,
      "I": 45,
      "J": 46,
      "K": 47,
      "L": 48,
      "M": 49,
      "N": 50,
      "O": 51,
      "P": 52,
      "Q": 53,
      "R": 54,
      "S": 55,
      "T": 56,
      "U": 57,
      "V": 58,
      "W": 59,
      "X": 60,
      "Y": 61,
      "Z": 62,
      "[": 63,
      "\\": 64,
      "]": 65,
      "_": 66,
      "`": 67,
      "a": 68,
      "b": 69,
      "c": 70,
      "d": 71,
      "e": 72,
      "f": 73,
      "g": 74,
      "h": 75,
      "i": 76,
      "j": 77,
      "k": 78,
      "l": 79,
      "m": 80,
      "n": 81,
      "o": 82,
      "p": 83,
      "q": 84,
      "r": 85,
      "s": 86,
      "t": 87,
      "u": 88,
      "v": 89,
      "w": 90,
      "x": 91,
      "y": 92,
      "z": 93,
      "{": 94,
      "}": 95,
      "~": 96,
      "¡": 97,
      "¢": 98,
      "£": 99,
      "¤": 100,
      "¥": 101,
      "¦": 102,
      "§": 103,
      "¨": 104,
      "©": 105,
      "ª": 106,
      "¬": 107,
      "¯": 108,
      "°": 109,
      "±": 110,
      "³": 111,
      "´": 112,
      "¶": 113,
      "¸": 114,
      "»": 115,
      "½": 116,
      "¿": 117,
      "Â": 118,
      "Ã": 119,
      "Ä": 120,
      "Å": 121,
      "É": 122,
      "Ê": 123,
      "Ñ": 124,
      "Ò": 125,
      "á": 126,
      "â": 127,
      "ã": 128,
      "î": 129,
      "ï": 130,
      "ð": 131,
      "Œ": 132,
      "œ": 133,
      "Š": 134,
      "š": 135,
      "Ÿ": 136,
      "Ž": 137,
      "ž": 138,
      "ˆ": 139,
      "˜": 140,
      "–": 141,
      "‘": 142,
      "’": 143,
      "‚": 144,
      "“": 145,
      "”": 146,
      "„": 147,
      "‡": 148,
      "•": 149,
      "…": 150,
      "‰": 151,
      "‹": 152,
      "€": 153,
      "™": 154,
      "##o": 155,
      "##u": 156,
      "##g": 157,
      "##h": 158,
      "##e": 159,
      "##s": 160,
      "##t": 161,
      "##v": 162,
      "##i": 163,
      "##q": 164,
      "##a": 165,
      "##l": 166,
      "##f": 167,
      "##d": 168,
      "##p": 169,
      "##n": 170,
      "##r": 171,
      "##m": 172,
      "##€": 173,
      "##œ": 174,
      "##M": 175,
      "##â": 176,
      "##¦": 177,
      "##y": 178,
      "##˜": 179,
      "##™": 180,
      "##c": 181,
      "##k": 182,
      "##z": 183,
      "##x": 184,
      "##w": 185,
      "##b": 186,
      "##G": 187,
      "##N": 188,
      "##O": 189,
      "##R": 190,
      "##A": 191,
      "##T": 192,
      "##Â": 193,
      "##´": 194,
      "##B": 195,
      "##F": 196,
      "##P": 197,
      "##H": 198,
      "##D": 199,
      "##Y": 200,
      "##j": 201,
      "##C": 202,
      "##S": 203,
      "##E": 204,
      "##L": 205,
      "##4": 206,
      "##5": 207,
      "##J": 208,
      "##W": 209,
      "##U": 210,
      "##X": 211,
      "##I": 212,
      "##Ã": 213,
      "##2": 214,
      "##K": 215,
      "##0": 216,
      "##3": 217,
      "##£": 218,
      "##V": 219,
      "##Ÿ": 220,
      "##Œ": 221,
      "##8": 222,
      "##6": 223,
      "##9": 224,
      "##1": 225,
      "##Z": 226,
      "##±": 227,
      "##©": 228,
      "##ž": 229,
      "##Š": 230,
      "##7": 231,
      "##¯": 232,
      "##¢": 233,
      "##Q": 234,
      "##ð": 235,
      "##Ž": 236,
      "##¤": 237,
      "##ï": 238,
      "##¸": 239,
      "##¬": 240,
      "##°": 241,
      "##³": 242,
      "##¥": 243,
      "##Ä": 244,
      "##á": 245,
      "##š": 246,
      "##É": 247,
      "##ª": 248,
      "##ˆ": 249,
      "##¨": 250,
      "##Å": 251,
      "##Ò": 252,
      "##Ê": 253,
      "##Ñ": 254,
      "##he": 255,
      "##nd": 256,
      "the": 257,
      "##ed": 258,
      "and": 259,
      "##er": 260,
      "to": 261,
      "wa": 262,
      "##ou": 263,
      "##in": 264,
      "##re": 265,
      "was": 266,
      "##om": 267,
      "The": 268,
      "##ay": 269,
      "##ar": 270,
      "##ing": 271,
      "##il": 272,
      "##it": 273,
      "##id": 274,
      "##at": 275,
      "sa": 276,
      "##en": 277,
      "ha": 278,
      "##is": 279,
      "##an": 280,
      "##or": 281,
      "##im": 282,
      "he": 283,
      "##on": 284,
      "it": 285,
      "th": 286,
      "##ut": 287,
      "##ll": 288,
      "##le": 289,
      "her": 290,
      "##et": 291,
      "He": 292,
      "##ot": 293,
      "She": 294,
      "##ir": 295,
      "##es": 296,
      "They": 297,
      "in": 298,
      "##ow": 299,
      "##ck": 300,
      "##ld": 301,
      "##oo": 302,
      "said": 303,
      "##ily": 304,
      "be": 305,
      "##ig": 306,
      "##am": 307,
      "st": 308,
      "##ce": 309,
      "she": 310,
      "##pp": 311,
      "##ith": 312,
      "##ve": 313,
      "with": 314,
      "Lily": 315,
      "On": 316,
      "on": 317,
      "you": 318,
      "of": 319,
      "##ked": 320,
      "##ri": 321,
      "so": 322,
      "his": 323,
      "pl": 324,
      "##ery": 325,
      "##ad": 326,
      "##ke": 327,
      "##nt": 328,
      "day": 329,
      "that": 330,
      "up": 331,
      "play": 332,
      "had": 333,
      "they": 334,
      "##el": 335,
      "mom": 336,
      "for": 337,
      "##st": 338,
      "##un": 339,
      "##ould": 340,
      "##my": 341,
      "##ent": 342,
      "li": 343,
      "##ch": 344,
      "happ": 345,
      "want": 346,
      "##itt": 347,
      "sh": 348,
      "##her": 349,
      "It": 350,
      "do": 351,
      "##ly": 352,
      "not": 353,
      "##ome": 354,
      "very": 355,
      "##se": 356,
      "##end": 357,
      "##ound": 358,
      "##all": 359,
      "wh": 360,
      "##ime": 361,
      "##ittle": 362,
      "time": 363,
      "little": 364,
      "##al": 365,
      "there": 366,
      "ne": 367,
      "##ht": 368,
      "happy": 369,
      "sm": 370,
      "big": 371,
      "is": 372,
      "but": 373,
      "##ra": 374,
      "an": 375,
      "saw": 376,
      "##riend": 377,
      "friend": 378,
      "as": 379,
      "##ry": 380,
      "##ack": 381,
      "One": 382,
      "##ake": 383,
      "re": 384,
      "##ere": 385,
      "Tim": 386,
      "##ter": 387,
      "##ug": 388,
      "loo": 389,
      "##ved": 390,
      "were": 391,
      "Once": 392,
      "lo": 393,
      "##ore": 394,
      "##ec": 395,
      "him": 396,
      "too": 397,
      "##ur": 398,
      "go": 399,
      "bo": 400,
      "##ide": 401,
      "se": 402,
      "##irl": 403,
      "##ver": 404,
      "are": 405,
      "##ard": 406,
      "wanted": 407,
      "Tom": 408,
      "##ill": 409,
      "girl": 410,
      "upon": 411,
      "out": 412,
      "them": 413,
      "at": 414,
      "Ben": 415,
      "their": 416,
      "##fu": 417,
      "sp": 418,
      "##way": 419,
      "##ind": 420,
      "smil": 421,
      "did": 422,
      "could": 423,
      "##hen": 424,
      "have": 425,
      "##ted": 426,
      "##ain": 427,
      "ex": 428,
      "##hed": 429,
      "But": 430,
      "##rom": 431,
      "went": 432,
      "ar": 433,
      "##lp": 434,
      "can": 435,
      "##ic": 436,
      "##ful": 437,
      "##ood": 438,
      "friends": 439,
      "##hing": 440,
      "nam": 441,
      "##ight": 442,
      "all": 443,
      "help": 444,
      "kn": 445,
      "##um": 446,
      "##one": 447,
      "##ark": 448,
      "back": 449,
      "say": 450,
      "cl": 451,
      "fun": 452,
      "You": 453,
      "no": 454,
      "##are": 455,
      "##ear": 456,
      "##very": 457,
      "Timmy": 458,
      "##op": 459,
      "star": 460,
      "smiled": 461,
      "sc": 462,
      "named": 463,
      "al": 464,
      "##oug": 465,
      "loved": 466,
      "##side": 467,
      "man": 468,
      "##elt": 469,
      "asked": 470,
      "##ick": 471,
      "toy": 472,
      "Mom": 473,
      "like": 474,
      "felt": 475,
      "looked": 476,
      "see": 477,
      "some": 478,
      "around": 479,
      "me": 480,
      "##ep": 481,
      "##ame": 482,
      "##omet": 483,
      "fe": 484,
      "br": 485,
      "ro": 486,
      "##ure": 487,
      "bir": 488,
      "##get": 489,
      "boy": 490,
      "would": 491,
      "##ong": 492,
      "##ss": 493,
      "##ea": 494,
      "bird": 495,
      "somet": 496,
      "fa": 497,
      "##dd": 498,
      "##est": 499,
      "##ings": 500,
      "ag": 501,
      "wor": 502,
      "what": 503,
      "##ade": 504,
      "make": 505,
      "##king": 506,
      "##ie": 507,
      "car": 508,
      "##own": 509,
      "tre": 510,
      "ran": 511,
      "##gether": 512,
      "away": 513,
      "##ag": 514,
      "we": 515,
      "Th": 516,
      "says": 517,
      "started": 518,
      "##ice": 519,
      "##oud": 520,
      "made": 521,
      "together": 522,
      "something": 523,
      "##ther": 524,
      "##ited": 525,
      "park": 526,
      "co": 527,
      "sad": 528,
      "other": 529,
      "new": 530,
      "exc": 531,
      "put": 532,
      "from": 533,
      "##out": 534,
      "pr": 535,
      "la": 536,
      "scar": 537,
      "hug": 538,
      "##ble": 539,
      "mu": 540,
      "again": 541,
      "##ook": 542,
      "home": 543,
      "when": 544,
      "good": 545,
      "who": 546,
      "ch": 547,
      "found": 548,
      "##ried": 549,
      "fl": 550,
      "then": 551,
      "dec": 552,
      "##pped": 553,
      "wal": 554,
      "get": 555,
      "playing": 556,
      "##ought": 557,
      "##ach": 558,
      "##pl": 559,
      "##ally": 560,
      "Su": 561,
      "sw": 562,
      "##ous": 563,
      "##nn": 564,
      "â€": 565,
      "things": 566,
      "excited": 567,
      "liked": 568,
      "got": 569,
      "Sam": 570,
      "##uck": 571,
      "##ro": 572,
      "##ided": 573,
      "##as": 574,
      "##ell": 575,
      "decided": 576,
      "bl": 577,
      "came": 578,
      "every": 579,
      "Ann": 580,
      "##ara": 581,
      "your": 582,
      "##ax": 583,
      "scared": 584,
      "one": 585,
      "##ust": 586,
      "dog": 587,
      "down": 588,
      "##ouse": 589,
      "##ny": 590,
      "find": 591,
      "care": 592,
      "bec": 593,
      "than": 594,
      "Sara": 595,
      "feel": 596,
      "We": 597,
      "Anna": 598,
      "ab": 599,
      "dad": 600,
      "my": 601,
      "Max": 602,
      "look": 603,
      "##ap": 604,
      "will": 605,
      "##ist": 606,
      "gr": 607,
      "##nder": 608,
      "gra": 609,
      "##ways": 610,
      "didn": 611,
      "##ess": 612,
      "po": 613,
      "always": 614,
      "about": 615,
      "took": 616,
      "##bb": 617,
      "##ers": 618,
      "lot": 619,
      "mommy": 620,
      "##ned": 621,
      "kne": 622,
      "toys": 623,
      "So": 624,
      "##ant": 625,
      "##ise": 626,
      "bu": 627,
      "old": 628,
      "tree": 629,
      "##ite": 630,
      "outside": 631,
      "##ave": 632,
      "thought": 633,
      "lear": 634,
      "ball": 635,
      "more": 636,
      "##eci": 637,
      "##ened": 638,
      "##ched": 639,
      "ta": 640,
      "ho": 641,
      "##ret": 642,
      "When": 643,
      "##ged": 644,
      "pu": 645,
      "know": 646,
      "Jo": 647,
      "Wh": 648,
      "##to": 649,
      "laug": 650,
      "take": 651,
      "sor": 652,
      "speci": 653,
      "special": 654,
      "cat": 655,
      "##dden": 656,
      "knew": 657,
      "##ty": 658,
      "##ive": 659,
      "##ff": 660,
      "Her": 661,
      "##ia": 662,
      "##ddenly": 663,
      "any": 664,
      "##fter": 665,
      "how": 666,
      "##au": 667,
      "##ue": 668,
      "show": 669,
      "##ma": 670,
      "##ink": 671,
      "Jack": 672,
      "sorry": 673,
      "tw": 674,
      "much": 675,
      "Every": 676,
      "tr": 677,
      "run": 678,
      "##ish": 679,
      "hand": 680,
      "sl": 681,
      "house": 682,
      "##and": 683,
      "##ven": 684,
      "or": 685,
      "op": 686,
      "sk": 687,
      "mo": 688,
      "clo": 689,
      "sun": 690,
      "into": 691,
      "tried": 692,
      "inside": 693,
      "##ate": 694,
      "told": 695,
      "this": 696,
      "water": 697,
      "en": 698,
      "if": 699,
      "##ump": 700,
      "proud": 701,
      "##dy": 702,
      "over": 703,
      "couldn": 704,
      "heard": 705,
      "gave": 706,
      "##ank": 707,
      "never": 708,
      "each": 709,
      "##by": 710,
      "room": 711,
      "expl": 712,
      "Suddenly": 713,
      "eat": 714,
      "##other": 715,
      "##ause": 716,
      "pick": 717,
      "##ion": 718,
      "pret": 719,
      "played": 720,
      "Mia": 721,
      "Then": 722,
      "##ge": 723,
      "##etter": 724,
      "just": 725,
      "gre": 726,
      "hugged": 727,
      "qu": 728,
      "Let": 729,
      "##here": 730,
      "off": 731,
      "com": 732,
      "wat": 733,
      "##oth": 734,
      "box": 735,
      "##our": 736,
      "From": 737,
      "nice": 738,
      "And": 739,
      "ra": 740,
      "because": 741,
      "need": 742,
      "His": 743,
      "str": 744,
      "pe": 745,
      "##ile": 746,
      "##fe": 747,
      "many": 748,
      "##ft": 749,
      "fo": 750,
      "jo": 751,
      "##eep": 752,
      "bear": 753,
      "##uc": 754,
      "small": 755,
      "##sed": 756,
      "##iz": 757,
      "##ving": 758,
      "long": 759,
      "##ine": 760,
      "##gry": 761,
      "##em": 762,
      "##imal": 763,
      "##kes": 764,
      "animal": 765,
      "sn": 766,
      "##ough": 767,
      "That": 768,
      "try": 769,
      "unt": 770,
      "##ort": 771,
      "##ild": 772,
      "##sel": 773,
      "##urt": 774,
      "until": 775,
      "kind": 776,
      "learned": 777,
      "im": 778,
      "bea": 779,
      "better": 780,
      "love": 781,
      "call": 782,
      "flow": 783,
      "don": 784,
      "end": 785,
      "ad": 786,
      "best": 787,
      "##vent": 788,
      "##ning": 789,
      "##urp": 790,
      "##ady": 791,
      "##ream": 792,
      "cle": 793,
      "##ves": 794,
      "ma": 795,
      "â€œ": 796,
      "##arden": 797,
      "garden": 798,
      "cu": 799,
      "##lly": 800,
      "fast": 801,
      "##ber": 802,
      "careful": 803,
      "beaut": 804,
      "Mommy": 805,
      "fi": 806,
      "even": 807,
      "by": 808,
      "bra": 809,
      "thanked": 810,
      "che": 811,
      "laughed": 812,
      "##ies": 813,
      "##sh": 814,
      "What": 815,
      "sky": 816,
      "jump": 817,
      "Yes": 818,
      "gl": 819,
      "loud": 820,
      "##self": 821,
      "##iny": 822,
      "way": 823,
      "beauti": 824,
      "come": 825,
      "wo": 826,
      "##lew": 827,
      "beautiful": 828,
      "list": 829,
      "lots": 830,
      "hard": 831,
      "##ase": 832,
      "Can": 833,
      "animals": 834,
      "still": 835,
      "fam": 836,
      "Joh": 837,
      "hurt": 838,
      "under": 839,
      "let": 840,
      "stay": 841,
      "##wn": 842,
      "both": 843,
      "##hes": 844,
      "safe": 845,
      "##ct": 846,
      "##ool": 847,
      "##be": 848,
      "col": 849,
      "##ree": 850,
      "lea": 851,
      "di": 852,
      "two": 853,
      "bad": 854,
      "imp": 855,
      "##ace": 856,
      "book": 857,
      "rem": 858,
      "##ople": 859,
      "As": 860,
      "lived": 861,
      "##ane": 862,
      "##kay": 863,
      "Luc": 864,
      "Lucy": 865,
      "walked": 866,
      "##ock": 867,
      "su": 868,
      "##urpr": 869,
      "should": 870,
      "brave": 871,
      "its": 872,
      "##ob": 873,
      "surpr": 874,
      "angry": 875,
      "##ished": 876,
      "family": 877,
      "##ept": 878,
      "##igh": 879,
      "##ress": 880,
      "flew": 881,
      "people": 882,
      "After": 883,
      "called": 884,
      "Thank": 885,
      "red": 886,
      "stor": 887,
      "##ip": 888,
      "##eet": 889,
      "soon": 890,
      "fin": 891,
      "##ast": 892,
      "##led": 893,
      "##ect": 894,
      "kept": 895,
      "##art": 896,
      "John": 897,
      "Dad": 898,
      "fore": 899,
      "##fore": 900,
      "dan": 901,
      "fly": 902,
      "share": 903,
      "##xt": 904,
      "##ised": 905,
      "le": 906,
      "No": 907,
      "pic": 908,
      "##dded": 909,
      "door": 910,
      "going": 911,
      "tur": 912,
      "keep": 913,
      "pretty": 914,
      "##â€": 915,
      "now": 916,
      "clean": 917,
      "rock": 918,
      "dra": 919,
      "##ummy": 920,
      "advent": 921,
      "noise": 922,
      "##age": 923,
      "shiny": 924,
      "opened": 925,
      "wind": 926,
      "doll": 927,
      "con": 928,
      "id": 929,
      "before": 930,
      "cry": 931,
      "idea": 932,
      "real": 933,
      "##illy": 934,
      "sto": 935,
      "Sp": 936,
      "##so": 937,
      "explore": 938,
      "ground": 939,
      "far": 940,
      "also": 941,
      "##les": 942,
      "##ied": 943,
      "ey": 944,
      "fr": 945,
      "##â€™": 946,
      "color": 947,
      "war": 948,
      "nodded": 949,
      "feeling": 950,
      "##imb": 951,
      "picked": 952,
      "Bob": 953,
      "un": 954,
      "##oy": 955,
      "walking": 956,
      "next": 957,
      "##thing": 958,
      "##ture": 959,
      "climb": 960,
      "##ting": 961,
      "thr": 962,
      "has": 963,
      "while": 964,
      "bed": 965,
      "smile": 966,
      "adventure": 967,
      "##th": 968,
      "##aybe": 969,
      "##ser": 970,
      "##iced": 971,
      "##ger": 972,
      "##qu": 973,
      "##ious": 974,
      "being": 975,
      "looking": 976,
      "diff": 977,
      "wr": 978,
      "food": 979,
      "##joy": 980,
      "picture": 981,
      "give": 982,
      "think": 983,
      "Spot": 984,
      "truck": 985,
      "del": 986,
      "wait": 987,
      "eyes": 988,
      "##ught": 989,
      "tow": 990,
      "bro": 991,
      "repl": 992,
      "stopped": 993,
      "tra": 994,
      "gi": 995,
      "listen": 996,
      "after": 997,
      "Do": 998,
      "walk": 999,
      "bre": 1000,
      "vo": 1001,
      "great": 1002,
      "year": 1003,
      "wonder": 1004,
      "##ember": 1005,
      "Sue": 1006,
      "hands": 1007,
      "head": 1008,
      "import": 1009,
      "enjoy": 1010,
      "flowers": 1011,
      "##bbit": 1012,
      "ever": 1013,
      "forest": 1014,
      "blue": 1015,
      "noticed": 1016,
      "near": 1017,
      "own": 1018,
      "app": 1019,
      "dis": 1020,
      "ac": 1021,
      "##ized": 1022,
      "##irst": 1023,
      "quick": 1024,
      "important": 1025,
      "remember": 1026,
      "##able": 1027,
      "fish": 1028,
      "sound": 1029,
      "##llow": 1030,
      "slide": 1031,
      "us": 1032,
      "replied": 1033,
      "##maz": 1034,
      "amaz": 1035,
      "watch": 1036,
      "##lease": 1037,
      "rabbit": 1038,
      "work": 1039,
      "rain": 1040,
      "okay": 1041,
      "showed": 1042,
      "##gan": 1043,
      "tal": 1044,
      "Sarah": 1045,
      "##bbed": 1046,
      "differ": 1047,
      "ask": 1048,
      "ru": 1049,
      "mean": 1050,
      "tou": 1051,
      "right": 1052,
      "##day": 1053,
      "bright": 1054,
      "##bye": 1055,
      "Look": 1056,
      "watched": 1057,
      "follow": 1058,
      "everyone": 1059,
      "strong": 1060,
      "been": 1061,
      "This": 1062,
      "use": 1063,
      "mor": 1064,
      "stick": 1065,
      "voice": 1066,
      "##ath": 1067,
      "##ered": 1068,
      "quickly": 1069,
      "our": 1070,
      "where": 1071,
      "yell": 1072,
      "Jane": 1073,
      "different": 1074,
      "child": 1075,
      "##ng": 1076,
      "curi": 1077,
      "boat": 1078,
      "sure": 1079,
      "##ey": 1080,
      "Maybe": 1081,
      "goodbye": 1082,
      "became": 1083,
      "face": 1084,
      "place": 1085,
      "hop": 1086,
      "##ange": 1087,
      "high": 1088,
      "am": 1089,
      "##aught": 1090,
      "store": 1091,
      "##unny": 1092,
      "closer": 1093,
      "warm": 1094,
      "tea": 1095,
      "##oon": 1096,
      "does": 1097,
      "dress": 1098,
      "mag": 1099,
      "##llo": 1100,
      "curious": 1101,
      "bel": 1102,
      "##ila": 1103,
      "cook": 1104,
      "forg": 1105,
      "fav": 1106,
      "##ass": 1107,
      "##ndma": 1108,
      "tell": 1109,
      "three": 1110,
      "##ount": 1111,
      "ba": 1112,
      "##leep": 1113,
      "Lila": 1114,
      "night": 1115,
      "##co": 1116,
      "open": 1117,
      "shar": 1118,
      "here": 1119,
      "cake": 1120,
      "##more": 1121,
      "anymore": 1122,
      "first": 1123,
      "block": 1124,
      "##ull": 1125,
      "##ached": 1126,
      "pull": 1127,
      "##iss": 1128,
      "##itc": 1129,
      "butter": 1130,
      "##ired": 1131,
      "##imes": 1132,
      "##orn": 1133,
      "In": 1134,
      "sweet": 1135,
      "pain": 1136,
      "kid": 1137,
      "grabbed": 1138,
      "##isy": 1139,
      "mon": 1140,
      "only": 1141,
      "fell": 1142,
      "Everyone": 1143,
      "cont": 1144,
      "birds": 1145,
      "jumped": 1146,
      "bit": 1147,
      "glad": 1148,
      "sand": 1149,
      "##itchen": 1150,
      "kitchen": 1151,
      "fire": 1152,
      "helped": 1153,
      "squ": 1154,
      "per": 1155,
      "sees": 1156,
      "flo": 1157,
      "stop": 1158,
      "Don": 1159,
      "hear": 1160,
      "##outed": 1161,
      "happened": 1162,
      "cra": 1163,
      "grass": 1164,
      "bunny": 1165,
      "sing": 1166,
      "Joe": 1167,
      "story": 1168,
      "##nts": 1169,
      "dr": 1170,
      "shouted": 1171,
      "tri": 1172,
      "Tommy": 1173,
      "##air": 1174,
      "brother": 1175,
      "reached": 1176,
      "beh": 1177,
      "yummy": 1178,
      "realized": 1179,
      "##ppy": 1180,
      "mum": 1181,
      "cr": 1182,
      "lady": 1183,
      "having": 1184,
      "prin": 1185,
      "favor": 1186,
      "##ins": 1187,
      "through": 1188,
      "favorite": 1189,
      "learn": 1190,
      "mess": 1191,
      "cre": 1192,
      "draw": 1193,
      "hat": 1194,
      "game": 1195,
      "ate": 1196,
      "less": 1197,
      "underst": 1198,
      "soft": 1199,
      "##ary": 1200,
      "pare": 1201,
      "##zy": 1202,
      "thing": 1203,
      "really": 1204,
      "ready": 1205,
      "##ather": 1206,
      "began": 1207,
      "pretend": 1208,
      "##where": 1209,
      "world": 1210,
      "##ken": 1211,
      "looks": 1212,
      "magic": 1213,
      "himself": 1214,
      "##fully": 1215,
      "butterf": 1216,
      "pap": 1217,
      "Now": 1218,
      "done": 1219,
      "cut": 1220,
      "making": 1221,
      "##ater": 1222,
      "coming": 1223,
      "rest": 1224,
      "why": 1225,
      "kids": 1226,
      "waved": 1227,
      "duck": 1228,
      "pond": 1229,
      "prom": 1230,
      "fro": 1231,
      "tired": 1232,
      "mouse": 1233,
      "##olly": 1234,
      "fix": 1235,
      "worry": 1236,
      "fill": 1237,
      "delic": 1238,
      "cars": 1239,
      "name": 1240,
      "##eddy": 1241,
      "Fin": 1242,
      "##aisy": 1243,
      "touch": 1244,
      "flower": 1245,
      "Sally": 1246,
      "catch": 1247,
      "funny": 1248,
      "thank": 1249,
      "seen": 1250,
      "used": 1251,
      "tast": 1252,
      "##bo": 1253,
      "##ient": 1254,
      "hair": 1255,
      "parents": 1256,
      "top": 1257,
      "##rel": 1258,
      "another": 1259,
      "##ak": 1260,
      "hold": 1261,
      "Wow": 1262,
      "hopped": 1263,
      "cried": 1264,
      "##iver": 1265,
      "##oney": 1266,
      "There": 1267,
      "cool": 1268,
      "##mer": 1269,
      "blocks": 1270,
      "doing": 1271,
      "surprise": 1272,
      "##ster": 1273,
      "##ac": 1274,
      "turn": 1275,
      "green": 1276,
      "light": 1277,
      "years": 1278,
      "lesson": 1279,
      "##ation": 1280,
      "read": 1281,
      "floor": 1282,
      "din": 1283,
      "dri": 1284,
      "wood": 1285,
      "##ards": 1286,
      "running": 1287,
      "window": 1288,
      "worked": 1289,
      "full": 1290,
      "trees": 1291,
      "smell": 1292,
      "par": 1293,
      "dro": 1294,
      "spot": 1295,
      "wear": 1296,
      "dark": 1297,
      "behind": 1298,
      "##andy": 1299,
      "wished": 1300,
      "likes": 1301,
      "##ons": 1302,
      "##ued": 1303,
      "paper": 1304,
      "yellow": 1305,
      "happily": 1306,
      "sho": 1307,
      "bag": 1308,
      "##ely": 1309,
      "bow": 1310,
      "##ul": 1311,
      "Daisy": 1312,
      "sat": 1313,
      "swim": 1314,
      "##ren": 1315,
      "Em": 1316,
      "sleep": 1317,
      "surprised": 1318,
      "frog": 1319,
      "butterfly": 1320,
      "Benny": 1321,
      "##us": 1322,
      "##ike": 1323,
      "Jim": 1324,
      "carefully": 1325,
      "set": 1326,
      "##uff": 1327,
      "##â€™s": 1328,
      "slow": 1329,
      "remembered": 1330,
      "swing": 1331,
      "lost": 1332,
      "cold": 1333,
      "held": 1334,
      "To": 1335,
      "laugh": 1336,
      "hole": 1337,
      "needed": 1338,
      "At": 1339,
      "ice": 1340,
      "##rew": 1341,
      "buy": 1342,
      "perf": 1343,
      "Gra": 1344,
      "left": 1345,
      "ste": 1346,
      "##reed": 1347,
      "Billy": 1348,
      "move": 1349,
      "tall": 1350,
      "enjoyed": 1351,
      "##cess": 1352,
      "dream": 1353,
      "anything": 1354,
      "Hello": 1355,
      "wrong": 1356,
      "fair": 1357,
      "arri": 1358,
      "air": 1359,
      "followed": 1360,
      "Finally": 1361,
      "books": 1362,
      "el": 1363,
      "##ross": 1364,
      "children": 1365,
      "hun": 1366,
      "Molly": 1367,
      "delicious": 1368,
      "bus": 1369,
      "please": 1370,
      "finished": 1371,
      "contin": 1372,
      "friendly": 1373,
      "table": 1374,
      "##ds": 1375,
      "dir": 1376,
      "herself": 1377,
      "hot": 1378,
      "Amy": 1379,
      "##lf": 1380,
      "snow": 1381,
      "##ens": 1382,
      "hill": 1383,
      "understand": 1384,
      "close": 1385,
      "cream": 1386,
      "##ined": 1387,
      "hid": 1388,
      "baby": 1389,
      "arrived": 1390,
      "wonderful": 1391,
      "might": 1392,
      "else": 1393,
      "arm": 1394,
      "cast": 1395,
      "gent": 1396,
      "res": 1397,
      "##ield": 1398,
      "tight": 1399,
      "yes": 1400,
      "forgot": 1401,
      "rel": 1402,
      "sig": 1403,
      "colors": 1404,
      "bug": 1405,
      "Jen": 1406,
      "build": 1407,
      "broken": 1408,
      "##ner": 1409,
      "able": 1410,
      "gone": 1411,
      "##av": 1412,
      "##ich": 1413,
      "song": 1414,
      "filled": 1415,
      "wall": 1416,
      "squir": 1417,
      "agreed": 1418,
      "someone": 1419,
      "mat": 1420,
      "fur": 1421,
      "gu": 1422,
      "continued": 1423,
      "##room": 1424,
      "creat": 1425,
      "ll": 1426,
      "pat": 1427,
      "##asure": 1428,
      "count": 1429,
      "##set": 1430,
      "squirrel": 1431,
      "wants": 1432,
      "leaves": 1433,
      "pink": 1434,
      "bar": 1435,
      "##ask": 1436,
      "enough": 1437,
      "lion": 1438,
      "##ama": 1439,
      "morning": 1440,
      "Why": 1441,
      "vis": 1442,
      "moment": 1443,
      "finally": 1444,
      "OK": 1445,
      "getting": 1446,
      "stayed": 1447,
      "cookies": 1448,
      "break": 1449,
      "##shed": 1450,
      "##ence": 1451,
      "##ance": 1452,
      "##app": 1453,
      "poin": 1454,
      "beach": 1455,
      "sometimes": 1456,
      "fight": 1457,
      "scary": 1458,
      "few": 1459,
      "##row": 1460,
      "##ries": 1461,
      "##ced": 1462,
      "hungry": 1463,
      "fall": 1464,
      "##red": 1465,
      "turned": 1466,
      "dinner": 1467,
      "mother": 1468,
      "ju": 1469,
      "grandma": 1470,
      "##gon": 1471,
      "##apped": 1472,
      "wet": 1473,
      "trying": 1474,
      "amazing": 1475,
      "pi": 1476,
      "perfect": 1477,
      "makes": 1478,
      "plan": 1479,
      "daddy": 1480,
      "others": 1481,
      "climbed": 1482,
      "pictures": 1483,
      "##oup": 1484,
      "talk": 1485,
      "castle": 1486,
      "##key": 1487,
      "comp": 1488,
      "mus": 1489,
      "##amp": 1490,
      "Jill": 1491,
      "mar": 1492,
      "met": 1493,
      "white": 1494,
      "listened": 1495,
      "smiles": 1496,
      "##oring": 1497,
      "##oom": 1498,
      "clot": 1499,
      "##man": 1500,
      "Come": 1501,
      "pol": 1502,
      "clothes": 1503,
      "alone": 1504,
      "tail": 1505,
      "joy": 1506,
      "spl": 1507,
      "puppy": 1508,
      "balloon": 1509,
      "##ated": 1510,
      "##rot": 1511,
      "##ee": 1512,
      "wasn": 1513,
      "brought": 1514,
      "everything": 1515,
      "deep": 1516,
      "##ctor": 1517,
      "pet": 1518,
      "##ister": 1519,
      "sear": 1520,
      "grow": 1521,
      "spark": 1522,
      "sit": 1523,
      "strange": 1524,
      "##elc": 1525,
      "pulled": 1526,
      "woods": 1527,
      "##ott": 1528,
      "##der": 1529,
      "start": 1530,
      "##ling": 1531,
      "sail": 1532,
      "won": 1533,
      "##sp": 1534,
      "##eter": 1535,
      "ride": 1536,
      "asks": 1537,
      "treat": 1538,
      "##uffy": 1539,
      "fox": 1540,
      "danger": 1541,
      "pie": 1542,
      "Daddy": 1543,
      "roll": 1544,
      "visit": 1545,
      "##med": 1546,
      "##os": 1547,
      "leave": 1548,
      "Mama": 1549,
      "Oh": 1550,
      "Soon": 1551,
      "music": 1552,
      "##ucky": 1553,
      "ow": 1554,
      "teddy": 1555,
      "amazed": 1556,
      "##me": 1557,
      "waited": 1558,
      "hide": 1559,
      "towards": 1560,
      "All": 1561,
      "##ever": 1562,
      "field": 1563,
      "##ang": 1564,
      "##ower": 1565,
      "pre": 1566,
      "##ead": 1567,
      "land": 1568,
      "##lep": 1569,
      "flying": 1570,
      "##cy": 1571,
      "pen": 1572,
      "shared": 1573,
      "owner": 1574,
      "silly": 1575,
      "runs": 1576,
      "##zz": 1577,
      "##ained": 1578,
      "belie": 1579,
      "##ugg": 1580,
      "qui": 1581,
      "cloud": 1582,
      "##ames": 1583,
      "living": 1584,
      "job": 1585,
      "shap": 1586,
      "##ash": 1587,
      "promised": 1588,
      "##igg": 1589,
      "moral": 1590,
      "##orm": 1591,
      "##gs": 1592,
      "side": 1593,
      "##ol": 1594,
      "##cket": 1595,
      "lake": 1596,
      "sister": 1597,
      "paint": 1598,
      "thinks": 1599,
      "party": 1600,
      "##ually": 1601,
      "sec": 1602,
      "##thy": 1603,
      "quiet": 1604,
      "race": 1605,
      "Mary": 1606,
      "##ope": 1607,
      "##ises": 1608,
      "must": 1609,
      "money": 1610,
      "##avy": 1611,
      "Okay": 1612,
      "worried": 1613,
      "##sw": 1614,
      "##cle": 1615,
      "answ": 1616,
      "Fl": 1617,
      "##unch": 1618,
      "bott": 1619,
      "##eces": 1620,
      "slowly": 1621,
      "Just": 1622,
      "bran": 1623,
      "grate": 1624,
      "faster": 1625,
      "pot": 1626,
      "pieces": 1627,
      "dance": 1628,
      "Mr": 1629,
      "colorful": 1630,
      "welc": 1631,
      "cup": 1632,
      "broke": 1633,
      "Sure": 1634,
      "grateful": 1635,
      "##ze": 1636,
      "such": 1637,
      "bigger": 1638,
      "St": 1639,
      "##ix": 1640,
      "snack": 1641,
      "train": 1642,
      "blank": 1643,
      "reach": 1644,
      "cho": 1645,
      "pro": 1646,
      "monster": 1647,
      "river": 1648,
      "candy": 1649,
      "win": 1650,
      "join": 1651,
      "##less": 1652,
      "##uit": 1653,
      "black": 1654,
      "smart": 1655,
      "##ased": 1656,
      "blanket": 1657,
      "treasure": 1658,
      "scream": 1659,
      "stu": 1660,
      "pea": 1661,
      "magical": 1662,
      "ear": 1663,
      "princess": 1664,
      "bike": 1665,
      "dangerous": 1666,
      "Mum": 1667,
      "everywhere": 1668,
      "dragon": 1669,
      "across": 1670,
      "helping": 1671,
      "nap": 1672,
      "em": 1673,
      "monkey": 1674,
      "Grandma": 1675,
      "farmer": 1676,
      "most": 1677,
      "##eak": 1678,
      "##aw": 1679,
      "##outh": 1680,
      "##cked": 1681,
      "mouth": 1682,
      "disapp": 1683,
      "Jimmy": 1684,
      "words": 1685,
      "##icy": 1686,
      "##eared": 1687,
      "stre": 1688,
      "##leph": 1689,
      "dolls": 1690,
      "tower": 1691,
      "##ming": 1692,
      "bite": 1693,
      "stepped": 1694,
      "pass": 1695,
      "heavy": 1696,
      "same": 1697,
      "threw": 1698,
      "believe": 1699,
      "bee": 1700,
      "##de": 1701,
      "spr": 1702,
      "twins": 1703,
      "bowl": 1704,
      "crying": 1705,
      "dirty": 1706,
      "doctor": 1707,
      "sign": 1708,
      "##ored": 1709,
      "##â€™t": 1710,
      "acc": 1711,
      "##ident": 1712,
      "##chool": 1713,
      "##ches": 1714,
      "Hi": 1715,
      "wouldn": 1716,
      "bath": 1717,
      "##fort": 1718,
      "heal": 1719,
      "##bble": 1720,
      "##ale": 1721,
      "hig": 1722,
      "closed": 1723,
      "heart": 1724,
      "carrot": 1725,
      "fruit": 1726,
      "stuck": 1727,
      "cour": 1728,
      "school": 1729,
      "buck": 1730,
      "plant": 1731,
      "Please": 1732,
      "att": 1733,
      "min": 1734,
      "brown": 1735,
      "##ipped": 1736,
      "hoped": 1737,
      "suddenly": 1738,
      "##iting": 1739,
      "Emma": 1740,
      "chair": 1741,
      "feels": 1742,
      "cray": 1743,
      "bask": 1744,
      "mix": 1745,
      "eating": 1746,
      "basket": 1747,
      "town": 1748,
      "##cher": 1749,
      "clapped": 1750,
      "course": 1751,
      "fairy": 1752,
      "##pping": 1753,
      "gentle": 1754,
      "##ventually": 1755,
      "coll": 1756,
      "butt": 1757,
      "stand": 1758,
      "pack": 1759,
      "##ier": 1760,
      "drove": 1761,
      "##ire": 1762,
      "pushed": 1763,
      "##ors": 1764,
      "welcome": 1765,
      "##br": 1766,
      "ve": 1767,
      "##issed": 1768,
      "Inside": 1769,
      "neigh": 1770,
      "swings": 1771,
      "today": 1772,
      "##orrow": 1773,
      "higher": 1774,
      "without": 1775,
      "pocket": 1776,
      "teacher": 1777,
      "pers": 1778,
      "â€œI": 1779,
      "hit": 1780,
      "neighb": 1781,
      "free": 1782,
      "piece": 1783,
      "smo": 1784,
      "##ourn": 1785,
      "games": 1786,
      "cheered": 1787,
      "journ": 1788,
      "ben": 1789,
      "yard": 1790,
      "longer": 1791,
      "wings": 1792,
      "##ord": 1793,
      "explained": 1794,
      "forget": 1795,
      "corn": 1796,
      "##ible": 1797,
      "accident": 1798,
      "##umb": 1799,
      "along": 1800,
      "dry": 1801,
      "sang": 1802,
      "noises": 1803,
      "Their": 1804,
      "##itting": 1805,
      "How": 1806,
      "##ment": 1807,
      "inst": 1808,
      "neck": 1809,
      "throw": 1810,
      "late": 1811,
      "happen": 1812,
      "##ract": 1813,
      "##lephant": 1814,
      "young": 1815,
      "hugs": 1816,
      "shoes": 1817,
      "turns": 1818,
      "##vel": 1819,
      "miss": 1820,
      "stories": 1821,
      "lon": 1822,
      "adventures": 1823,
      "apple": 1824,
      "key": 1825,
      "singing": 1826,
      "##sc": 1827,
      "trou": 1828,
      "well": 1829,
      "Re": 1830,
      "upset": 1831,
      "gift": 1832,
      "Tw": 1833,
      "lunch": 1834,
      "elephant": 1835,
      "tom": 1836,
      "##ape": 1837,
      "jar": 1838,
      "lonely": 1839,
      "##bby": 1840,
      "dist": 1841,
      "belong": 1842,
      "mine": 1843,
      "Fluffy": 1844,
      "secret": 1845,
      "street": 1846,
      "plac": 1847,
      "##oun": 1848,
      "wish": 1849,
      "fence": 1850,
      "##ountain": 1851,
      "shook": 1852,
      "exploring": 1853,
      "owl": 1854,
      "Go": 1855,
      "moved": 1856,
      "nearby": 1857,
      "purp": 1858,
      "Sammy": 1859,
      "##aughty": 1860,
      "##fused": 1861,
      "##ts": 1862,
      "shop": 1863,
      "stars": 1864,
      "wise": 1865,
      "naughty": 1866,
      "inv": 1867,
      "bring": 1868,
      "##bow": 1869,
      "whe": 1870,
      "soup": 1871,
      "exp": 1872,
      "caught": 1873,
      "seemed": 1874,
      "##ail": 1875,
      "##ward": 1876,
      "##yard": 1877,
      "##ocked": 1878,
      "sea": 1879,
      "bat": 1880,
      "dropped": 1881,
      "ph": 1882,
      "backyard": 1883,
      "relie": 1884,
      "rocks": 1885,
      "##aughter": 1886,
      "Al": 1887,
      "je": 1888,
      "##ces": 1889,
      "drink": 1890,
      "##adow": 1891,
      "bucket": 1892,
      "des": 1893,
      "farm": 1894,
      "purple": 1895,
      "##sy": 1896,
      "Be": 1897,
      "taking": 1898,
      "resp": 1899,
      "orange": 1900,
      "swam": 1901,
      "##ions": 1902,
      "though": 1903,
      "mail": 1904,
      "shapes": 1905,
      "past": 1906,
      "cow": 1907,
      "af": 1908,
      "woke": 1909,
      "bench": 1910,
      "wondered": 1911,
      "sounds": 1912,
      "##ung": 1913,
      "fit": 1914,
      "hello": 1915,
      "My": 1916,
      "##ity": 1917,
      "##og": 1918,
      "Later": 1919,
      "busy": 1920,
      "ob": 1921,
      "nest": 1922,
      "tiny": 1923,
      "rainbow": 1924,
      "mark": 1925,
      "sitting": 1926,
      "daughter": 1927,
      "mad": 1928,
      "##cing": 1929,
      "kite": 1930,
      "##ese": 1931,
      "de": 1932,
      "nose": 1933,
      "nothing": 1934,
      "holding": 1935,
      "##col": 1936,
      "##read": 1937,
      "takes": 1938,
      "cou": 1939,
      "##fish": 1940,
      "juice": 1941,
      "comes": 1942,
      "part": 1943,
      "arms": 1944,
      "##ceful": 1945,
      "With": 1946,
      "Ell": 1947,
      "pig": 1948,
      "##thday": 1949,
      "##cks": 1950,
      "coat": 1951,
      "cir": 1952,
      "##ining": 1953,
      "##raid": 1954,
      "branch": 1955,
      "round": 1956,
      "afraid": 1957,
      "##idge": 1958,
      "##que": 1959,
      "##gn": 1960,
      "driver": 1961,
      "relieved": 1962,
      "inter": 1963,
      "##ose": 1964,
      "Ch": 1965,
      "cute": 1966,
      "forever": 1967,
      "##vered": 1968,
      "spoon": 1969,
      "mil": 1970,
      "te": 1971,
      "carry": 1972,
      "Jenny": 1973,
      "ca": 1974,
      "sick": 1975,
      "boun": 1976,
      "##ek": 1977,
      "Tweet": 1978,
      "##ost": 1979,
      "huge": 1980,
      "##ours": 1981,
      "promise": 1982,
      "Good": 1983,
      "patient": 1984,
      "##unt": 1985,
      "touched": 1986,
      "fing": 1987,
      "king": 1988,
      "grab": 1989,
      "letter": 1990,
      "exciting": 1991,
      "birthday": 1992,
      "##ching": 1993,
      "sunny": 1994,
      "cheese": 1995,
      "Of": 1996,
      "bush": 1997,
      "onto": 1998,
      "journey": 1999,
      "days": 2000,
      "laughing": 2001,
      "##board": 2002,
      "##ped": 2003,
      "gigg": 2004,
      "disco": 2005,
      "creature": 2006,
      "band": 2007,
      "imag": 2008,
      "Emily": 2009,
      "ret": 2010,
      "life": 2011,
      "##ittens": 2012,
      "hope": 2013,
      "##oph": 2014,
      "##shine": 2015,
      "bottle": 2016,
      "bread": 2017,
      "shell": 2018,
      "power": 2019,
      "craw": 2020,
      "cozy": 2021,
      "##gged": 2022,
      "kick": 2023,
      "swimming": 2024,
      "inc": 2025,
      "##gg": 2026,
      "wra": 2027,
      "whist": 2028,
      "sharp": 2029,
      "suc": 2030,
      "watching": 2031,
      "mist": 2032,
      "##alm": 2033,
      "retur": 2034,
      "##ness": 2035,
      "instead": 2036,
      "##esting": 2037,
      "eas": 2038,
      "##ten": 2039,
      "milk": 2040,
      "##let": 2041,
      "cave": 2042,
      "accidentally": 2043,
      "sunshine": 2044,
      "##ndp": 2045,
      "spin": 2046,
      "shout": 2047
    }
  }
}