{
  "version": "1.0",
  "truncation": null,
  "padding": null,
  "added_tokens": [
    {
      "id": 0,
      "content": "[PAD]",
      "single_word": false,
      "lstrip": false,
      "rstrip": false,
      "normalized": false,
      "special": true
    },
    {
      "id": 1,
      "content": "[UNK]",
      "single_word": false,
      "lstrip": false,
      "rstrip": false,
      "normalized": false,
      "special": true
    },
    {
      "id": 2,
      "content": "[CLS]",
      "single_word": false,
      "lstrip": false,
      "rstrip": false,
      "normalized": false,
      "special": true
    },
    {
      "id": 3,
      "content": "[SEP]",
      "single_word": false,
      "lstrip": false,
      "rstrip": false,
      "normalized": false,
      "special": true
    },
    {
      "id": 4,
      "content": "[MASK]",
      "single_word": false,
      "lstrip": false,
      "rstrip": false,
      "normalized": false,
      "special": true
    }
  ],
  "normalizer": {
    "type": "BertNormalizer",
    "clean_text": true,
    "handle_chinese_chars": true,
    "strip_accents": null,
    "lowercase": false
  },
  "pre_tokenizer": {
    "type": "BertPreTokenizer"
  },
  "post_processor": {
    "type": "TemplateProcessing",
    "single": [
      {
        "SpecialToken": {
          "id": "[CLS]",
          "type_id": 0
        }
      },
      {
        "Sequence": {
          "id": "A",
          "type_id": 0
        }
      },
      {
        "SpecialToken": {
          "id": "[SEP]",
          "type_id": 0
        }
      }
    ],
    "pair": [
      {
        "SpecialToken": {
          "id": "[CLS]",
          "type_id": 0
        }
      },
      {
        "Sequence": {
          "id": "A",
          "type_id": 0
        }
      },
      {
        "SpecialToken": {
          "id": "[SEP]",
          "type_id": 0
        }
      },
      {
        "Sequence": {
          "id": "B",
          "type_id": 1
        }
      },
      {
        "SpecialToken": {
          "id": "[SEP]",
          "type_id": 1
        }
      }
    ],
    "special_tokens": {
      "[CLS]": {
        "id": "[CLS]",
        "ids": [
          2
        ],
        "tokens": [
          "[CLS]"
        ]
      },
      "[SEP]": {
        "id": "[SEP]",
        "ids": [
          3
        ],
        "tokens": [
          "[SEP]"
        ]
      }
    }
  },
  "decoder": {
    "type": "WordPiece",
    "prefix": "##",
    "cleanup": true
  },
  "model": {
    "type": "WordPiece",
    "unk_token": "[UNK]",
    "continuing_subword_prefix": "##",
    "max_input_chars_per_word": 100,
    "vocab": {
      "[PAD]": 0,
      "[UNK]": 1,
      "[CLS]": 2,
      "[SEP]": 3,
      "[MASK]": 4,
      "!": 5,
      "\"": 6,
      "#": 7,
      "$": 8,
      "%": 9,
      "&": 10,
      "'": 11,
      "(": 12,
      ")": 13,
      "*": 14,
      "+": 15,
      ",": 16,
      "-": 17,
      ".": 18,
      "/": 19,
      "0": 20,
      "1": 21,
      "2": 22,
      "3": 23,
      "4": 24,
      "5": 25,
      "6": 26,
      "7": 27,
      "8": 28,
      "9": 29,
      ":": 30,
      ";": 31,
      "<": 32,
      "=": 33,
      ">": 34,
      "?": 35,
      "A": 36,
      "B": 37,
      "C": 38,
      "D": 39,
      "E": 40,
      "F": 41,
      "G": 42,
      "H": 43,
      "I": 44,
      "J": 45,
      "K": 46,
      "L": 47,
      "M": 48,
      "N": 49,
      "O": 50,
      "P": 51,
      "Q": 52,
      "R": 53,
      "S": 54,
      "T": 55,
      "U": 56,
      "V": 57,
      "W": 58,
      "X": 59,
      "Y": 60,
      "Z": 61,
      "[": 62,
      "\\": 63,
      "]": 64,
      "_": 65,
      "`": 66,
      "a": 67,
      "b": 68,
      "c": 69,
      "d": 70,
      "e": 71,
      "f": 72,
      "g": 73,
      "h": 74,
      "i": 75,
      "j": 76,
      "k": 77,
      "l": 78,
      "m": 79,
      "n": 80,
      "o": 81,
      "p": 82,
      "q": 83,
      "r": 84,
      "s": 85,
      "t": 86,
      "u": 87,
      "v": 88,
      "w": 89,
      "x": 90,
      "y": 91,
      "z": 92,
      "{": 93,
      "~": 94,
      "¡": 95,
      "¢": 96,
      "£": 97,
      "¦": 98,
      "§": 99,
      "¨": 100,
      "©": 101,
      "ª": 102,
      "«": 103,
      "¬": 104,
      "¯": 105,
      "°": 106,
      "±": 107,
      "³": 108,
      "´": 109,
      "º": 110,
      "»": 111,
      "¼": 112,
      "½": 113,
      "¾": 114,
      "¿": 115,
      "Â": 116,
      "Ã": 117,
      "Ä": 118,
      "Å": 119,
      "Ê": 120,
      "á": 121,
      "â": 122,
      "ã": 123,
      "ä": 124,
      "å": 125,
      "æ": 126,
      "ç": 127,
      "è": 128,
      "é": 129,
      "ï": 130,
      "ð": 131,
      "Œ": 132,
      "œ": 133,
      "Š": 134,
      "Ÿ": 135,
      "Ž": 136,
      "ž": 137,
      "ˆ": 138,
      "˜": 139,
      "–": 140,
      "’": 141,
      "‚": 142,
      "“": 143,
      "”": 144,
      "„": 145,
      "†": 146,
      "‡": 147,
      "•": 148,
      "…": 149,
      "‰": 150,
      "‹": 151,
      "›": 152,
      "€": 153,
      "™": 154,
      "##€": 155,
      "##œ": 156,
      "##C": 157,
      "##h": 158,
      "##u": 159,
      "##r": 160,
      "##c": 161,
      "##l": 162,
      "##a": 163,
      "##d": 164,
      "##i": 165,
      "##g": 166,
      "##m": 167,
      "##e": 168,
      "##t": 169,
      "##s": 170,
      "##o": 171,
      "##n": 172,
      "##b": 173,
      "##y": 174,
      "##â": 175,
      "##™": 176,
      "##p": 177,
      "##w": 178,
      "##z": 179,
      "##j": 180,
      "##k": 181,
      "##v": 182,
      "##q": 183,
      "##B": 184,
      "##A": 185,
      "##I": 186,
      "##N": 187,
      "##G": 188,
      "##S": 189,
      "##x": 190,
      "##f": 191,
      "##¦": 192,
      "##U": 193,
      "##T": 194,
      "##L": 195,
      "##E": 196,
      "##W": 197,
      "##O": 198,
      "##˜": 199,
      "##0": 200,
      "##R": 201,
      "##J": 202,
      "##P": 203,
      "##H": 204,
      "##Y": 205,
      "##M": 206,
      "##D": 207,
      "##6": 208,
      "##F": 209,
      "##Ã": 210,
      "##ª": 211,
      "##8": 212,
      "##Â": 213,
      "##´": 214,
      "##K": 215,
      "##å": 216,
      "##ï": 217,
      "##¼": 218,
      "##Œ": 219,
      "##¾": 220,
      "##ˆ": 221,
      "##é": 222,
      "##©": 223,
      "##Z": 224,
      "##5": 225,
      "##7": 226,
      "##1": 227,
      "##3": 228,
      "##Q": 229,
      "##¯": 230,
      "##ç": 231,
      "##Š": 232,
      "##Ÿ": 233,
      "##V": 234,
      "##2": 235,
      "##4": 236,
      "##Å": 237,
      "##á": 238,
      "##9": 239,
      "##³": 240,
      "##X": 241,
      "##±": 242,
      "##ž": 243,
      "##¢": 244,
      "##è": 245,
      "##Ž": 246,
      "##Ê": 247,
      "##ð": 248,
      "##ã": 249,
      "##º": 250,
      "##ä": 251,
      "##¬": 252,
      "##¨": 253,
      "##æ": 254,
      "##Ä": 255,
      "##£": 256,
      "##°": 257,
      "##½": 258,
      "##he": 259,
      "##nd": 260,
      "the": 261,
      "##ed": 262,
      "and": 263,
      "##er": 264,
      "to": 265,
      "wa": 266,
      "##ou": 267,
      "##in": 268,
      "##re": 269,
      "was": 270,
      "##om": 271,
      "The": 272,
      "##ay": 273,
      "##ar": 274,
      "##ing": 275,
      "##il": 276,
      "##it": 277,
      "##id": 278,
      "##at": 279,
      "sa": 280,
      "##en": 281,
      "ha": 282,
      "##is": 283,
      "##an": 284,
      "##or": 285,
      "##im": 286,
      "he": 287,
      "##on": 288,
      "it": 289,
      "th": 290,
      "##ut": 291,
      "##ll": 292,
      "##le": 293,
      "her": 294,
      "##et": 295,
      "He": 296,
      "##ot": 297,
      "She": 298,
      "##ir": 299,
      "##es": 300,
      "They": 301,
      "in": 302,
      "##ow": 303,
      "##ck": 304,
      "##ld": 305,
      "##oo": 306,
      "said": 307,
      "##ily": 308,
      "be": 309,
      "##ig": 310,
      "##am": 311,
      "st": 312,
      "##ce": 313,
      "she": 314,
      "##pp": 315,
      "##ith": 316,
      "##ve": 317,
      "with": 318,
      "Lily": 319,
      "On": 320,
      "on": 321,
      "you": 322,
      "of": 323,
      "##ked": 324,
      "##ri": 325,
      "so": 326,
      "his": 327,
      "pl": 328,
      "##ery": 329,
      "##ad": 330,
      "##ke": 331,
      "##nt": 332,
      "day": 333,
      "that": 334,
      "up": 335,
      "play": 336,
      "had": 337,
      "they": 338,
      "##el": 339,
      "mom": 340,
      "for": 341,
      "##st": 342,
      "##un": 343,
      "##ould": 344,
      "##my": 345,
      "##ent": 346,
      "li": 347,
      "##ch": 348,
      "happ": 349,
      "want": 350,
      "##itt": 351,
      "sh": 352,
      "##her": 353,
      "It": 354,
      "do": 355,
      "##ly": 356,
      "not": 357,
      "##ome": 358,
      "very": 359,
      "##se": 360,
      "##ound": 361,
      "##end": 362,
      "##all": 363,
      "wh": 364,
      "##ime": 365,
      "##ittle": 366,
      "time": 367,
      "little": 368,
      "##al": 369,
      "there": 370,
      "ne": 371,
      "##ht": 372,
      "happy": 373,
      "sm": 374,
      "big": 375,
      "is": 376,
      "but": 377,
      "##ra": 378,
      "an": 379,
      "saw": 380,
      "##riend": 381,
      "friend": 382,
      "##ry": 383,
      "as": 384,
      "##ack": 385,
      "One": 386,
      "##ake": 387,
      "re": 388,
      "##ere": 389,
      "Tim": 390,
      "##ter": 391,
      "##ug": 392,
      "loo": 393,
      "##ved": 394,
      "were": 395,
      "Once": 396,
      "lo": 397,
      "##ore": 398,
      "##ec": 399,
      "him": 400,
      "too": 401,
      "##ur": 402,
      "go": 403,
      "bo": 404,
      "##ide": 405,
      "se": 406,
      "##irl": 407,
      "##ver": 408,
      "are": 409,
      "##ard": 410,
      "wanted": 411,
      "Tom": 412,
      "##ill": 413,
      "girl": 414,
      "upon": 415,
      "out": 416,
      "them": 417,
      "at": 418,
      "Ben": 419,
      "their": 420,
      "##fu": 421,
      "sp": 422,
      "##way": 423,
      "##ind": 424,
      "smil": 425,
      "did": 426,
      "could": 427,
      "##hen": 428,
      "have": 429,
      "##ted": 430,
      "##ain": 431,
      "ex": 432,
      "##hed": 433,
      "But": 434,
      "##rom": 435,
      "went": 436,
      "ar": 437,
      "##lp": 438,
      "can": 439,
      "##ic": 440,
      "##ful": 441,
      "##ood": 442,
      "##hing": 443,
      "friends": 444,
      "nam": 445,
      "##ight": 446,
      "all": 447,
      "help": 448,
      "kn": 449,
      "##um": 450,
      "##ark": 451,
      "##one": 452,
      "back": 453,
      "say": 454,
      "cl": 455,
      "fun": 456,
      "You": 457,
      "no": 458,
      "##are": 459,
      "##ear": 460,
      "##very": 461,
      "Timmy": 462,
      "##op": 463,
      "star": 464,
      "sc": 465,
      "smiled": 466,
      "named": 467,
      "al": 468,
      "##oug": 469,
      "loved": 470,
      "##side": 471,
      "man": 472,
      "##elt": 473,
      "asked": 474,
      "##ick": 475,
      "toy": 476,
      "Mom": 477,
      "like": 478,
      "felt": 479,
      "looked": 480,
      "see": 481,
      "some": 482,
      "around": 483,
      "me": 484,
      "##ep": 485,
      "##ame": 486,
      "##omet": 487,
      "fe": 488,
      "ro": 489,
      "br": 490,
      "##ure": 491,
      "bir": 492,
      "##get": 493,
      "boy": 494,
      "would": 495,
      "##ong": 496,
      "##ss": 497,
      "##ea": 498,
      "bird": 499,
      "somet": 500,
      "fa": 501,
      "##dd": 502,
      "##est": 503,
      "##ings": 504,
      "ag": 505,
      "wor": 506,
      "what": 507,
      "##ade": 508,
      "make": 509,
      "##king": 510,
      "##ie": 511,
      "car": 512,
      "##own": 513,
      "ran": 514,
      "tre": 515,
      "##gether": 516,
      "away": 517,
      "##ag": 518,
      "Th": 519,
      "we": 520,
      "says": 521,
      "started": 522,
      "##ice": 523,
      "##oud": 524,
      "made": 525,
      "something": 526,
      "together": 527,
      "##ther": 528,
      "##ited": 529,
      "park": 530,
      "co": 531,
      "sad": 532,
      "other": 533,
      "new": 534,
      "exc": 535,
      "put": 536,
      "from": 537,
      "##out": 538,
      "pr": 539,
      "scar": 540,
      "la": 541,
      "hug": 542,
      "##ble": 543,
      "mu": 544,
      "##ook": 545,
      "again": 546,
      "home": 547,
      "when": 548,
      "good": 549,
      "who": 550,
      "ch": 551,
      "##ried": 552,
      "found": 553,
      "fl": 554,
      "then": 555,
      "##pped": 556,
      "dec": 557,
      "wal": 558,
      "get": 559,
      "playing": 560,
      "##ought": 561,
      "##ach": 562,
      "##pl": 563,
      "##ally": 564,
      "sw": 565,
      "Su": 566,
      "##ous": 567,
      "##nn": 568,
      "â€": 569,
      "things": 570,
      "excited": 571,
      "liked": 572,
      "got": 573,
      "##uck": 574,
      "Sam": 575,
      "##ro": 576,
      "##ided": 577,
      "##ell": 578,
      "##as": 579,
      "bl": 580,
      "decided": 581,
      "came": 582,
      "Ann": 583,
      "every": 584,
      "##ara": 585,
      "your": 586,
      "##ax": 587,
      "one": 588,
      "scared": 589,
      "##ust": 590,
      "dog": 591,
      "down": 592,
      "##ouse": 593,
      "find": 594,
      "##ny": 595,
      "care": 596,
      "bec": 597,
      "than": 598,
      "Sara": 599,
      "feel": 600,
      "We": 601,
      "Anna": 602,
      "dad": 603,
      "ab": 604,
      "Max": 605,
      "my": 606,
      "##ap": 607,
      "look": 608,
      "##ist": 609,
      "will": 610,
      "gr": 611,
      "##nder": 612,
      "gra": 613,
      "##ess": 614,
      "##ways": 615,
      "didn": 616,
      "po": 617,
      "always": 618,
      "took": 619,
      "about": 620,
      "##bb": 621,
      "##ers": 622,
      "##ned": 623,
      "lot": 624,
      "mommy": 625,
      "toys": 626,
      "kne": 627,
      "So": 628,
      "##ise": 629,
      "##ant": 630,
      "bu": 631,
      "old": 632,
      "outside": 633,
      "##ite": 634,
      "##ave": 635,
      "tree": 636,
      "thought": 637,
      "lear": 638,
      "ball": 639,
      "more": 640,
      "##eci": 641,
      "##ened": 642,
      "##ched": 643,
      "ta": 644,
      "ho": 645,
      "When": 646,
      "##ret": 647,
      "##ged": 648,
      "Jo": 649,
      "know": 650,
      "pu": 651,
      "Wh": 652,
      "##to": 653,
      "laug": 654,
      "sor": 655,
      "take": 656,
      "speci": 657,
      "special": 658,
      "cat": 659,
      "##dden": 660,
      "knew": 661,
      "##ty": 662,
      "##ive": 663,
      "##ff": 664,
      "Her": 665,
      "##ia": 666,
      "any": 667,
      "##ddenly": 668,
      "##fter": 669,
      "how": 670,
      "##au": 671,
      "##ue": 672,
      "show": 673,
      "##ma": 674,
      "##ink": 675,
      "Jack": 676,
      "sorry": 677,
      "tw": 678,
      "much": 679,
      "##ish": 680,
      "tr": 681,
      "Every": 682,
      "run": 683,
      "hand": 684,
      "sl": 685,
      "##ven": 686,
      "house": 687,
      "##and": 688,
      "or": 689,
      "op": 690,
      "sk": 691,
      "mo": 692,
      "clo": 693,
      "sun": 694,
      "into": 695,
      "tried": 696,
      "inside": 697,
      "##ate": 698,
      "told": 699,
      "this": 700,
      "water": 701,
      "en": 702,
      "if": 703,
      "##ump": 704,
      "proud": 705,
      "over": 706,
      "couldn": 707,
      "gave": 708,
      "##dy": 709,
      "heard": 710,
      "##ank": 711,
      "never": 712,
      "each": 713,
      "##by": 714,
      "room": 715,
      "expl": 716,
      "Suddenly": 717,
      "eat": 718,
      "##other": 719,
      "##ause": 720,
      "pick": 721,
      "##ion": 722,
      "pret": 723,
      "played": 724,
      "Then": 725,
      "Mia": 726,
      "##ge": 727,
      "just": 728,
      "##etter": 729,
      "hugged": 730,
      "gre": 731,
      "qu": 732,
      "##here": 733,
      "Let": 734,
      "off": 735,
      "wat": 736,
      "com": 737,
      "##oth": 738,
      "And": 739,
      "nice": 740,
      "box": 741,
      "From": 742,
      "##our": 743,
      "ra": 744,
      "need": 745,
      "str": 746,
      "because": 747,
      "His": 748,
      "pe": 749,
      "##ile": 750,
      "many": 751,
      "##fe": 752,
      "##ft": 753,
      "fo": 754,
      "##uc": 755,
      "jo": 756,
      "bear": 757,
      "##eep": 758,
      "small": 759,
      "##iz": 760,
      "##sed": 761,
      "##ving": 762,
      "long": 763,
      "##gry": 764,
      "##kes": 765,
      "##imal": 766,
      "##ine": 767,
      "##em": 768,
      "animal": 769,
      "sn": 770,
      "##ough": 771,
      "try": 772,
      "That": 773,
      "unt": 774,
      "##sel": 775,
      "##urt": 776,
      "##ort": 777,
      "##ild": 778,
      "until": 779,
      "kind": 780,
      "learned": 781,
      "bea": 782,
      "im": 783,
      "love": 784,
      "better": 785,
      "call": 786,
      "flow": 787,
      "don": 788,
      "end": 789,
      "ad": 790,
      "##vent": 791,
      "best": 792,
      "##ning": 793,
      "##urp": 794,
      "##ady": 795,
      "##ream": 796,
      "cle": 797,
      "ma": 798,
      "##ves": 799,
      "â€œ": 800,
      "##arden": 801,
      "garden": 802,
      "cu": 803,
      "careful": 804,
      "fast": 805,
      "##lly": 806,
      "##ber": 807,
      "beaut": 808,
      "Mommy": 809,
      "fi": 810,
      "bra": 811,
      "even": 812,
      "by": 813,
      "thanked": 814,
      "##ies": 815,
      "che": 816,
      "laughed": 817,
      "sky": 818,
      "##sh": 819,
      "What": 820,
      "jump": 821,
      "gl": 822,
      "Yes": 823,
      "##self": 824,
      "loud": 825,
      "##iny": 826,
      "way": 827,
      "come": 828,
      "beauti": 829,
      "list": 830,
      "##lew": 831,
      "wo": 832,
      "hard": 833,
      "beautiful": 834,
      "##ase": 835,
      "lots": 836,
      "Can": 837,
      "fam": 838,
      "still": 839,
      "animals": 840,
      "Joh": 841,
      "hurt": 842,
      "under": 843,
      "let": 844,
      "stay": 845,
      "##wn": 846,
      "both": 847,
      "##hes": 848,
      "##be": 849,
      "safe": 850,
      "##ct": 851,
      "##ool": 852,
      "col": 853,
      "lea": 854,
      "##ree": 855,
      "two": 856,
      "di": 857,
      "bad": 858,
      "##ace": 859,
      "book": 860,
      "##ople": 861,
      "rem": 862,
      "imp": 863,
      "As": 864,
      "lived": 865,
      "##ane": 866,
      "Luc": 867,
      "##kay": 868,
      "Lucy": 869,
      "##ock": 870,
      "walked": 871,
      "su": 872,
      "brave": 873,
      "should": 874,
      "its": 875,
      "##urpr": 876,
      "##ob": 877,
      "##ished": 878,
      "angry": 879,
      "surpr": 880,
      "family": 881,
      "##ept": 882,
      "##ress": 883,
      "flew": 884,
      "people": 885,
      "Thank": 886,
      "red": 887,
      "##igh": 888,
      "called": 889,
      "After": 890,
      "stor": 891,
      "##ip": 892,
      "##eet": 893,
      "fin": 894,
      "soon": 895,
      "##ast": 896,
      "##led": 897,
      "##ect": 898,
      "kept": 899,
      "John": 900,
      "fore": 901,
      "dan": 902,
      "##art": 903,
      "##fore": 904,
      "Dad": 905,
      "fly": 906,
      "share": 907,
      "##xt": 908,
      "le": 909,
      "##ised": 910,
      "No": 911,
      "##dded": 912,
      "pic": 913,
      "door": 914,
      "tur": 915,
      "going": 916,
      "pretty": 917,
      "##â€": 918,
      "keep": 919,
      "now": 920,
      "clean": 921,
      "rock": 922,
      "dra": 923,
      "advent": 924,
      "##ummy": 925,
      "noise": 926,
      "opened": 927,
      "##age": 928,
      "wind": 929,
      "shiny": 930,
      "cry": 931,
      "id": 932,
      "doll": 933,
      "idea": 934,
      "con": 935,
      "before": 936,
      "##illy": 937,
      "real": 938,
      "sto": 939,
      "Sp": 940,
      "##so": 941,
      "ground": 942,
      "explore": 943,
      "also": 944,
      "far": 945,
      "##ied": 946,
      "##les": 947,
      "ey": 948,
      "##â€™": 949,
      "fr": 950,
      "color": 951,
      "nodded": 952,
      "war": 953,
      "feeling": 954,
      "Bob": 955,
      "un": 956,
      "picked": 957,
      "##oy": 958,
      "##imb": 959,
      "walking": 960,
      "next": 961,
      "##thing": 962,
      "##ture": 963,
      "climb": 964,
      "##ting": 965,
      "has": 966,
      "thr": 967,
      "while": 968,
      "bed": 969,
      "smile": 970,
      "adventure": 971,
      "##th": 972,
      "##aybe": 973,
      "##ger": 974,
      "##ser": 975,
      "looking": 976,
      "##iced": 977,
      "##ious": 978,
      "being": 979,
      "##qu": 980,
      "wr": 981,
      "diff": 982,
      "food": 983,
      "##joy": 984,
      "picture": 985,
      "give": 986,
      "think": 987,
      "Spot": 988,
      "del": 989,
      "tow": 990,
      "truck": 991,
      "##ught": 992,
      "wait": 993,
      "eyes": 994,
      "tra": 995,
      "repl": 996,
      "bro": 997,
      "stopped": 998,
      "listen": 999,
      "after": 1000,
      "gi": 1001,
      "bre": 1002,
      "vo": 1003,
      "walk": 1004,
      "Do": 1005,
      "year": 1006,
      "##ember": 1007,
      "wonder": 1008,
      "great": 1009,
      "hands": 1010,
      "Sue": 1011,
      "head": 1012,
      "enjoy": 1013,
      "blue": 1014,
      "ever": 1015,
      "import": 1016,
      "flowers": 1017,
      "##bbit": 1018,
      "forest": 1019,
      "noticed": 1020,
      "near": 1021,
      "own": 1022,
      "app": 1023,
      "ac": 1024,
      "quick": 1025,
      "##ized": 1026,
      "dis": 1027,
      "##irst": 1028,
      "fish": 1029,
      "remember": 1030,
      "##able": 1031,
      "important": 1032,
      "##llow": 1033,
      "sound": 1034,
      "slide": 1035,
      "us": 1036,
      "replied": 1037,
      "##maz": 1038,
      "amaz": 1039,
      "##lease": 1040,
      "watch": 1041,
      "work": 1042,
      "okay": 1043,
      "rain": 1044,
      "rabbit": 1045,
      "showed": 1046,
      "tal": 1047,
      "##gan": 1048,
      "Sarah": 1049,
      "mean": 1050,
      "##bbed": 1051,
      "differ": 1052,
      "ru": 1053,
      "ask": 1054,
      "tou": 1055,
      "right": 1056,
      "watched": 1057,
      "##day": 1058,
      "##bye": 1059,
      "bright": 1060,
      "Look": 1061,
      "follow": 1062,
      "strong": 1063,
      "everyone": 1064,
      "been": 1065,
      "use": 1066,
      "This": 1067,
      "mor": 1068,
      "voice": 1069,
      "stick": 1070,
      "quickly": 1071,
      "##ered": 1072,
      "##ath": 1073,
      "where": 1074,
      "our": 1075,
      "yell": 1076,
      "Jane": 1077,
      "different": 1078,
      "##ng": 1079,
      "##ey": 1080,
      "curi": 1081,
      "sure": 1082,
      "child": 1083,
      "boat": 1084,
      "Maybe": 1085,
      "goodbye": 1086,
      "became": 1087,
      "face": 1088,
      "place": 1089,
      "hop": 1090,
      "##ange": 1091,
      "am": 1092,
      "high": 1093,
      "##aught": 1094,
      "##oon": 1095,
      "closer": 1096,
      "store": 1097,
      "warm": 1098,
      "dress": 1099,
      "does": 1100,
      "tea": 1101,
      "##llo": 1102,
      "curious": 1103,
      "##unny": 1104,
      "mag": 1105,
      "bel": 1106,
      "forg": 1107,
      "##ila": 1108,
      "cook": 1109,
      "tell": 1110,
      "##ndma": 1111,
      "fav": 1112,
      "##ass": 1113,
      "three": 1114,
      "##ount": 1115,
      "Lila": 1116,
      "##co": 1117,
      "##leep": 1118,
      "ba": 1119,
      "open": 1120,
      "block": 1121,
      "shar": 1122,
      "night": 1123,
      "##more": 1124,
      "here": 1125,
      "anymore": 1126,
      "cake": 1127,
      "##ull": 1128,
      "first": 1129,
      "##itc": 1130,
      "##iss": 1131,
      "pull": 1132,
      "##ached": 1133,
      "butter": 1134,
      "##ired": 1135,
      "pain": 1136,
      "##imes": 1137,
      "##orn": 1138,
      "In": 1139,
      "sweet": 1140,
      "kid": 1141,
      "grabbed": 1142,
      "##isy": 1143,
      "only": 1144,
      "mon": 1145,
      "fell": 1146,
      "Everyone": 1147,
      "cont": 1148,
      "jumped": 1149,
      "birds": 1150,
      "glad": 1151,
      "sand": 1152,
      "bit": 1153,
      "##itchen": 1154,
      "kitchen": 1155,
      "helped": 1156,
      "per": 1157,
      "fire": 1158,
      "squ": 1159,
      "sees": 1160,
      "flo": 1161,
      "Don": 1162,
      "##outed": 1163,
      "stop": 1164,
      "hear": 1165,
      "Joe": 1166,
      "happened": 1167,
      "cra": 1168,
      "sing": 1169,
      "grass": 1170,
      "Tommy": 1171,
      "tri": 1172,
      "shouted": 1173,
      "##nts": 1174,
      "dr": 1175,
      "story": 1176,
      "bunny": 1177,
      "##air": 1178,
      "reached": 1179,
      "beh": 1180,
      "realized": 1181,
      "mum": 1182,
      "brother": 1183,
      "yummy": 1184,
      "cr": 1185,
      "lady": 1186,
      "having": 1187,
      "prin": 1188,
      "##ppy": 1189,
      "##ins": 1190,
      "favor": 1191,
      "##ary": 1192,
      "draw": 1193,
      "learn": 1194,
      "through": 1195,
      "mess": 1196,
      "cre": 1197,
      "less": 1198,
      "favorite": 1199,
      "game": 1200,
      "soft": 1201,
      "ate": 1202,
      "underst": 1203,
      "hat": 1204,
      "pare": 1205,
      "##zy": 1206,
      "##ather": 1207,
      "really": 1208,
      "thing": 1209,
      "ready": 1210,
      "began": 1211,
      "world": 1212,
      "##where": 1213,
      "pretend": 1214,
      "##ken": 1215,
      "himself": 1216,
      "looks": 1217,
      "##fully": 1218,
      "pap": 1219,
      "magic": 1220,
      "Now": 1221,
      "butterf": 1222,
      "done": 1223,
      "making": 1224,
      "duck": 1225,
      "cut": 1226,
      "rest": 1227,
      "pond": 1228,
      "##ater": 1229,
      "kids": 1230,
      "coming": 1231,
      "why": 1232,
      "waved": 1233,
      "fro": 1234,
      "fix": 1235,
      "tired": 1236,
      "prom": 1237,
      "mouse": 1238,
      "##olly": 1239,
      "worry": 1240,
      "cars": 1241,
      "Fin": 1242,
      "name": 1243,
      "fill": 1244,
      "flower": 1245,
      "delic": 1246,
      "##aisy": 1247,
      "touch": 1248,
      "Sally": 1249,
      "funny": 1250,
      "##eddy": 1251,
      "thank": 1252,
      "catch": 1253,
      "used": 1254,
      "top": 1255,
      "hair": 1256,
      "##bo": 1257,
      "seen": 1258,
      "parents": 1259,
      "another": 1260,
      "tast": 1261,
      "##rel": 1262,
      "##ient": 1263,
      "hopped": 1264,
      "cried": 1265,
      "Wow": 1266,
      "##oney": 1267,
      "##ak": 1268,
      "blocks": 1269,
      "hold": 1270,
      "##mer": 1271,
      "There": 1272,
      "##iver": 1273,
      "doing": 1274,
      "cool": 1275,
      "turn": 1276,
      "##ac": 1277,
      "surprise": 1278,
      "##ster": 1279,
      "light": 1280,
      "green": 1281,
      "lesson": 1282,
      "years": 1283,
      "##ation": 1284,
      "read": 1285,
      "floor": 1286,
      "din": 1287,
      "##ards": 1288,
      "dri": 1289,
      "window": 1290,
      "full": 1291,
      "wood": 1292,
      "smell": 1293,
      "worked": 1294,
      "running": 1295,
      "trees": 1296,
      "dro": 1297,
      "dark": 1298,
      "wished": 1299,
      "spot": 1300,
      "wear": 1301,
      "behind": 1302,
      "##ons": 1303,
      "paper": 1304,
      "likes": 1305,
      "par": 1306,
      "yellow": 1307,
      "##ued": 1308,
      "swim": 1309,
      "bag": 1310,
      "##ely": 1311,
      "sat": 1312,
      "happily": 1313,
      "bow": 1314,
      "sho": 1315,
      "##ul": 1316,
      "##ren": 1317,
      "##andy": 1318,
      "Daisy": 1319,
      "sleep": 1320,
      "Em": 1321,
      "surprised": 1322,
      "Jim": 1323,
      "##us": 1324,
      "set": 1325,
      "frog": 1326,
      "butterfly": 1327,
      "swing": 1328,
      "##â€™s": 1329,
      "carefully": 1330,
      "lost": 1331,
      "cold": 1332,
      "Benny": 1333,
      "##ike": 1334,
      "held": 1335,
      "remembered": 1336,
      "slow": 1337,
      "To": 1338,
      "hole": 1339,
      "##uff": 1340,
      "At": 1341,
      "ice": 1342,
      "laugh": 1343,
      "needed": 1344,
      "##rew": 1345,
      "buy": 1346,
      "perf": 1347,
      "left": 1348,
      "Gra": 1349,
      "ste": 1350,
      "##reed": 1351,
      "Billy": 1352,
      "##cess": 1353,
      "move": 1354,
      "anything": 1355,
      "enjoyed": 1356,
      "wrong": 1357,
      "Hello": 1358,
      "tall": 1359,
      "arri": 1360,
      "dream": 1361,
      "fair": 1362,
      "followed": 1363,
      "books": 1364,
      "Finally": 1365,
      "air": 1366,
      "##ross": 1367,
      "el": 1368,
      "table": 1369,
      "bus": 1370,
      "hun": 1371,
      "Molly": 1372,
      "children": 1373,
      "please": 1374,
      "delicious": 1375,
      "finished": 1376,
      "friendly": 1377,
      "dir": 1378,
      "contin": 1379,
      "snow": 1380,
      "hot": 1381,
      "herself": 1382,
      "##ds": 1383,
      "##lf": 1384,
      "hill": 1385,
      "##ens": 1386,
      "understand": 1387,
      "close": 1388,
      "Amy": 1389,
      "cream": 1390,
      "##ined": 1391,
      "arrived": 1392,
      "baby": 1393,
      "hid": 1394,
      "might": 1395,
      "wonderful": 1396,
      "arm": 1397,
      "forgot": 1398,
      "else": 1399,
      "res": 1400,
      "gent": 1401,
      "cast": 1402,
      "yes": 1403,
      "tight": 1404,
      "bug": 1405,
      "##ield": 1406,
      "colors": 1407,
      "build": 1408,
      "rel": 1409,
      "broken": 1410,
      "sig": 1411,
      "##ner": 1412,
      "able": 1413,
      "Jen": 1414,
      "gone": 1415,
      "##av": 1416,
      "song": 1417,
      "filled": 1418,
      "wall": 1419,
      "##ich": 1420,
      "##irrel": 1421,
      "agreed": 1422,
      "mat": 1423,
      "fur": 1424,
      "someone": 1425,
      "gu": 1426,
      "creat": 1427,
      "continued": 1428,
      "##room": 1429,
      "ll": 1430,
      "##asure": 1431,
      "pat": 1432,
      "pink": 1433,
      "count": 1434,
      "##set": 1435,
      "wants": 1436,
      "squirrel": 1437,
      "bar": 1438,
      "enough": 1439,
      "leaves": 1440,
      "##ask": 1441,
      "lion": 1442,
      "morning": 1443,
      "moment": 1444,
      "Why": 1445,
      "vis": 1446,
      "##ama": 1447,
      "OK": 1448,
      "finally": 1449,
      "getting": 1450,
      "stayed": 1451,
      "cookies": 1452,
      "break": 1453,
      "##ence": 1454,
      "##shed": 1455,
      "##ance": 1456,
      "poin": 1457,
      "beach": 1458,
      "fight": 1459,
      "few": 1460,
      "sometimes": 1461,
      "##ced": 1462,
      "##app": 1463,
      "scary": 1464,
      "##row": 1465,
      "##red": 1466,
      "turned": 1467,
      "##ries": 1468,
      "fall": 1469,
      "hungry": 1470,
      "grandma": 1471,
      "dinner": 1472,
      "mother": 1473,
      "##gon": 1474,
      "##apped": 1475,
      "wet": 1476,
      "amazing": 1477,
      "ju": 1478,
      "trying": 1479,
      "pi": 1480,
      "daddy": 1481,
      "perfect": 1482,
      "makes": 1483,
      "plan": 1484,
      "others": 1485,
      "climbed": 1486,
      "comp": 1487,
      "pictures": 1488,
      "castle": 1489,
      "mar": 1490,
      "talk": 1491,
      "##key": 1492,
      "##amp": 1493,
      "##oup": 1494,
      "met": 1495,
      "listened": 1496,
      "mus": 1497,
      "white": 1498,
      "balloon": 1499,
      "Jill": 1500,
      "##oring": 1501,
      "##man": 1502,
      "##oom": 1503,
      "smiles": 1504,
      "clot": 1505,
      "Come": 1506,
      "clothes": 1507,
      "alone": 1508,
      "tail": 1509,
      "pol": 1510,
      "spl": 1511,
      "##rot": 1512,
      "joy": 1513,
      "##ated": 1514,
      "##ee": 1515,
      "brought": 1516,
      "wasn": 1517,
      "deep": 1518,
      "everything": 1519,
      "##ister": 1520,
      "puppy": 1521,
      "##ctor": 1522,
      "strange": 1523,
      "spark": 1524,
      "sear": 1525,
      "##elc": 1526,
      "pet": 1527,
      "##der": 1528,
      "sit": 1529,
      "grow": 1530,
      "pulled": 1531,
      "##ling": 1532,
      "woods": 1533,
      "won": 1534,
      "start": 1535,
      "sail": 1536,
      "ride": 1537,
      "##sp": 1538,
      "fox": 1539,
      "##ott": 1540,
      "danger": 1541,
      "treat": 1542,
      "asks": 1543,
      "##eter": 1544,
      "roll": 1545,
      "Daddy": 1546,
      "visit": 1547,
      "pie": 1548,
      "##uffy": 1549,
      "leave": 1550,
      "##ucky": 1551,
      "Oh": 1552,
      "##os": 1553,
      "Soon": 1554,
      "##med": 1555,
      "music": 1556,
      "waited": 1557,
      "amazed": 1558,
      "Mama": 1559,
      "teddy": 1560,
      "ow": 1561,
      "towards": 1562,
      "##ang": 1563,
      "##me": 1564,
      "hide": 1565,
      "All": 1566,
      "##ever": 1567,
      "pre": 1568,
      "##cy": 1569,
      "##ower": 1570,
      "land": 1571,
      "##ead": 1572,
      "field": 1573,
      "flying": 1574,
      "##lep": 1575,
      "pen": 1576,
      "##zz": 1577,
      "owner": 1578,
      "silly": 1579,
      "shared": 1580,
      "##ained": 1581,
      "runs": 1582,
      "##ape": 1583,
      "living": 1584,
      "belie": 1585,
      "##ames": 1586,
      "##ugg": 1587,
      "qui": 1588,
      "job": 1589,
      "##ash": 1590,
      "##orm": 1591,
      "cloud": 1592,
      "side": 1593,
      "##igg": 1594,
      "promised": 1595,
      "##ol": 1596,
      "moral": 1597,
      "paint": 1598,
      "##cket": 1599,
      "lake": 1600,
      "##gs": 1601,
      "Mary": 1602,
      "sec": 1603,
      "thinks": 1604,
      "sister": 1605,
      "##ope": 1606,
      "##thy": 1607,
      "##ually": 1608,
      "quiet": 1609,
      "race": 1610,
      "must": 1611,
      "money": 1612,
      "##ises": 1613,
      "##cle": 1614,
      "party": 1615,
      "Okay": 1616,
      "##avy": 1617,
      "##sw": 1618,
      "worried": 1619,
      "answ": 1620,
      "pot": 1621,
      "Just": 1622,
      "Mr": 1623,
      "##eces": 1624,
      "slowly": 1625,
      "##unch": 1626,
      "colorful": 1627,
      "welc": 1628,
      "pieces": 1629,
      "grate": 1630,
      "bran": 1631,
      "dance": 1632,
      "faster": 1633,
      "broke": 1634,
      "bott": 1635,
      "Sure": 1636,
      "Fl": 1637,
      "##ix": 1638,
      "cup": 1639,
      "grateful": 1640,
      "train": 1641,
      "bigger": 1642,
      "such": 1643,
      "##ze": 1644,
      "St": 1645,
      "snack": 1646,
      "cho": 1647,
      "blank": 1648,
      "reach": 1649,
      "pro": 1650,
      "join": 1651,
      "monster": 1652,
      "win": 1653,
      "##less": 1654,
      "stu": 1655,
      "black": 1656,
      "scream": 1657,
      "river": 1658,
      "blanket": 1659,
      "##ased": 1660,
      "treasure": 1661,
      "princess": 1662,
      "##eak": 1663,
      "magical": 1664,
      "dangerous": 1665,
      "smart": 1666,
      "candy": 1667,
      "ear": 1668,
      "##uit": 1669,
      "bike": 1670,
      "across": 1671,
      "everywhere": 1672,
      "monkey": 1673,
      "helping": 1674,
      "nap": 1675,
      "dragon": 1676,
      "most": 1677,
      "Jimmy": 1678,
      "Mum": 1679,
      "farmer": 1680,
      "em": 1681,
      "pea": 1682,
      "##outh": 1683,
      "##cked": 1684,
      "##aw": 1685,
      "Grandma": 1686,
      "mouth": 1687,
      "disapp": 1688,
      "words": 1689,
      "tower": 1690,
      "##icy": 1691,
      "##eared": 1692,
      "stre": 1693,
      "##ming": 1694,
      "dolls": 1695,
      "threw": 1696,
      "pass": 1697,
      "stepped": 1698,
      "##leph": 1699,
      "heavy": 1700,
      "dirty": 1701,
      "twins": 1702,
      "same": 1703,
      "##de": 1704,
      "believe": 1705,
      "crying": 1706,
      "bite": 1707,
      "bee": 1708,
      "##ored": 1709,
      "bowl": 1710,
      "##â€™t": 1711,
      "doctor": 1712,
      "spr": 1713,
      "acc": 1714,
      "##ident": 1715,
      "Hi": 1716,
      "bath": 1717,
      "##ale": 1718,
      "heal": 1719,
      "sign": 1720,
      "wouldn": 1721,
      "##fort": 1722,
      "##ches": 1723,
      "##chool": 1724,
      "heart": 1725,
      "carrot": 1726,
      "hig": 1727,
      "closed": 1728,
      "##bble": 1729,
      "att": 1730,
      "stuck": 1731,
      "plant": 1732,
      "Please": 1733,
      "buck": 1734,
      "brown": 1735,
      "hoped": 1736,
      "cour": 1737,
      "school": 1738,
      "fruit": 1739,
      "min": 1740,
      "##ipped": 1741,
      "##iting": 1742,
      "suddenly": 1743,
      "bask": 1744,
      "chair": 1745,
      "basket": 1746,
      "mix": 1747,
      "Emma": 1748,
      "cray": 1749,
      "feels": 1750,
      "clapped": 1751,
      "coll": 1752,
      "town": 1753,
      "##cher": 1754,
      "eating": 1755,
      "butt": 1756,
      "course": 1757,
      "gentle": 1758,
      "fairy": 1759,
      "##pping": 1760,
      "pack": 1761,
      "##ventually": 1762,
      "stand": 1763,
      "drove": 1764,
      "welcome": 1765,
      "##ors": 1766,
      "##ire": 1767,
      "pushed": 1768,
      "##ier": 1769,
      "##issed": 1770,
      "##br": 1771,
      "without": 1772,
      "today": 1773,
      "pocket": 1774,
      "Inside": 1775,
      "##orrow": 1776,
      "hit": 1777,
      "higher": 1778,
      "swings": 1779,
      "â€œI": 1780,
      "neigh": 1781,
      "teacher": 1782,
      "ve": 1783,
      "free": 1784,
      "pers": 1785,
      "##ord": 1786,
      "##ourn": 1787,
      "journ": 1788,
      "games": 1789,
      "neighb": 1790,
      "ben": 1791,
      "cheered": 1792,
      "wings": 1793,
      "forget": 1794,
      "smo": 1795,
      "yard": 1796,
      "piece": 1797,
      "explained": 1798,
      "longer": 1799,
      "##ible": 1800,
      "accident": 1801,
      "dry": 1802,
      "##umb": 1803,
      "along": 1804,
      "sang": 1805,
      "neck": 1806,
      "##ment": 1807,
      "corn": 1808,
      "##itting": 1809,
      "Their": 1810,
      "inst": 1811,
      "noises": 1812,
      "happen": 1813,
      "late": 1814,
      "young": 1815,
      "How": 1816,
      "throw": 1817,
      "##ract": 1818,
      "hugs": 1819,
      "turns": 1820,
      "shoes": 1821,
      "##sc": 1822,
      "Re": 1823,
      "##lephant": 1824,
      "stories": 1825,
      "lon": 1826,
      "##vel": 1827,
      "miss": 1828,
      "adventures": 1829,
      "singing": 1830,
      "shap": 1831,
      "well": 1832,
      "apple": 1833,
      "trou": 1834,
      "jar": 1835,
      "key": 1836,
      "upset": 1837,
      "Tw": 1838,
      "gift": 1839,
      "lonely": 1840,
      "lunch": 1841,
      "secret": 1842,
      "mine": 1843,
      "##oun": 1844,
      "fence": 1845,
      "street": 1846,
      "elephant": 1847,
      "dist": 1848,
      "plac": 1849,
      "belong": 1850,
      "tom": 1851,
      "##bby": 1852,
      "Sammy": 1853,
      "wish": 1854,
      "exploring": 1855,
      "shook": 1856,
      "Go": 1857,
      "##ts": 1858,
      "moved": 1859,
      "##ountain": 1860,
      "purp": 1861,
      "##aughty": 1862,
      "Fluffy": 1863,
      "naughty": 1864,
      "wise": 1865,
      "owl": 1866,
      "nearby": 1867,
      "stars": 1868,
      "shop": 1869,
      "exp": 1870,
      "sea": 1871,
      "##fused": 1872,
      "##ocked": 1873,
      "bring": 1874,
      "##bow": 1875,
      "soup": 1876,
      "caught": 1877,
      "inv": 1878,
      "##yard": 1879,
      "##ward": 1880,
      "whe": 1881,
      "##ail": 1882,
      "ph": 1883,
      "seemed": 1884,
      "relie": 1885,
      "backyard": 1886,
      "##aughter": 1887,
      "dropped": 1888,
      "rocks": 1889,
      "Al": 1890,
      "bat": 1891,
      "Be": 1892,
      "swam": 1893,
      "je": 1894,
      "bucket": 1895,
      "des": 1896,
      "purple": 1897,
      "##ces": 1898,
      "resp": 1899,
      "mail": 1900,
      "drink": 1901,
      "farm": 1902,
      "taking": 1903,
      "orange": 1904,
      "##adow": 1905,
      "past": 1906,
      "##ions": 1907,
      "shapes": 1908,
      "though": 1909,
      "##sy": 1910,
      "cow": 1911,
      "bench": 1912,
      "##ung": 1913,
      "##ity": 1914,
      "af": 1915,
      "sounds": 1916,
      "woke": 1917,
      "hello": 1918,
      "My": 1919,
      "busy": 1920,
      "wondered": 1921,
      "nose": 1922,
      "Later": 1923,
      "fit": 1924,
      "##og": 1925,
      "mark": 1926,
      "sitting": 1927,
      "daughter": 1928,
      "nest": 1929,
      "tiny": 1930,
      "mad": 1931,
      "rainbow": 1932,
      "cou": 1933,
      "##col": 1934,
      "ob": 1935,
      "##ese": 1936,
      "kite": 1937,
      "##fish": 1938,
      "takes": 1939,
      "holding": 1940,
      "nothing": 1941,
      "Ell": 1942,
      "##cing": 1943,
      "pig": 1944,
      "##read": 1945,
      "##cks": 1946,
      "##ceful": 1947,
      "juice": 1948,
      "comes": 1949,
      "arms": 1950,
      "##thday": 1951,
      "de": 1952,
      "coat": 1953,
      "part": 1954,
      "With": 1955,
      "##ose": 1956,
      "##ining": 1957,
      "##raid": 1958,
      "relieved": 1959,
      "##gn": 1960,
      "cir": 1961,
      "branch": 1962,
      "afraid": 1963,
      "##idge": 1964,
      "round": 1965,
      "mil": 1966,
      "inter": 1967,
      "##que": 1968,
      "forever": 1969,
      "##vered": 1970,
      "te": 1971,
      "driver": 1972,
      "ca": 1973,
      "cute": 1974,
      "carry": 1975,
      "##ost": 1976,
      "sick": 1977,
      "boun": 1978,
      "##ek": 1979,
      "spoon": 1980,
      "Jenny": 1981,
      "Tweet": 1982,
      "Ch": 1983,
      "touched": 1984,
      "Good": 1985,
      "king": 1986,
      "promise": 1987,
      "##ours": 1988,
      "huge": 1989,
      "patient": 1990,
      "fing": 1991,
      "birthday": 1992,
      "##unt": 1993,
      "letter": 1994,
      "##ching": 1995,
      "exciting": 1996,
      "grab": 1997,
      "sunny": 1998,
      "cheese": 1999,
      "laughing": 2000,
      "bush": 2001,
      "days": 2002,
      "journey": 2003,
      "onto": 2004,
      "##ped": 2005,
      "Of": 2006,
      "band": 2007,
      "##board": 2008,
      "gigg": 2009,
      "creature": 2010,
      "bread": 2011,
      "disco": 2012,
      "ret": 2013,
      "shell": 2014,
      "life": 2015,
      "Emily": 2016,
      "power": 2017,
      "imag": 2018,
      "##shine": 2019,
      "craw": 2020,
      "hope": 2021,
      "##oph": 2022,
      "##ittens": 2023,
      "##gged": 2024,
      "kick": 2025,
      "swimming": 2026,
      "inc": 2027,
      "cozy": 2028,
      "##let": 2029,
      "mist": 2030,
      "whist": 2031,
      "sharp": 2032,
      "suc": 2033,
      "##ness": 2034,
      "milk": 2035,
      "bottle": 2036,
      "instead": 2037,
      "##gg": 2038,
      "retur": 2039,
      "##esting": 2040,
      "watching": 2041,
      "wra": 2042,
      "spin": 2043,
      "##alm": 2044,
      "##ten": 2045,
      "accidentally": 2046,
      "cave": 2047
    }
  }
}