{
  "version": "1.0",
  "truncation": null,
  "padding": null,
  "added_tokens": [
    {
      "id": 0,
      "content": "[PAD]",
      "single_word": false,
      "lstrip": false,
      "rstrip": false,
      "normalized": false,
      "special": true
    },
    {
      "id": 1,
      "content": "[UNK]",
      "single_word": false,
      "lstrip": false,
      "rstrip": false,
      "normalized": false,
      "special": true
    },
    {
      "id": 2,
      "content": "[CLS]",
      "single_word": false,
      "lstrip": false,
      "rstrip": false,
      "normalized": false,
      "special": true
    },
    {
      "id": 3,
      "content": "[SEP]",
      "single_word": false,
      "lstrip": false,
      "rstrip": false,
      "normalized": false,
      "special": true
    },
    {
      "id": 4,
      "content": "[MASK]",
      "single_word": false,
      "lstrip": false,
      "rstrip": false,
      "normalized": false,
      "special": true
    }
  ],
  "normalizer": {
    "type": "BertNormalizer",
    "clean_text": true,
    "handle_chinese_chars": true,
    "strip_accents": null,
    "lowercase": false
  },
  "pre_tokenizer": {
    "type": "BertPreTokenizer"
  },
  "post_processor": {
    "type": "TemplateProcessing",
    "single": [
      {
        "SpecialToken": {
          "id": "[CLS]",
          "type_id": 0
        }
      },
      {
        "Sequence": {
          "id": "A",
          "type_id": 0
        }
      },
      {
        "SpecialToken": {
          "id": "[SEP]",
          "type_id": 0
        }
      }
    ],
    "pair": [
      {
        "SpecialToken": {
          "id": "[CLS]",
          "type_id": 0
        }
      },
      {
        "Sequence": {
          "id": "A",
          "type_id": 0
        }
      },
      {
        "SpecialToken": {
          "id": "[SEP]",
          "type_id": 0
        }
      },
      {
        "Sequence": {
          "id": "B",
          "type_id": 1
        }
      },
      {
        "SpecialToken": {
          "id": "[SEP]",
          "type_id": 1
        }
      }
    ],
    "special_tokens": {
      "[CLS]": {
        "id": "[CLS]",
        "ids": [
          2
        ],
        "tokens": [
          "[CLS]"
        ]
      },
      "[SEP]": {
        "id": "[SEP]",
        "ids": [
          3
        ],
        "tokens": [
          "[SEP]"
        ]
      }
    }
  },
  "decoder": {
    "type": "WordPiece",
    "prefix": "##",
    "cleanup": true
  },
  "model": {
    "type": "WordPiece",
    "unk_token": "[UNK]",
    "continuing_subword_prefix": "##",
    "max_input_chars_per_word": 100,
    "vocab": {
      "[PAD]": 0,
      "[UNK]": 1,
      "[CLS]": 2,
      "[SEP]": 3,
      "[MASK]": 4,
      "!": 5,
      "\"": 6,
      "#": 7,
      "$": 8,
      "%": 9,
      "&": 10,
      "'": 11,
      "(": 12,
      ")": 13,
      "*": 14,
      "+": 15,
      ",": 16,
      "-": 17,
      ".": 18,
      "/": 19,
      "0": 20,
      "1": 21,
      "2": 22,
      "3": 23,
      "4": 24,
      "5": 25,
      "6": 26,
      "7": 27,
      "8": 28,
      "9": 29,
      ":": 30,
      ";": 31,
      "<": 32,
      "=": 33,
      ">": 34,
      "?": 35,
      "A": 36,
      "B": 37,
      "C": 38,
      "D": 39,
      "E": 40,
      "F": 41,
      "G": 42,
      "H": 43,
      "I": 44,
      "J": 45,
      "K": 46,
      "L": 47,
      "M": 48,
      "N": 49,
      "O": 50,
      "P": 51,
      "Q": 52,
      "R": 53,
      "S": 54,
      "T": 55,
      "U": 56,
      "V": 57,
      "W": 58,
      "X": 59,
      "Y": 60,
      "Z": 61,
      "[": 62,
      "\\": 63,
      "]": 64,
      "_": 65,
      "`": 66,
      "a": 67,
      "b": 68,
      "c": 69,
      "d": 70,
      "e": 71,
      "f": 72,
      "g": 73,
      "h": 74,
      "i": 75,
      "j": 76,
      "k": 77,
      "l": 78,
      "m": 79,
      "n": 80,
      "o": 81,
      "p": 82,
      "q": 83,
      "r": 84,
      "s": 85,
      "t": 86,
      "u": 87,
      "v": 88,
      "w": 89,
      "x": 90,
      "y": 91,
      "z": 92,
      "{": 93,
      "}": 94,
      "~": 95,
      "¡": 96,
      "¢": 97,
      "£": 98,
      "¥": 99,
      "¦": 100,
      "§": 101,
      "¨": 102,
      "©": 103,
      "ª": 104,
      "«": 105,
      "¬": 106,
      "¯": 107,
      "°": 108,
      "±": 109,
      "³": 110,
      "´": 111,
      "·": 112,
      "º": 113,
      "»": 114,
      "¼": 115,
      "¾": 116,
      "¿": 117,
      "Â": 118,
      "Ã": 119,
      "Ä": 120,
      "Å": 121,
      "â": 122,
      "ã": 123,
      "ä": 124,
      "å": 125,
      "æ": 126,
      "ç": 127,
      "è": 128,
      "é": 129,
      "ï": 130,
      "ð": 131,
      "Œ": 132,
      "œ": 133,
      "Š": 134,
      "Ÿ": 135,
      "Ž": 136,
      "ž": 137,
      "ˆ": 138,
      "˜": 139,
      "–": 140,
      "’": 141,
      "‚": 142,
      "“": 143,
      "”": 144,
      "„": 145,
      "†": 146,
      "‡": 147,
      "•": 148,
      "…": 149,
      "‰": 150,
      "‹": 151,
      "›": 152,
      "€": 153,
      "™": 154,
      "##€": 155,
      "##œ": 156,
      "##c": 157,
      "##o": 158,
      "##k": 159,
      "##â": 160,
      "##u": 161,
      "##b": 162,
      "##s": 163,
      "##t": 164,
      "##a": 165,
      "##n": 166,
      "##e": 167,
      "##i": 168,
      "##l": 169,
      "##d": 170,
      "##r": 171,
      "##w": 172,
      "##y": 173,
      "##C": 174,
      "##p": 175,
      "##h": 176,
      "##m": 177,
      "##Å": 178,
      "##D": 179,
      "##f": 180,
      "##x": 181,
      "##™": 182,
      "##˜": 183,
      "##g": 184,
      "##A": 185,
      "##v": 186,
      "##z": 187,
      "##¦": 188,
      "##Ä": 189,
      "##F": 190,
      "##E": 191,
      "##L": 192,
      "##P": 193,
      "##S": 194,
      "##Y": 195,
      "##j": 196,
      "##G": 197,
      "##B": 198,
      "##H": 199,
      "##7": 200,
      "##M": 201,
      "##J": 202,
      "##K": 203,
      "##T": 204,
      "##O": 205,
      "##N": 206,
      "##U": 207,
      "##W": 208,
      "##R": 209,
      "##q": 210,
      "##I": 211,
      "##Ã": 212,
      "##©": 213,
      "##0": 214,
      "##Š": 215,
      "##æ": 216,
      "##å": 217,
      "##¾": 218,
      "##ˆ": 219,
      "##è": 220,
      "##¥": 221,
      "##ï": 222,
      "##¼": 223,
      "##Œ": 224,
      "##ä": 225,
      "##X": 226,
      "##Z": 227,
      "##9": 228,
      "##5": 229,
      "##8": 230,
      "##V": 231,
      "##4": 232,
      "##¨": 233,
      "##¢": 234,
      "##¯": 235,
      "##Â": 236,
      "##´": 237,
      "##±": 238,
      "##³": 239,
      "##ã": 240,
      "##3": 241,
      "##2": 242,
      "##1": 243,
      "##Ÿ": 244,
      "##Q": 245,
      "##£": 246,
      "##¬": 247,
      "##6": 248,
      "##ð": 249,
      "##ž": 250,
      "##ç": 251,
      "##Ž": 252,
      "##ª": 253,
      "##é": 254,
      "##°": 255,
      "##º": 256,
      "##he": 257,
      "##nd": 258,
      "the": 259,
      "##ed": 260,
      "and": 261,
      "##er": 262,
      "to": 263,
      "wa": 264,
      "##ou": 265,
      "##in": 266,
      "##re": 267,
      "was": 268,
      "##om": 269,
      "The": 270,
      "##ay": 271,
      "##ar": 272,
      "##ing": 273,
      "##il": 274,
      "##it": 275,
      "##id": 276,
      "##at": 277,
      "sa": 278,
      "##en": 279,
      "ha": 280,
      "##is": 281,
      "##an": 282,
      "##or": 283,
      "##im": 284,
      "he": 285,
      "##on": 286,
      "it": 287,
      "th": 288,
      "##ut": 289,
      "##ll": 290,
      "##le": 291,
      "her": 292,
      "##et": 293,
      "He": 294,
      "##ot": 295,
      "She": 296,
      "##ir": 297,
      "##es": 298,
      "They": 299,
      "in": 300,
      "##ow": 301,
      "##ck": 302,
      "##ld": 303,
      "##oo": 304,
      "said": 305,
      "##ily": 306,
      "be": 307,
      "##ig": 308,
      "##am": 309,
      "st": 310,
      "##ce": 311,
      "she": 312,
      "##pp": 313,
      "##ith": 314,
      "##ve": 315,
      "with": 316,
      "Lily": 317,
      "On": 318,
      "on": 319,
      "you": 320,
      "of": 321,
      "##ked": 322,
      "##ri": 323,
      "so": 324,
      "his": 325,
      "pl": 326,
      "##ery": 327,
      "##ad": 328,
      "##ke": 329,
      "##nt": 330,
      "day": 331,
      "that": 332,
      "up": 333,
      "play": 334,
      "had": 335,
      "they": 336,
      "##el": 337,
      "mom": 338,
      "for": 339,
      "##st": 340,
      "##un": 341,
      "##ould": 342,
      "##my": 343,
      "##ent": 344,
      "li": 345,
      "##ch": 346,
      "happ": 347,
      "want": 348,
      "##itt": 349,
      "sh": 350,
      "##her": 351,
      "It": 352,
      "do": 353,
      "##ly": 354,
      "not": 355,
      "##ome": 356,
      "very": 357,
      "##se": 358,
      "##ound": 359,
      "##end": 360,
      "##all": 361,
      "wh": 362,
      "##ime": 363,
      "##ittle": 364,
      "time": 365,
      "little": 366,
      "##al": 367,
      "there": 368,
      "ne": 369,
      "##ht": 370,
      "happy": 371,
      "sm": 372,
      "big": 373,
      "is": 374,
      "but": 375,
      "##ra": 376,
      "an": 377,
      "saw": 378,
      "##riend": 379,
      "friend": 380,
      "as": 381,
      "##ry": 382,
      "##ack": 383,
      "One": 384,
      "##ake": 385,
      "re": 386,
      "##ere": 387,
      "Tim": 388,
      "##ug": 389,
      "##ter": 390,
      "loo": 391,
      "##ved": 392,
      "were": 393,
      "Once": 394,
      "lo": 395,
      "##ore": 396,
      "##ec": 397,
      "him": 398,
      "too": 399,
      "go": 400,
      "##ur": 401,
      "bo": 402,
      "##ide": 403,
      "se": 404,
      "##irl": 405,
      "##ver": 406,
      "are": 407,
      "Tom": 408,
      "wanted": 409,
      "##ard": 410,
      "##ill": 411,
      "girl": 412,
      "upon": 413,
      "out": 414,
      "them": 415,
      "at": 416,
      "Ben": 417,
      "their": 418,
      "##fu": 419,
      "sp": 420,
      "##way": 421,
      "##ind": 422,
      "smil": 423,
      "did": 424,
      "could": 425,
      "##hen": 426,
      "have": 427,
      "##ted": 428,
      "##ain": 429,
      "ex": 430,
      "##hed": 431,
      "But": 432,
      "##rom": 433,
      "went": 434,
      "ar": 435,
      "##lp": 436,
      "can": 437,
      "##ic": 438,
      "##ful": 439,
      "##ood": 440,
      "##hing": 441,
      "friends": 442,
      "nam": 443,
      "##ight": 444,
      "all": 445,
      "help": 446,
      "kn": 447,
      "##um": 448,
      "##ark": 449,
      "##one": 450,
      "back": 451,
      "say": 452,
      "cl": 453,
      "fun": 454,
      "You": 455,
      "no": 456,
      "##are": 457,
      "##ear": 458,
      "##very": 459,
      "Timmy": 460,
      "##op": 461,
      "star": 462,
      "smiled": 463,
      "sc": 464,
      "named": 465,
      "al": 466,
      "##oug": 467,
      "loved": 468,
      "##side": 469,
      "man": 470,
      "##elt": 471,
      "asked": 472,
      "##ick": 473,
      "toy": 474,
      "Mom": 475,
      "like": 476,
      "felt": 477,
      "looked": 478,
      "see": 479,
      "some": 480,
      "around": 481,
      "me": 482,
      "##ep": 483,
      "##ame": 484,
      "##omet": 485,
      "fe": 486,
      "ro": 487,
      "br": 488,
      "##ure": 489,
      "bir": 490,
      "##get": 491,
      "boy": 492,
      "would": 493,
      "##ong": 494,
      "##ss": 495,
      "##ea": 496,
      "somet": 497,
      "bird": 498,
      "fa": 499,
      "##dd": 500,
      "##est": 501,
      "##ings": 502,
      "ag": 503,
      "wor": 504,
      "what": 505,
      "##ade": 506,
      "make": 507,
      "##king": 508,
      "##ie": 509,
      "car": 510,
      "##own": 511,
      "tre": 512,
      "ran": 513,
      "##gether": 514,
      "away": 515,
      "##ag": 516,
      "we": 517,
      "Th": 518,
      "says": 519,
      "started": 520,
      "##ice": 521,
      "##oud": 522,
      "made": 523,
      "something": 524,
      "together": 525,
      "##ther": 526,
      "##ited": 527,
      "co": 528,
      "park": 529,
      "sad": 530,
      "other": 531,
      "new": 532,
      "exc": 533,
      "put": 534,
      "from": 535,
      "##out": 536,
      "pr": 537,
      "scar": 538,
      "la": 539,
      "hug": 540,
      "##ble": 541,
      "mu": 542,
      "##ook": 543,
      "again": 544,
      "home": 545,
      "when": 546,
      "good": 547,
      "who": 548,
      "ch": 549,
      "##ried": 550,
      "found": 551,
      "fl": 552,
      "then": 553,
      "dec": 554,
      "##pped": 555,
      "wal": 556,
      "get": 557,
      "playing": 558,
      "##ought": 559,
      "##ach": 560,
      "##pl": 561,
      "##ally": 562,
      "Su": 563,
      "sw": 564,
      "##ous": 565,
      "##nn": 566,
      "â€": 567,
      "things": 568,
      "excited": 569,
      "liked": 570,
      "got": 571,
      "##uck": 572,
      "Sam": 573,
      "##ro": 574,
      "##ided": 575,
      "##as": 576,
      "##ell": 577,
      "decided": 578,
      "bl": 579,
      "came": 580,
      "every": 581,
      "Ann": 582,
      "##ara": 583,
      "your": 584,
      "##ax": 585,
      "scared": 586,
      "one": 587,
      "##ust": 588,
      "dog": 589,
      "down": 590,
      "##ny": 591,
      "##ouse": 592,
      "find": 593,
      "care": 594,
      "bec": 595,
      "than": 596,
      "Sara": 597,
      "feel": 598,
      "We": 599,
      "Anna": 600,
      "dad": 601,
      "ab": 602,
      "my": 603,
      "##ap": 604,
      "Max": 605,
      "look": 606,
      "will": 607,
      "##ist": 608,
      "gr": 609,
      "gra": 610,
      "##nder": 611,
      "##ways": 612,
      "##ess": 613,
      "didn": 614,
      "po": 615,
      "always": 616,
      "about": 617,
      "took": 618,
      "##bb": 619,
      "##ers": 620,
      "lot": 621,
      "##ned": 622,
      "mommy": 623,
      "kne": 624,
      "toys": 625,
      "So": 626,
      "##ant": 627,
      "bu": 628,
      "##ise": 629,
      "old": 630,
      "##ite": 631,
      "outside": 632,
      "tree": 633,
      "##ave": 634,
      "thought": 635,
      "ball": 636,
      "lear": 637,
      "more": 638,
      "##eci": 639,
      "##ened": 640,
      "ta": 641,
      "##ched": 642,
      "ho": 643,
      "##ret": 644,
      "When": 645,
      "##ged": 646,
      "pu": 647,
      "Jo": 648,
      "know": 649,
      "Wh": 650,
      "##to": 651,
      "laug": 652,
      "take": 653,
      "speci": 654,
      "sor": 655,
      "special": 656,
      "##dden": 657,
      "cat": 658,
      "knew": 659,
      "##ty": 660,
      "##ive": 661,
      "##ff": 662,
      "Her": 663,
      "##ia": 664,
      "any": 665,
      "##ddenly": 666,
      "##fter": 667,
      "how": 668,
      "##au": 669,
      "##ma": 670,
      "show": 671,
      "##ue": 672,
      "##ink": 673,
      "Jack": 674,
      "sorry": 675,
      "tw": 676,
      "much": 677,
      "##ish": 678,
      "Every": 679,
      "run": 680,
      "tr": 681,
      "hand": 682,
      "sl": 683,
      "house": 684,
      "##ven": 685,
      "##and": 686,
      "op": 687,
      "or": 688,
      "sk": 689,
      "mo": 690,
      "clo": 691,
      "sun": 692,
      "tried": 693,
      "into": 694,
      "##ate": 695,
      "inside": 696,
      "told": 697,
      "water": 698,
      "this": 699,
      "en": 700,
      "if": 701,
      "proud": 702,
      "##ump": 703,
      "couldn": 704,
      "over": 705,
      "##dy": 706,
      "gave": 707,
      "heard": 708,
      "##ank": 709,
      "never": 710,
      "each": 711,
      "room": 712,
      "##by": 713,
      "expl": 714,
      "eat": 715,
      "Suddenly": 716,
      "##other": 717,
      "##ause": 718,
      "pick": 719,
      "##ion": 720,
      "pret": 721,
      "played": 722,
      "Then": 723,
      "##ge": 724,
      "Mia": 725,
      "##etter": 726,
      "just": 727,
      "hugged": 728,
      "gre": 729,
      "Let": 730,
      "qu": 731,
      "##here": 732,
      "off": 733,
      "com": 734,
      "wat": 735,
      "##oth": 736,
      "box": 737,
      "From": 738,
      "##our": 739,
      "And": 740,
      "nice": 741,
      "str": 742,
      "because": 743,
      "ra": 744,
      "His": 745,
      "need": 746,
      "pe": 747,
      "##ile": 748,
      "##fe": 749,
      "many": 750,
      "##ft": 751,
      "fo": 752,
      "##eep": 753,
      "jo": 754,
      "##uc": 755,
      "small": 756,
      "bear": 757,
      "##sed": 758,
      "##iz": 759,
      "##ving": 760,
      "long": 761,
      "##kes": 762,
      "##em": 763,
      "##gry": 764,
      "##imal": 765,
      "##ine": 766,
      "sn": 767,
      "animal": 768,
      "##ough": 769,
      "That": 770,
      "try": 771,
      "unt": 772,
      "##ort": 773,
      "##ild": 774,
      "##sel": 775,
      "##urt": 776,
      "until": 777,
      "kind": 778,
      "learned": 779,
      "im": 780,
      "bea": 781,
      "love": 782,
      "better": 783,
      "flow": 784,
      "call": 785,
      "don": 786,
      "end": 787,
      "ad": 788,
      "best": 789,
      "##vent": 790,
      "##ning": 791,
      "##urp": 792,
      "##ady": 793,
      "##ream": 794,
      "cle": 795,
      "ma": 796,
      "##ves": 797,
      "â€œ": 798,
      "##arden": 799,
      "garden": 800,
      "fast": 801,
      "cu": 802,
      "careful": 803,
      "##lly": 804,
      "beaut": 805,
      "Mommy": 806,
      "##ber": 807,
      "fi": 808,
      "even": 809,
      "by": 810,
      "thanked": 811,
      "##ies": 812,
      "bra": 813,
      "che": 814,
      "laughed": 815,
      "What": 816,
      "##sh": 817,
      "sky": 818,
      "jump": 819,
      "Yes": 820,
      "gl": 821,
      "##self": 822,
      "loud": 823,
      "##iny": 824,
      "way": 825,
      "beauti": 826,
      "come": 827,
      "##lew": 828,
      "wo": 829,
      "list": 830,
      "beautiful": 831,
      "lots": 832,
      "hard": 833,
      "##ase": 834,
      "still": 835,
      "Can": 836,
      "animals": 837,
      "fam": 838,
      "Joh": 839,
      "hurt": 840,
      "under": 841,
      "let": 842,
      "stay": 843,
      "##wn": 844,
      "both": 845,
      "##hes": 846,
      "safe": 847,
      "##ool": 848,
      "##ct": 849,
      "##be": 850,
      "col": 851,
      "##ree": 852,
      "lea": 853,
      "di": 854,
      "two": 855,
      "bad": 856,
      "##ace": 857,
      "book": 858,
      "##ane": 859,
      "imp": 860,
      "rem": 861,
      "##ople": 862,
      "As": 863,
      "lived": 864,
      "##kay": 865,
      "Luc": 866,
      "##ock": 867,
      "Lucy": 868,
      "walked": 869,
      "su": 870,
      "##urpr": 871,
      "should": 872,
      "its": 873,
      "##ob": 874,
      "brave": 875,
      "##ished": 876,
      "surpr": 877,
      "angry": 878,
      "family": 879,
      "##ept": 880,
      "##ress": 881,
      "##igh": 882,
      "flew": 883,
      "people": 884,
      "Thank": 885,
      "called": 886,
      "red": 887,
      "After": 888,
      "stor": 889,
      "##ip": 890,
      "##eet": 891,
      "soon": 892,
      "fin": 893,
      "##ast": 894,
      "##ect": 895,
      "John": 896,
      "kept": 897,
      "##led": 898,
      "Dad": 899,
      "fore": 900,
      "dan": 901,
      "##fore": 902,
      "##art": 903,
      "share": 904,
      "fly": 905,
      "##xt": 906,
      "##ised": 907,
      "le": 908,
      "No": 909,
      "##dded": 910,
      "door": 911,
      "pic": 912,
      "going": 913,
      "tur": 914,
      "keep": 915,
      "pretty": 916,
      "##â€": 917,
      "clean": 918,
      "now": 919,
      "rock": 920,
      "dra": 921,
      "advent": 922,
      "##ummy": 923,
      "opened": 924,
      "noise": 925,
      "##age": 926,
      "shiny": 927,
      "doll": 928,
      "id": 929,
      "con": 930,
      "cry": 931,
      "idea": 932,
      "wind": 933,
      "before": 934,
      "real": 935,
      "##illy": 936,
      "sto": 937,
      "Sp": 938,
      "##so": 939,
      "explore": 940,
      "##les": 941,
      "ground": 942,
      "far": 943,
      "also": 944,
      "##ied": 945,
      "ey": 946,
      "##â€™": 947,
      "fr": 948,
      "color": 949,
      "nodded": 950,
      "war": 951,
      "Bob": 952,
      "un": 953,
      "feeling": 954,
      "##imb": 955,
      "picked": 956,
      "##oy": 957,
      "next": 958,
      "walking": 959,
      "##thing": 960,
      "##ture": 961,
      "climb": 962,
      "##ting": 963,
      "has": 964,
      "thr": 965,
      "while": 966,
      "bed": 967,
      "smile": 968,
      "adventure": 969,
      "##th": 970,
      "##aybe": 971,
      "##ser": 972,
      "##iced": 973,
      "##ger": 974,
      "looking": 975,
      "##qu": 976,
      "##ious": 977,
      "being": 978,
      "diff": 979,
      "wr": 980,
      "##joy": 981,
      "food": 982,
      "give": 983,
      "picture": 984,
      "think": 985,
      "Spot": 986,
      "del": 987,
      "tow": 988,
      "wait": 989,
      "eyes": 990,
      "truck": 991,
      "##ught": 992,
      "tra": 993,
      "repl": 994,
      "bro": 995,
      "listen": 996,
      "stopped": 997,
      "after": 998,
      "gi": 999,
      "Do": 1000,
      "walk": 1001,
      "vo": 1002,
      "year": 1003,
      "bre": 1004,
      "##ember": 1005,
      "great": 1006,
      "wonder": 1007,
      "hands": 1008,
      "Sue": 1009,
      "import": 1010,
      "ever": 1011,
      "head": 1012,
      "enjoy": 1013,
      "noticed": 1014,
      "flowers": 1015,
      "forest": 1016,
      "##bbit": 1017,
      "blue": 1018,
      "near": 1019,
      "app": 1020,
      "dis": 1021,
      "own": 1022,
      "##ized": 1023,
      "ac": 1024,
      "##irst": 1025,
      "quick": 1026,
      "important": 1027,
      "remember": 1028,
      "##able": 1029,
      "fish": 1030,
      "sound": 1031,
      "##llow": 1032,
      "us": 1033,
      "##maz": 1034,
      "replied": 1035,
      "slide": 1036,
      "amaz": 1037,
      "showed": 1038,
      "##lease": 1039,
      "work": 1040,
      "rain": 1041,
      "watch": 1042,
      "rabbit": 1043,
      "okay": 1044,
      "tal": 1045,
      "##gan": 1046,
      "Sarah": 1047,
      "##bbed": 1048,
      "differ": 1049,
      "ru": 1050,
      "ask": 1051,
      "mean": 1052,
      "right": 1053,
      "tou": 1054,
      "Look": 1055,
      "##day": 1056,
      "##bye": 1057,
      "bright": 1058,
      "watched": 1059,
      "follow": 1060,
      "everyone": 1061,
      "strong": 1062,
      "stick": 1063,
      "mor": 1064,
      "use": 1065,
      "This": 1066,
      "been": 1067,
      "##ered": 1068,
      "voice": 1069,
      "quickly": 1070,
      "our": 1071,
      "where": 1072,
      "##ath": 1073,
      "Jane": 1074,
      "yell": 1075,
      "different": 1076,
      "child": 1077,
      "##ng": 1078,
      "curi": 1079,
      "sure": 1080,
      "##ey": 1081,
      "boat": 1082,
      "became": 1083,
      "Maybe": 1084,
      "goodbye": 1085,
      "place": 1086,
      "face": 1087,
      "##ange": 1088,
      "hop": 1089,
      "am": 1090,
      "high": 1091,
      "closer": 1092,
      "##aught": 1093,
      "##unny": 1094,
      "store": 1095,
      "##oon": 1096,
      "warm": 1097,
      "does": 1098,
      "dress": 1099,
      "tea": 1100,
      "##llo": 1101,
      "mag": 1102,
      "curious": 1103,
      "bel": 1104,
      "cook": 1105,
      "forg": 1106,
      "##ndma": 1107,
      "##ila": 1108,
      "tell": 1109,
      "fav": 1110,
      "##ass": 1111,
      "three": 1112,
      "##ount": 1113,
      "ba": 1114,
      "##co": 1115,
      "Lila": 1116,
      "night": 1117,
      "##leep": 1118,
      "shar": 1119,
      "open": 1120,
      "##more": 1121,
      "anymore": 1122,
      "block": 1123,
      "here": 1124,
      "cake": 1125,
      "##itc": 1126,
      "pull": 1127,
      "##iss": 1128,
      "##ull": 1129,
      "first": 1130,
      "##ached": 1131,
      "##ired": 1132,
      "##imes": 1133,
      "butter": 1134,
      "sweet": 1135,
      "In": 1136,
      "grabbed": 1137,
      "##orn": 1138,
      "kid": 1139,
      "pain": 1140,
      "mon": 1141,
      "##isy": 1142,
      "only": 1143,
      "Everyone": 1144,
      "fell": 1145,
      "cont": 1146,
      "jumped": 1147,
      "birds": 1148,
      "bit": 1149,
      "##itchen": 1150,
      "kitchen": 1151,
      "sand": 1152,
      "glad": 1153,
      "helped": 1154,
      "per": 1155,
      "squ": 1156,
      "sees": 1157,
      "fire": 1158,
      "Don": 1159,
      "##outed": 1160,
      "stop": 1161,
      "flo": 1162,
      "Joe": 1163,
      "hear": 1164,
      "cra": 1165,
      "Tommy": 1166,
      "bunny": 1167,
      "happened": 1168,
      "grass": 1169,
      "sing": 1170,
      "story": 1171,
      "shouted": 1172,
      "tri": 1173,
      "##nts": 1174,
      "dr": 1175,
      "##air": 1176,
      "##ppy": 1177,
      "reached": 1178,
      "beh": 1179,
      "realized": 1180,
      "brother": 1181,
      "yummy": 1182,
      "cr": 1183,
      "lady": 1184,
      "mum": 1185,
      "having": 1186,
      "prin": 1187,
      "##ins": 1188,
      "favor": 1189,
      "mess": 1190,
      "draw": 1191,
      "through": 1192,
      "learn": 1193,
      "favorite": 1194,
      "hat": 1195,
      "ate": 1196,
      "cre": 1197,
      "soft": 1198,
      "less": 1199,
      "game": 1200,
      "##ary": 1201,
      "underst": 1202,
      "##zy": 1203,
      "thing": 1204,
      "pare": 1205,
      "really": 1206,
      "##ather": 1207,
      "ready": 1208,
      "began": 1209,
      "pretend": 1210,
      "##where": 1211,
      "world": 1212,
      "##ken": 1213,
      "looks": 1214,
      "pap": 1215,
      "himself": 1216,
      "magic": 1217,
      "##fully": 1218,
      "done": 1219,
      "Now": 1220,
      "making": 1221,
      "cut": 1222,
      "coming": 1223,
      "butterf": 1224,
      "rest": 1225,
      "waved": 1226,
      "pond": 1227,
      "kids": 1228,
      "why": 1229,
      "##ater": 1230,
      "duck": 1231,
      "prom": 1232,
      "fro": 1233,
      "tired": 1234,
      "mouse": 1235,
      "fix": 1236,
      "worry": 1237,
      "cars": 1238,
      "flower": 1239,
      "##olly": 1240,
      "delic": 1241,
      "fill": 1242,
      "Fin": 1243,
      "name": 1244,
      "Sally": 1245,
      "##eddy": 1246,
      "##aisy": 1247,
      "funny": 1248,
      "touch": 1249,
      "thank": 1250,
      "seen": 1251,
      "catch": 1252,
      "used": 1253,
      "hair": 1254,
      "##bo": 1255,
      "tast": 1256,
      "top": 1257,
      "##ak": 1258,
      "##oney": 1259,
      "##ient": 1260,
      "##rel": 1261,
      "Wow": 1262,
      "parents": 1263,
      "another": 1264,
      "hopped": 1265,
      "cried": 1266,
      "hold": 1267,
      "There": 1268,
      "doing": 1269,
      "blocks": 1270,
      "cool": 1271,
      "farm": 1272,
      "##iver": 1273,
      "##ac": 1274,
      "##ster": 1275,
      "surprise": 1276,
      "turn": 1277,
      "light": 1278,
      "years": 1279,
      "green": 1280,
      "lesson": 1281,
      "read": 1282,
      "##ation": 1283,
      "wood": 1284,
      "floor": 1285,
      "dri": 1286,
      "din": 1287,
      "##ards": 1288,
      "trees": 1289,
      "full": 1290,
      "window": 1291,
      "running": 1292,
      "wear": 1293,
      "dark": 1294,
      "smell": 1295,
      "worked": 1296,
      "spot": 1297,
      "dro": 1298,
      "paper": 1299,
      "behind": 1300,
      "likes": 1301,
      "##ons": 1302,
      "wished": 1303,
      "par": 1304,
      "bag": 1305,
      "##ued": 1306,
      "swim": 1307,
      "bow": 1308,
      "yellow": 1309,
      "##ely": 1310,
      "happily": 1311,
      "sho": 1312,
      "sat": 1313,
      "##andy": 1314,
      "##ul": 1315,
      "##ren": 1316,
      "Em": 1317,
      "Daisy": 1318,
      "surprised": 1319,
      "sleep": 1320,
      "Jim": 1321,
      "frog": 1322,
      "Benny": 1323,
      "set": 1324,
      "carefully": 1325,
      "butterfly": 1326,
      "##us": 1327,
      "##â€™s": 1328,
      "cold": 1329,
      "swing": 1330,
      "ice": 1331,
      "remembered": 1332,
      "slow": 1333,
      "held": 1334,
      "lost": 1335,
      "##ike": 1336,
      "##uff": 1337,
      "To": 1338,
      "laugh": 1339,
      "hole": 1340,
      "At": 1341,
      "##rew": 1342,
      "buy": 1343,
      "perf": 1344,
      "needed": 1345,
      "ste": 1346,
      "Gra": 1347,
      "left": 1348,
      "Billy": 1349,
      "##reed": 1350,
      "move": 1351,
      "anything": 1352,
      "tall": 1353,
      "dream": 1354,
      "##cess": 1355,
      "enjoyed": 1356,
      "Hello": 1357,
      "fair": 1358,
      "wrong": 1359,
      "air": 1360,
      "arri": 1361,
      "Finally": 1362,
      "followed": 1363,
      "##ross": 1364,
      "el": 1365,
      "books": 1366,
      "children": 1367,
      "hun": 1368,
      "delicious": 1369,
      "bus": 1370,
      "table": 1371,
      "please": 1372,
      "Molly": 1373,
      "finished": 1374,
      "snow": 1375,
      "friendly": 1376,
      "contin": 1377,
      "hot": 1378,
      "dir": 1379,
      "herself": 1380,
      "cream": 1381,
      "Amy": 1382,
      "##ds": 1383,
      "##ens": 1384,
      "##lf": 1385,
      "hill": 1386,
      "understand": 1387,
      "close": 1388,
      "##ined": 1389,
      "hid": 1390,
      "arm": 1391,
      "baby": 1392,
      "wonderful": 1393,
      "else": 1394,
      "arrived": 1395,
      "tight": 1396,
      "cast": 1397,
      "gent": 1398,
      "forgot": 1399,
      "might": 1400,
      "res": 1401,
      "yes": 1402,
      "##ield": 1403,
      "Jen": 1404,
      "bug": 1405,
      "build": 1406,
      "colors": 1407,
      "rel": 1408,
      "broken": 1409,
      "sig": 1410,
      "##ner": 1411,
      "able": 1412,
      "##av": 1413,
      "gone": 1414,
      "squir": 1415,
      "filled": 1416,
      "song": 1417,
      "wall": 1418,
      "##ich": 1419,
      "agreed": 1420,
      "fur": 1421,
      "someone": 1422,
      "mat": 1423,
      "gu": 1424,
      "continued": 1425,
      "##room": 1426,
      "pat": 1427,
      "##asure": 1428,
      "ll": 1429,
      "creat": 1430,
      "##set": 1431,
      "squirrel": 1432,
      "count": 1433,
      "wants": 1434,
      "leaves": 1435,
      "##ask": 1436,
      "pink": 1437,
      "lion": 1438,
      "enough": 1439,
      "bar": 1440,
      "##ama": 1441,
      "morning": 1442,
      "moment": 1443,
      "Why": 1444,
      "vis": 1445,
      "OK": 1446,
      "getting": 1447,
      "finally": 1448,
      "cookies": 1449,
      "stayed": 1450,
      "break": 1451,
      "##shed": 1452,
      "beach": 1453,
      "##ence": 1454,
      "##app": 1455,
      "poin": 1456,
      "few": 1457,
      "##ance": 1458,
      "sometimes": 1459,
      "scary": 1460,
      "##ced": 1461,
      "fight": 1462,
      "##row": 1463,
      "grandma": 1464,
      "hungry": 1465,
      "##ries": 1466,
      "##red": 1467,
      "turned": 1468,
      "fall": 1469,
      "dinner": 1470,
      "ju": 1471,
      "mother": 1472,
      "##gon": 1473,
      "amazing": 1474,
      "wet": 1475,
      "perfect": 1476,
      "##apped": 1477,
      "daddy": 1478,
      "trying": 1479,
      "makes": 1480,
      "others": 1481,
      "plan": 1482,
      "climbed": 1483,
      "##oup": 1484,
      "pi": 1485,
      "castle": 1486,
      "##amp": 1487,
      "pictures": 1488,
      "comp": 1489,
      "##key": 1490,
      "mar": 1491,
      "##oom": 1492,
      "met": 1493,
      "talk": 1494,
      "white": 1495,
      "mus": 1496,
      "##man": 1497,
      "listened": 1498,
      "clot": 1499,
      "##oring": 1500,
      "Jill": 1501,
      "smiles": 1502,
      "balloon": 1503,
      "alone": 1504,
      "clothes": 1505,
      "Come": 1506,
      "pol": 1507,
      "tail": 1508,
      "##ated": 1509,
      "puppy": 1510,
      "spl": 1511,
      "joy": 1512,
      "##rot": 1513,
      "brought": 1514,
      "wasn": 1515,
      "everything": 1516,
      "pet": 1517,
      "sear": 1518,
      "deep": 1519,
      "strange": 1520,
      "##elc": 1521,
      "##ee": 1522,
      "##ister": 1523,
      "##ctor": 1524,
      "spark": 1525,
      "grow": 1526,
      "##der": 1527,
      "sit": 1528,
      "woods": 1529,
      "pulled": 1530,
      "##ling": 1531,
      "start": 1532,
      "sail": 1533,
      "ride": 1534,
      "won": 1535,
      "asks": 1536,
      "##sp": 1537,
      "##ott": 1538,
      "fox": 1539,
      "roll": 1540,
      "##eter": 1541,
      "danger": 1542,
      "treat": 1543,
      "pie": 1544,
      "Daddy": 1545,
      "visit": 1546,
      "##uffy": 1547,
      "Soon": 1548,
      "leave": 1549,
      "##med": 1550,
      "##os": 1551,
      "Oh": 1552,
      "Mama": 1553,
      "##ucky": 1554,
      "amazed": 1555,
      "teddy": 1556,
      "hide": 1557,
      "waited": 1558,
      "music": 1559,
      "ow": 1560,
      "##me": 1561,
      "towards": 1562,
      "##ang": 1563,
      "All": 1564,
      "##ower": 1565,
      "pre": 1566,
      "##ever": 1567,
      "field": 1568,
      "land": 1569,
      "##ead": 1570,
      "##cy": 1571,
      "pen": 1572,
      "flying": 1573,
      "##zz": 1574,
      "##lep": 1575,
      "silly": 1576,
      "shared": 1577,
      "runs": 1578,
      "##ained": 1579,
      "##ugg": 1580,
      "owner": 1581,
      "shap": 1582,
      "belie": 1583,
      "job": 1584,
      "cloud": 1585,
      "##ames": 1586,
      "living": 1587,
      "promised": 1588,
      "##ol": 1589,
      "##orm": 1590,
      "qui": 1591,
      "moral": 1592,
      "##igg": 1593,
      "##ash": 1594,
      "side": 1595,
      "##gs": 1596,
      "lake": 1597,
      "em": 1598,
      "thinks": 1599,
      "##ope": 1600,
      "##cket": 1601,
      "sec": 1602,
      "Mary": 1603,
      "party": 1604,
      "##thy": 1605,
      "##ually": 1606,
      "sister": 1607,
      "quiet": 1608,
      "##avy": 1609,
      "money": 1610,
      "must": 1611,
      "paint": 1612,
      "##ises": 1613,
      "##cle": 1614,
      "race": 1615,
      "Okay": 1616,
      "##sw": 1617,
      "worried": 1618,
      "answ": 1619,
      "Just": 1620,
      "##unch": 1621,
      "colorful": 1622,
      "dance": 1623,
      "slowly": 1624,
      "grate": 1625,
      "welc": 1626,
      "bran": 1627,
      "pot": 1628,
      "Fl": 1629,
      "faster": 1630,
      "##eces": 1631,
      "bott": 1632,
      "pieces": 1633,
      "such": 1634,
      "##ze": 1635,
      "Mr": 1636,
      "broke": 1637,
      "grateful": 1638,
      "St": 1639,
      "bigger": 1640,
      "Sure": 1641,
      "cho": 1642,
      "##ix": 1643,
      "cup": 1644,
      "train": 1645,
      "snack": 1646,
      "monster": 1647,
      "reach": 1648,
      "blank": 1649,
      "pro": 1650,
      "black": 1651,
      "win": 1652,
      "##less": 1653,
      "river": 1654,
      "treasure": 1655,
      "join": 1656,
      "candy": 1657,
      "##ased": 1658,
      "##uit": 1659,
      "##eak": 1660,
      "magical": 1661,
      "scream": 1662,
      "stu": 1663,
      "blanket": 1664,
      "smart": 1665,
      "ear": 1666,
      "princess": 1667,
      "dangerous": 1668,
      "bike": 1669,
      "across": 1670,
      "monkey": 1671,
      "dragon": 1672,
      "most": 1673,
      "pea": 1674,
      "nap": 1675,
      "everywhere": 1676,
      "##outh": 1677,
      "Mum": 1678,
      "helping": 1679,
      "##aw": 1680,
      "mouth": 1681,
      "Jimmy": 1682,
      "farmer": 1683,
      "##cked": 1684,
      "Grandma": 1685,
      "disapp": 1686,
      "##icy": 1687,
      "words": 1688,
      "##eared": 1689,
      "stepped": 1690,
      "tower": 1691,
      "dolls": 1692,
      "##ming": 1693,
      "heavy": 1694,
      "pass": 1695,
      "threw": 1696,
      "stre": 1697,
      "bee": 1698,
      "bite": 1699,
      "dirty": 1700,
      "##leph": 1701,
      "same": 1702,
      "twins": 1703,
      "crying": 1704,
      "bowl": 1705,
      "believe": 1706,
      "##de": 1707,
      "spr": 1708,
      "##ored": 1709,
      "##â€™t": 1710,
      "acc": 1711,
      "##ident": 1712,
      "wouldn": 1713,
      "##fort": 1714,
      "Hi": 1715,
      "doctor": 1716,
      "##ches": 1717,
      "heal": 1718,
      "sign": 1719,
      "##chool": 1720,
      "bath": 1721,
      "closed": 1722,
      "hig": 1723,
      "carrot": 1724,
      "##bble": 1725,
      "buck": 1726,
      "stuck": 1727,
      "heart": 1728,
      "cour": 1729,
      "##ale": 1730,
      "att": 1731,
      "plant": 1732,
      "fruit": 1733,
      "min": 1734,
      "Please": 1735,
      "school": 1736,
      "hoped": 1737,
      "brown": 1738,
      "Emma": 1739,
      "##ipped": 1740,
      "suddenly": 1741,
      "##iting": 1742,
      "##asket": 1743,
      "chair": 1744,
      "basket": 1745,
      "feels": 1746,
      "eating": 1747,
      "mix": 1748,
      "clapped": 1749,
      "##cher": 1750,
      "cray": 1751,
      "course": 1752,
      "town": 1753,
      "fairy": 1754,
      "butt": 1755,
      "gentle": 1756,
      "coll": 1757,
      "pack": 1758,
      "##pping": 1759,
      "##ventually": 1760,
      "stand": 1761,
      "##ors": 1762,
      "welcome": 1763,
      "pushed": 1764,
      "##ier": 1765,
      "##ire": 1766,
      "drove": 1767,
      "##issed": 1768,
      "Inside": 1769,
      "without": 1770,
      "ve": 1771,
      "##br": 1772,
      "swings": 1773,
      "today": 1774,
      "neigh": 1775,
      "higher": 1776,
      "pocket": 1777,
      "##orrow": 1778,
      "teacher": 1779,
      "hit": 1780,
      "â€œI": 1781,
      "free": 1782,
      "neighb": 1783,
      "pers": 1784,
      "games": 1785,
      "smo": 1786,
      "cheered": 1787,
      "piece": 1788,
      "forget": 1789,
      "##ourn": 1790,
      "##ord": 1791,
      "explained": 1792,
      "journ": 1793,
      "wings": 1794,
      "longer": 1795,
      "ben": 1796,
      "##ible": 1797,
      "accident": 1798,
      "corn": 1799,
      "dry": 1800,
      "yard": 1801,
      "along": 1802,
      "##ment": 1803,
      "##umb": 1804,
      "neck": 1805,
      "noises": 1806,
      "sang": 1807,
      "Their": 1808,
      "inst": 1809,
      "##itting": 1810,
      "happen": 1811,
      "How": 1812,
      "throw": 1813,
      "late": 1814,
      "young": 1815,
      "##vel": 1816,
      "hugs": 1817,
      "shoes": 1818,
      "##ract": 1819,
      "miss": 1820,
      "##sc": 1821,
      "turns": 1822,
      "stories": 1823,
      "lon": 1824,
      "##lephant": 1825,
      "adventures": 1826,
      "trou": 1827,
      "jar": 1828,
      "singing": 1829,
      "apple": 1830,
      "Re": 1831,
      "lunch": 1832,
      "##ape": 1833,
      "upset": 1834,
      "key": 1835,
      "lonely": 1836,
      "well": 1837,
      "Tw": 1838,
      "belong": 1839,
      "gift": 1840,
      "##bby": 1841,
      "plac": 1842,
      "secret": 1843,
      "wish": 1844,
      "mine": 1845,
      "dist": 1846,
      "tom": 1847,
      "##oun": 1848,
      "elephant": 1849,
      "##ountain": 1850,
      "street": 1851,
      "exploring": 1852,
      "fence": 1853,
      "shook": 1854,
      "Fluffy": 1855,
      "Go": 1856,
      "soup": 1857,
      "stars": 1858,
      "moved": 1859,
      "purp": 1860,
      "nearby": 1861,
      "##ts": 1862,
      "Sammy": 1863,
      "##aughty": 1864,
      "bring": 1865,
      "owl": 1866,
      "naughty": 1867,
      "shop": 1868,
      "wise": 1869,
      "whe": 1870,
      "##fused": 1871,
      "##bow": 1872,
      "inv": 1873,
      "exp": 1874,
      "##ocked": 1875,
      "caught": 1876,
      "ph": 1877,
      "sea": 1878,
      "##yard": 1879,
      "##ward": 1880,
      "##ail": 1881,
      "bat": 1882,
      "##adow": 1883,
      "seemed": 1884,
      "bucket": 1885,
      "backyard": 1886,
      "des": 1887,
      "relie": 1888,
      "##aughter": 1889,
      "dropped": 1890,
      "rocks": 1891,
      "drink": 1892,
      "Be": 1893,
      "mail": 1894,
      "##ces": 1895,
      "purple": 1896,
      "resp": 1897,
      "swam": 1898,
      "taking": 1899,
      "Al": 1900,
      "##sy": 1901,
      "cow": 1902,
      "je": 1903,
      "past": 1904,
      "orange": 1905,
      "though": 1906,
      "##ions": 1907,
      "shapes": 1908,
      "woke": 1909,
      "My": 1910,
      "af": 1911,
      "hello": 1912,
      "bench": 1913,
      "##ung": 1914,
      "sounds": 1915,
      "fit": 1916,
      "busy": 1917,
      "##og": 1918,
      "tiny": 1919,
      "wondered": 1920,
      "##ity": 1921,
      "nose": 1922,
      "mark": 1923,
      "rainbow": 1924,
      "Later": 1925,
      "daughter": 1926,
      "kite": 1927,
      "##fish": 1928,
      "##col": 1929,
      "nest": 1930,
      "mad": 1931,
      "takes": 1932,
      "sitting": 1933,
      "ob": 1934,
      "cou": 1935,
      "##cing": 1936,
      "de": 1937,
      "##read": 1938,
      "juice": 1939,
      "##ceful": 1940,
      "holding": 1941,
      "arms": 1942,
      "##ese": 1943,
      "With": 1944,
      "##thday": 1945,
      "nothing": 1946,
      "comes": 1947,
      "part": 1948,
      "##cks": 1949,
      "Ell": 1950,
      "##ining": 1951,
      "pig": 1952,
      "coat": 1953,
      "cir": 1954,
      "branch": 1955,
      "##raid": 1956,
      "##que": 1957,
      "round": 1958,
      "afraid": 1959,
      "Jenny": 1960,
      "forever": 1961,
      "driver": 1962,
      "relieved": 1963,
      "##gn": 1964,
      "inter": 1965,
      "##ose": 1966,
      "##vered": 1967,
      "cute": 1968,
      "spoon": 1969,
      "##idge": 1970,
      "ca": 1971,
      "mil": 1972,
      "##ost": 1973,
      "##ek": 1974,
      "Ch": 1975,
      "carry": 1976,
      "sick": 1977,
      "boun": 1978,
      "promise": 1979,
      "##ours": 1980,
      "te": 1981,
      "king": 1982,
      "Tweet": 1983,
      "Good": 1984,
      "##unt": 1985,
      "huge": 1986,
      "touched": 1987,
      "patient": 1988,
      "birthday": 1989,
      "sunny": 1990,
      "letter": 1991,
      "grab": 1992,
      "exciting": 1993,
      "fing": 1994,
      "##ching": 1995,
      "Of": 1996,
      "##ped": 1997,
      "onto": 1998,
      "bush": 1999,
      "laughing": 2000,
      "journey": 2001,
      "cheese": 2002,
      "days": 2003,
      "band": 2004,
      "gigg": 2005,
      "##board": 2006,
      "disco": 2007,
      "ret": 2008,
      "##ittens": 2009,
      "##alm": 2010,
      "life": 2011,
      "creature": 2012,
      "##shine": 2013,
      "imag": 2014,
      "shell": 2015,
      "##gged": 2016,
      "hope": 2017,
      "craw": 2018,
      "swimming": 2019,
      "cozy": 2020,
      "Emily": 2021,
      "kick": 2022,
      "power": 2023,
      "bread": 2024,
      "##oph": 2025,
      "inc": 2026,
      "##let": 2027,
      "##ness": 2028,
      "wra": 2029,
      "mist": 2030,
      "sharp": 2031,
      "retur": 2032,
      "suc": 2033,
      "bottle": 2034,
      "##gg": 2035,
      "instead": 2036,
      "##ten": 2037,
      "##esting": 2038,
      "watching": 2039,
      "milk": 2040,
      "spin": 2041,
      "sunshine": 2042,
      "eas": 2043,
      "accidentally": 2044,
      "whist": 2045,
      "cave": 2046,
      "shout": 2047
    }
  }
}