{
  "version": "1.0",
  "truncation": null,
  "padding": null,
  "added_tokens": [
    {
      "id": 0,
      "content": "[PAD]",
      "single_word": false,
      "lstrip": false,
      "rstrip": false,
      "normalized": false,
      "special": true
    },
    {
      "id": 1,
      "content": "[UNK]",
      "single_word": false,
      "lstrip": false,
      "rstrip": false,
      "normalized": false,
      "special": true
    },
    {
      "id": 2,
      "content": "[CLS]",
      "single_word": false,
      "lstrip": false,
      "rstrip": false,
      "normalized": false,
      "special": true
    },
    {
      "id": 3,
      "content": "[SEP]",
      "single_word": false,
      "lstrip": false,
      "rstrip": false,
      "normalized": false,
      "special": true
    },
    {
      "id": 4,
      "content": "[MASK]",
      "single_word": false,
      "lstrip": false,
      "rstrip": false,
      "normalized": false,
      "special": true
    }
  ],
  "normalizer": {
    "type": "BertNormalizer",
    "clean_text": true,
    "handle_chinese_chars": true,
    "strip_accents": null,
    "lowercase": false
  },
  "pre_tokenizer": {
    "type": "BertPreTokenizer"
  },
  "post_processor": {
    "type": "TemplateProcessing",
    "single": [
      {
        "SpecialToken": {
          "id": "[CLS]",
          "type_id": 0
        }
      },
      {
        "Sequence": {
          "id": "A",
          "type_id": 0
        }
      },
      {
        "SpecialToken": {
          "id": "[SEP]",
          "type_id": 0
        }
      }
    ],
    "pair": [
      {
        "SpecialToken": {
          "id": "[CLS]",
          "type_id": 0
        }
      },
      {
        "Sequence": {
          "id": "A",
          "type_id": 0
        }
      },
      {
        "SpecialToken": {
          "id": "[SEP]",
          "type_id": 0
        }
      },
      {
        "Sequence": {
          "id": "B",
          "type_id": 1
        }
      },
      {
        "SpecialToken": {
          "id": "[SEP]",
          "type_id": 1
        }
      }
    ],
    "special_tokens": {
      "[CLS]": {
        "id": "[CLS]",
        "ids": [
          2
        ],
        "tokens": [
          "[CLS]"
        ]
      },
      "[SEP]": {
        "id": "[SEP]",
        "ids": [
          3
        ],
        "tokens": [
          "[SEP]"
        ]
      }
    }
  },
  "decoder": {
    "type": "WordPiece",
    "prefix": "##",
    "cleanup": true
  },
  "model": {
    "type": "WordPiece",
    "unk_token": "[UNK]",
    "continuing_subword_prefix": "##",
    "max_input_chars_per_word": 100,
    "vocab": {
      "[PAD]": 0,
      "[UNK]": 1,
      "[CLS]": 2,
      "[SEP]": 3,
      "[MASK]": 4,
      "!": 5,
      "\"": 6,
      "#": 7,
      "$": 8,
      "%": 9,
      "&": 10,
      "'": 11,
      "(": 12,
      ")": 13,
      "*": 14,
      "+": 15,
      ",": 16,
      "-": 17,
      ".": 18,
      "/": 19,
      "0": 20,
      "1": 21,
      "2": 22,
      "3": 23,
      "4": 24,
      "5": 25,
      "6": 26,
      "7": 27,
      "8": 28,
      "9": 29,
      ":": 30,
      ";": 31,
      "<": 32,
      "=": 33,
      ">": 34,
      "?": 35,
      "A": 36,
      "B": 37,
      "C": 38,
      "D": 39,
      "E": 40,
      "F": 41,
      "G": 42,
      "H": 43,
      "I": 44,
      "J": 45,
      "K": 46,
      "L": 47,
      "M": 48,
      "N": 49,
      "O": 50,
      "P": 51,
      "Q": 52,
      "R": 53,
      "S": 54,
      "T": 55,
      "U": 56,
      "V": 57,
      "W": 58,
      "X": 59,
      "Y": 60,
      "Z": 61,
      "[": 62,
      "\\": 63,
      "]": 64,
      "_": 65,
      "`": 66,
      "a": 67,
      "b": 68,
      "c": 69,
      "d": 70,
      "e": 71,
      "f": 72,
      "g": 73,
      "h": 74,
      "i": 75,
      "j": 76,
      "k": 77,
      "l": 78,
      "m": 79,
      "n": 80,
      "o": 81,
      "p": 82,
      "q": 83,
      "r": 84,
      "s": 85,
      "t": 86,
      "u": 87,
      "v": 88,
      "w": 89,
      "x": 90,
      "y": 91,
      "z": 92,
      "{": 93,
      "|": 94,
      "}": 95,
      "~": 96,
      "¡": 97,
      "¢": 98,
      "£": 99,
      "¤": 100,
      "¦": 101,
      "§": 102,
      "¨": 103,
      "©": 104,
      "ª": 105,
      "¬": 106,
      "¯": 107,
      "°": 108,
      "±": 109,
      "³": 110,
      "´": 111,
      "¶": 112,
      "·": 113,
      "¸": 114,
      "»": 115,
      "½": 116,
      "¿": 117,
      "Â": 118,
      "Ã": 119,
      "Ä": 120,
      "Å": 121,
      "É": 122,
      "Ê": 123,
      "Ñ": 124,
      "Ò": 125,
      "á": 126,
      "â": 127,
      "ã": 128,
      "î": 129,
      "ï": 130,
      "ð": 131,
      "Œ": 132,
      "œ": 133,
      "Š": 134,
      "š": 135,
      "Ÿ": 136,
      "Ž": 137,
      "ž": 138,
      "ˆ": 139,
      "˜": 140,
      "–": 141,
      "‘": 142,
      "’": 143,
      "‚": 144,
      "“": 145,
      "”": 146,
      "„": 147,
      "‡": 148,
      "•": 149,
      "…": 150,
      "‰": 151,
      "‹": 152,
      "€": 153,
      "™": 154,
      "##r": 155,
      "##i": 156,
      "##n": 157,
      "##c": 158,
      "##p": 159,
      "##a": 160,
      "##l": 161,
      "##â": 162,
      "##€": 163,
      "##™": 164,
      "##s": 165,
      "##m": 166,
      "##e": 167,
      "##y": 168,
      "##t": 169,
      "##œ": 170,
      "##F": 171,
      "##v": 172,
      "##h": 173,
      "##d": 174,
      "##u": 175,
      "##w": 176,
      "##o": 177,
      "##b": 178,
      "##g": 179,
      "##k": 180,
      "##H": 181,
      "##I": 182,
      "##V": 183,
      "##E": 184,
      "##R": 185,
      "##M": 186,
      "##f": 187,
      "##x": 188,
      "##J": 189,
      "##4": 190,
      "##N": 191,
      "##Y": 192,
      "##O": 193,
      "##˜": 194,
      "##A": 195,
      "##S": 196,
      "##C": 197,
      "##W": 198,
      "##q": 199,
      "##z": 200,
      "##L": 201,
      "##T": 202,
      "##¦": 203,
      "##D": 204,
      "##K": 205,
      "##P": 206,
      "##Š": 207,
      "##G": 208,
      "##U": 209,
      "##0": 210,
      "##j": 211,
      "##B": 212,
      "##5": 213,
      "##Ã": 214,
      "##©": 215,
      "##Â": 216,
      "##´": 217,
      "##±": 218,
      "##8": 219,
      "##X": 220,
      "##1": 221,
      "##3": 222,
      "##Z": 223,
      "##É": 224,
      "##ª": 225,
      "##á": 226,
      "##Å": 227,
      "##ï": 228,
      "##£": 229,
      "##9": 230,
      "##Q": 231,
      "##¬": 232,
      "##7": 233,
      "##¢": 234,
      "##¨": 235,
      "##2": 236,
      "##Ê": 237,
      "##6": 238,
      "##Ä": 239,
      "##³": 240,
      "##Ÿ": 241,
      "##°": 242,
      "##ð": 243,
      "##Œ": 244,
      "##ž": 245,
      "##Ž": 246,
      "##Ò": 247,
      "##ˆ": 248,
      "##Ñ": 249,
      "##¯": 250,
      "##¤": 251,
      "##¸": 252,
      "##š": 253,
      "##he": 254,
      "##nd": 255,
      "the": 256,
      "##ed": 257,
      "and": 258,
      "##er": 259,
      "to": 260,
      "wa": 261,
      "##ou": 262,
      "##in": 263,
      "##re": 264,
      "was": 265,
      "##om": 266,
      "The": 267,
      "##ay": 268,
      "##ar": 269,
      "##ing": 270,
      "##il": 271,
      "##it": 272,
      "##id": 273,
      "##at": 274,
      "sa": 275,
      "##en": 276,
      "ha": 277,
      "##is": 278,
      "##an": 279,
      "##or": 280,
      "##im": 281,
      "he": 282,
      "##on": 283,
      "it": 284,
      "th": 285,
      "##ut": 286,
      "##ll": 287,
      "##le": 288,
      "her": 289,
      "##et": 290,
      "He": 291,
      "##ot": 292,
      "She": 293,
      "##ir": 294,
      "##es": 295,
      "They": 296,
      "in": 297,
      "##ow": 298,
      "##ck": 299,
      "##ld": 300,
      "##oo": 301,
      "said": 302,
      "##ily": 303,
      "be": 304,
      "##ig": 305,
      "##am": 306,
      "st": 307,
      "##ce": 308,
      "she": 309,
      "##pp": 310,
      "##ith": 311,
      "##ve": 312,
      "with": 313,
      "Lily": 314,
      "On": 315,
      "on": 316,
      "you": 317,
      "of": 318,
      "##ked": 319,
      "##ri": 320,
      "so": 321,
      "his": 322,
      "pl": 323,
      "##ery": 324,
      "##ad": 325,
      "##ke": 326,
      "##nt": 327,
      "day": 328,
      "that": 329,
      "up": 330,
      "play": 331,
      "had": 332,
      "they": 333,
      "##el": 334,
      "mom": 335,
      "for": 336,
      "##st": 337,
      "##un": 338,
      "##ould": 339,
      "##my": 340,
      "##ent": 341,
      "li": 342,
      "##ch": 343,
      "happ": 344,
      "want": 345,
      "##itt": 346,
      "sh": 347,
      "##her": 348,
      "It": 349,
      "do": 350,
      "##ly": 351,
      "not": 352,
      "##ome": 353,
      "very": 354,
      "##se": 355,
      "##end": 356,
      "##ound": 357,
      "##all": 358,
      "wh": 359,
      "##ime": 360,
      "##ittle": 361,
      "time": 362,
      "little": 363,
      "##al": 364,
      "there": 365,
      "ne": 366,
      "##ht": 367,
      "happy": 368,
      "sm": 369,
      "big": 370,
      "is": 371,
      "but": 372,
      "##ra": 373,
      "an": 374,
      "saw": 375,
      "##riend": 376,
      "friend": 377,
      "as": 378,
      "##ry": 379,
      "##ack": 380,
      "One": 381,
      "##ake": 382,
      "re": 383,
      "##ere": 384,
      "Tim": 385,
      "##ter": 386,
      "##ug": 387,
      "loo": 388,
      "##ved": 389,
      "were": 390,
      "Once": 391,
      "lo": 392,
      "##ore": 393,
      "##ec": 394,
      "him": 395,
      "too": 396,
      "##ur": 397,
      "go": 398,
      "bo": 399,
      "##ide": 400,
      "se": 401,
      "##irl": 402,
      "##ver": 403,
      "are": 404,
      "##ard": 405,
      "wanted": 406,
      "Tom": 407,
      "##ill": 408,
      "girl": 409,
      "upon": 410,
      "out": 411,
      "them": 412,
      "at": 413,
      "Ben": 414,
      "their": 415,
      "##fu": 416,
      "sp": 417,
      "##way": 418,
      "##ind": 419,
      "smil": 420,
      "did": 421,
      "could": 422,
      "##hen": 423,
      "have": 424,
      "##ted": 425,
      "##ain": 426,
      "ex": 427,
      "##hed": 428,
      "But": 429,
      "##rom": 430,
      "went": 431,
      "ar": 432,
      "##lp": 433,
      "can": 434,
      "##ic": 435,
      "##ful": 436,
      "##ood": 437,
      "friends": 438,
      "##hing": 439,
      "nam": 440,
      "##ight": 441,
      "all": 442,
      "help": 443,
      "kn": 444,
      "##um": 445,
      "##one": 446,
      "##ark": 447,
      "back": 448,
      "say": 449,
      "cl": 450,
      "fun": 451,
      "You": 452,
      "no": 453,
      "##are": 454,
      "##ear": 455,
      "##very": 456,
      "Timmy": 457,
      "##op": 458,
      "star": 459,
      "smiled": 460,
      "sc": 461,
      "named": 462,
      "al": 463,
      "##oug": 464,
      "loved": 465,
      "##side": 466,
      "man": 467,
      "##elt": 468,
      "asked": 469,
      "##ick": 470,
      "toy": 471,
      "Mom": 472,
      "like": 473,
      "felt": 474,
      "looked": 475,
      "see": 476,
      "some": 477,
      "around": 478,
      "me": 479,
      "##ep": 480,
      "##ame": 481,
      "##omet": 482,
      "fe": 483,
      "br": 484,
      "ro": 485,
      "##ure": 486,
      "bir": 487,
      "##get": 488,
      "boy": 489,
      "would": 490,
      "##ong": 491,
      "##ss": 492,
      "##ea": 493,
      "bird": 494,
      "somet": 495,
      "fa": 496,
      "##dd": 497,
      "##est": 498,
      "##ings": 499,
      "ag": 500,
      "wor": 501,
      "what": 502,
      "##ade": 503,
      "make": 504,
      "##king": 505,
      "##ie": 506,
      "car": 507,
      "##own": 508,
      "tre": 509,
      "ran": 510,
      "##gether": 511,
      "away": 512,
      "##ag": 513,
      "we": 514,
      "Th": 515,
      "says": 516,
      "started": 517,
      "##ice": 518,
      "##oud": 519,
      "made": 520,
      "together": 521,
      "something": 522,
      "##ther": 523,
      "##ited": 524,
      "park": 525,
      "co": 526,
      "sad": 527,
      "other": 528,
      "new": 529,
      "exc": 530,
      "put": 531,
      "from": 532,
      "##out": 533,
      "pr": 534,
      "la": 535,
      "scar": 536,
      "hug": 537,
      "##ble": 538,
      "mu": 539,
      "again": 540,
      "##ook": 541,
      "home": 542,
      "when": 543,
      "good": 544,
      "who": 545,
      "ch": 546,
      "found": 547,
      "##ried": 548,
      "fl": 549,
      "then": 550,
      "dec": 551,
      "##pped": 552,
      "wal": 553,
      "get": 554,
      "playing": 555,
      "##ought": 556,
      "##ach": 557,
      "##pl": 558,
      "##ally": 559,
      "Su": 560,
      "sw": 561,
      "##ous": 562,
      "##nn": 563,
      "â€": 564,
      "things": 565,
      "excited": 566,
      "liked": 567,
      "got": 568,
      "Sam": 569,
      "##uck": 570,
      "##ro": 571,
      "##ided": 572,
      "##as": 573,
      "##ell": 574,
      "decided": 575,
      "bl": 576,
      "came": 577,
      "every": 578,
      "Ann": 579,
      "##ara": 580,
      "your": 581,
      "##ax": 582,
      "scared": 583,
      "one": 584,
      "##ust": 585,
      "dog": 586,
      "down": 587,
      "##ouse": 588,
      "##ny": 589,
      "find": 590,
      "care": 591,
      "bec": 592,
      "than": 593,
      "Sara": 594,
      "feel": 595,
      "We": 596,
      "Anna": 597,
      "ab": 598,
      "dad": 599,
      "my": 600,
      "Max": 601,
      "look": 602,
      "##ap": 603,
      "will": 604,
      "##ist": 605,
      "gr": 606,
      "##nder": 607,
      "gra": 608,
      "##ways": 609,
      "didn": 610,
      "##ess": 611,
      "po": 612,
      "always": 613,
      "about": 614,
      "took": 615,
      "##bb": 616,
      "##ers": 617,
      "lot": 618,
      "mommy": 619,
      "##ned": 620,
      "kne": 621,
      "toys": 622,
      "So": 623,
      "##ant": 624,
      "##ise": 625,
      "bu": 626,
      "old": 627,
      "tree": 628,
      "##ite": 629,
      "outside": 630,
      "##ave": 631,
      "thought": 632,
      "lear": 633,
      "ball": 634,
      "more": 635,
      "##eci": 636,
      "##ened": 637,
      "##ched": 638,
      "ta": 639,
      "ho": 640,
      "##ret": 641,
      "When": 642,
      "##ged": 643,
      "pu": 644,
      "know": 645,
      "Jo": 646,
      "Wh": 647,
      "##to": 648,
      "laug": 649,
      "take": 650,
      "sor": 651,
      "speci": 652,
      "special": 653,
      "cat": 654,
      "##dden": 655,
      "knew": 656,
      "##ty": 657,
      "##ive": 658,
      "##ff": 659,
      "Her": 660,
      "##ia": 661,
      "##ddenly": 662,
      "any": 663,
      "##fter": 664,
      "how": 665,
      "##au": 666,
      "##ue": 667,
      "show": 668,
      "##ma": 669,
      "##ink": 670,
      "Jack": 671,
      "sorry": 672,
      "tw": 673,
      "much": 674,
      "Every": 675,
      "tr": 676,
      "run": 677,
      "##ish": 678,
      "hand": 679,
      "sl": 680,
      "house": 681,
      "##and": 682,
      "##ven": 683,
      "or": 684,
      "op": 685,
      "sk": 686,
      "mo": 687,
      "clo": 688,
      "sun": 689,
      "into": 690,
      "tried": 691,
      "inside": 692,
      "##ate": 693,
      "told": 694,
      "this": 695,
      "water": 696,
      "en": 697,
      "if": 698,
      "##ump": 699,
      "proud": 700,
      "##dy": 701,
      "over": 702,
      "couldn": 703,
      "heard": 704,
      "gave": 705,
      "##ank": 706,
      "never": 707,
      "each": 708,
      "##by": 709,
      "room": 710,
      "expl": 711,
      "Suddenly": 712,
      "eat": 713,
      "##other": 714,
      "##ause": 715,
      "pick": 716,
      "##ion": 717,
      "pret": 718,
      "played": 719,
      "Mia": 720,
      "Then": 721,
      "##ge": 722,
      "##etter": 723,
      "just": 724,
      "gre": 725,
      "hugged": 726,
      "qu": 727,
      "Let": 728,
      "##here": 729,
      "off": 730,
      "com": 731,
      "wat": 732,
      "##oth": 733,
      "box": 734,
      "##our": 735,
      "From": 736,
      "nice": 737,
      "And": 738,
      "ra": 739,
      "because": 740,
      "need": 741,
      "His": 742,
      "str": 743,
      "pe": 744,
      "##ile": 745,
      "##fe": 746,
      "many": 747,
      "##ft": 748,
      "fo": 749,
      "jo": 750,
      "##eep": 751,
      "bear": 752,
      "##uc": 753,
      "small": 754,
      "##sed": 755,
      "##iz": 756,
      "##ving": 757,
      "long": 758,
      "##ine": 759,
      "##gry": 760,
      "##em": 761,
      "##imal": 762,
      "##kes": 763,
      "animal": 764,
      "sn": 765,
      "##ough": 766,
      "That": 767,
      "try": 768,
      "unt": 769,
      "##ort": 770,
      "##ild": 771,
      "##sel": 772,
      "##urt": 773,
      "until": 774,
      "kind": 775,
      "learned": 776,
      "im": 777,
      "bea": 778,
      "better": 779,
      "love": 780,
      "call": 781,
      "flow": 782,
      "don": 783,
      "end": 784,
      "ad": 785,
      "best": 786,
      "##vent": 787,
      "##ning": 788,
      "##urp": 789,
      "##ady": 790,
      "##ream": 791,
      "cle": 792,
      "##ves": 793,
      "ma": 794,
      "â€œ": 795,
      "##arden": 796,
      "garden": 797,
      "cu": 798,
      "##lly": 799,
      "fast": 800,
      "##ber": 801,
      "careful": 802,
      "beaut": 803,
      "Mommy": 804,
      "fi": 805,
      "even": 806,
      "by": 807,
      "bra": 808,
      "thanked": 809,
      "che": 810,
      "laughed": 811,
      "##ies": 812,
      "##sh": 813,
      "What": 814,
      "sky": 815,
      "jump": 816,
      "Yes": 817,
      "gl": 818,
      "loud": 819,
      "##self": 820,
      "##iny": 821,
      "way": 822,
      "beauti": 823,
      "come": 824,
      "wo": 825,
      "##lew": 826,
      "beautiful": 827,
      "list": 828,
      "lots": 829,
      "hard": 830,
      "##ase": 831,
      "Can": 832,
      "animals": 833,
      "still": 834,
      "fam": 835,
      "Joh": 836,
      "hurt": 837,
      "under": 838,
      "let": 839,
      "stay": 840,
      "##wn": 841,
      "both": 842,
      "##hes": 843,
      "safe": 844,
      "##ct": 845,
      "##ool": 846,
      "##be": 847,
      "col": 848,
      "##ree": 849,
      "lea": 850,
      "di": 851,
      "two": 852,
      "bad": 853,
      "imp": 854,
      "##ace": 855,
      "book": 856,
      "rem": 857,
      "##ople": 858,
      "As": 859,
      "lived": 860,
      "##ane": 861,
      "##kay": 862,
      "Luc": 863,
      "Lucy": 864,
      "walked": 865,
      "##ock": 866,
      "su": 867,
      "##urpr": 868,
      "should": 869,
      "brave": 870,
      "its": 871,
      "##ob": 872,
      "surpr": 873,
      "angry": 874,
      "##ished": 875,
      "family": 876,
      "##ept": 877,
      "##igh": 878,
      "##ress": 879,
      "flew": 880,
      "people": 881,
      "After": 882,
      "called": 883,
      "Thank": 884,
      "red": 885,
      "stor": 886,
      "##ip": 887,
      "##eet": 888,
      "soon": 889,
      "fin": 890,
      "##ast": 891,
      "##led": 892,
      "##ect": 893,
      "kept": 894,
      "##art": 895,
      "John": 896,
      "Dad": 897,
      "fore": 898,
      "##fore": 899,
      "dan": 900,
      "fly": 901,
      "share": 902,
      "##xt": 903,
      "##ised": 904,
      "le": 905,
      "No": 906,
      "pic": 907,
      "##dded": 908,
      "door": 909,
      "going": 910,
      "tur": 911,
      "keep": 912,
      "pretty": 913,
      "##â€": 914,
      "now": 915,
      "clean": 916,
      "rock": 917,
      "dra": 918,
      "##ummy": 919,
      "advent": 920,
      "noise": 921,
      "##age": 922,
      "shiny": 923,
      "opened": 924,
      "wind": 925,
      "doll": 926,
      "con": 927,
      "id": 928,
      "before": 929,
      "cry": 930,
      "idea": 931,
      "real": 932,
      "##illy": 933,
      "sto": 934,
      "Sp": 935,
      "##so": 936,
      "explore": 937,
      "ground": 938,
      "far": 939,
      "also": 940,
      "##les": 941,
      "##ied": 942,
      "ey": 943,
      "fr": 944,
      "##â€™": 945,
      "color": 946,
      "war": 947,
      "nodded": 948,
      "feeling": 949,
      "##imb": 950,
      "picked": 951,
      "Bob": 952,
      "un": 953,
      "##oy": 954,
      "walking": 955,
      "next": 956,
      "##thing": 957,
      "##ture": 958,
      "climb": 959,
      "##ting": 960,
      "thr": 961,
      "has": 962,
      "while": 963,
      "bed": 964,
      "smile": 965,
      "adventure": 966,
      "##th": 967,
      "##aybe": 968,
      "##ser": 969,
      "##iced": 970,
      "##ger": 971,
      "##qu": 972,
      "##ious": 973,
      "being": 974,
      "looking": 975,
      "diff": 976,
      "wr": 977,
      "food": 978,
      "##joy": 979,
      "picture": 980,
      "give": 981,
      "think": 982,
      "Spot": 983,
      "truck": 984,
      "del": 985,
      "wait": 986,
      "eyes": 987,
      "##ught": 988,
      "tow": 989,
      "bro": 990,
      "repl": 991,
      "stopped": 992,
      "tra": 993,
      "gi": 994,
      "listen": 995,
      "after": 996,
      "Do": 997,
      "walk": 998,
      "bre": 999,
      "vo": 1000,
      "great": 1001,
      "year": 1002,
      "wonder": 1003,
      "##ember": 1004,
      "Sue": 1005,
      "hands": 1006,
      "head": 1007,
      "import": 1008,
      "enjoy": 1009,
      "flowers": 1010,
      "##bbit": 1011,
      "ever": 1012,
      "forest": 1013,
      "blue": 1014,
      "noticed": 1015,
      "near": 1016,
      "own": 1017,
      "app": 1018,
      "dis": 1019,
      "ac": 1020,
      "##ized": 1021,
      "##irst": 1022,
      "quick": 1023,
      "important": 1024,
      "remember": 1025,
      "##able": 1026,
      "fish": 1027,
      "sound": 1028,
      "##llow": 1029,
      "slide": 1030,
      "us": 1031,
      "replied": 1032,
      "##maz": 1033,
      "amaz": 1034,
      "watch": 1035,
      "##lease": 1036,
      "rabbit": 1037,
      "work": 1038,
      "rain": 1039,
      "okay": 1040,
      "showed": 1041,
      "##gan": 1042,
      "tal": 1043,
      "Sarah": 1044,
      "##bbed": 1045,
      "differ": 1046,
      "ask": 1047,
      "ru": 1048,
      "mean": 1049,
      "tou": 1050,
      "right": 1051,
      "##day": 1052,
      "bright": 1053,
      "##bye": 1054,
      "Look": 1055,
      "watched": 1056,
      "follow": 1057,
      "everyone": 1058,
      "strong": 1059,
      "been": 1060,
      "This": 1061,
      "use": 1062,
      "mor": 1063,
      "stick": 1064,
      "voice": 1065,
      "##ath": 1066,
      "##ered": 1067,
      "quickly": 1068,
      "our": 1069,
      "where": 1070,
      "yell": 1071,
      "Jane": 1072,
      "different": 1073,
      "child": 1074,
      "##ng": 1075,
      "curi": 1076,
      "boat": 1077,
      "sure": 1078,
      "##ey": 1079,
      "Maybe": 1080,
      "goodbye": 1081,
      "became": 1082,
      "face": 1083,
      "place": 1084,
      "hop": 1085,
      "##ange": 1086,
      "high": 1087,
      "am": 1088,
      "##aught": 1089,
      "store": 1090,
      "##unny": 1091,
      "closer": 1092,
      "warm": 1093,
      "tea": 1094,
      "##oon": 1095,
      "does": 1096,
      "dress": 1097,
      "mag": 1098,
      "##llo": 1099,
      "curious": 1100,
      "bel": 1101,
      "##ila": 1102,
      "cook": 1103,
      "forg": 1104,
      "fav": 1105,
      "##ass": 1106,
      "##ndma": 1107,
      "tell": 1108,
      "three": 1109,
      "##ount": 1110,
      "ba": 1111,
      "##leep": 1112,
      "Lila": 1113,
      "night": 1114,
      "##co": 1115,
      "open": 1116,
      "shar": 1117,
      "here": 1118,
      "cake": 1119,
      "##more": 1120,
      "anymore": 1121,
      "first": 1122,
      "block": 1123,
      "##ull": 1124,
      "##ached": 1125,
      "pull": 1126,
      "##iss": 1127,
      "##itc": 1128,
      "butter": 1129,
      "##ired": 1130,
      "##imes": 1131,
      "##orn": 1132,
      "In": 1133,
      "sweet": 1134,
      "pain": 1135,
      "kid": 1136,
      "grabbed": 1137,
      "##isy": 1138,
      "mon": 1139,
      "only": 1140,
      "fell": 1141,
      "Everyone": 1142,
      "cont": 1143,
      "birds": 1144,
      "jumped": 1145,
      "bit": 1146,
      "glad": 1147,
      "sand": 1148,
      "##itchen": 1149,
      "kitchen": 1150,
      "fire": 1151,
      "helped": 1152,
      "squ": 1153,
      "per": 1154,
      "sees": 1155,
      "flo": 1156,
      "stop": 1157,
      "Don": 1158,
      "hear": 1159,
      "##outed": 1160,
      "happened": 1161,
      "cra": 1162,
      "grass": 1163,
      "bunny": 1164,
      "sing": 1165,
      "Joe": 1166,
      "story": 1167,
      "##nts": 1168,
      "dr": 1169,
      "shouted": 1170,
      "tri": 1171,
      "Tommy": 1172,
      "##air": 1173,
      "brother": 1174,
      "reached": 1175,
      "beh": 1176,
      "yummy": 1177,
      "realized": 1178,
      "##ppy": 1179,
      "mum": 1180,
      "cr": 1181,
      "lady": 1182,
      "having": 1183,
      "prin": 1184,
      "favor": 1185,
      "##ins": 1186,
      "through": 1187,
      "favorite": 1188,
      "learn": 1189,
      "mess": 1190,
      "cre": 1191,
      "draw": 1192,
      "hat": 1193,
      "game": 1194,
      "ate": 1195,
      "less": 1196,
      "underst": 1197,
      "soft": 1198,
      "##ary": 1199,
      "pare": 1200,
      "##zy": 1201,
      "thing": 1202,
      "really": 1203,
      "ready": 1204,
      "##ather": 1205,
      "began": 1206,
      "pretend": 1207,
      "##where": 1208,
      "world": 1209,
      "##ken": 1210,
      "looks": 1211,
      "magic": 1212,
      "himself": 1213,
      "##fully": 1214,
      "butterf": 1215,
      "pap": 1216,
      "Now": 1217,
      "done": 1218,
      "cut": 1219,
      "making": 1220,
      "##ater": 1221,
      "coming": 1222,
      "rest": 1223,
      "why": 1224,
      "kids": 1225,
      "waved": 1226,
      "duck": 1227,
      "pond": 1228,
      "prom": 1229,
      "fro": 1230,
      "tired": 1231,
      "mouse": 1232,
      "##olly": 1233,
      "fix": 1234,
      "worry": 1235,
      "fill": 1236,
      "delic": 1237,
      "cars": 1238,
      "name": 1239,
      "##eddy": 1240,
      "Fin": 1241,
      "##aisy": 1242,
      "touch": 1243,
      "flower": 1244,
      "Sally": 1245,
      "catch": 1246,
      "funny": 1247,
      "thank": 1248,
      "seen": 1249,
      "used": 1250,
      "tast": 1251,
      "##bo": 1252,
      "##ient": 1253,
      "hair": 1254,
      "parents": 1255,
      "top": 1256,
      "##rel": 1257,
      "another": 1258,
      "##ak": 1259,
      "hold": 1260,
      "Wow": 1261,
      "hopped": 1262,
      "cried": 1263,
      "##iver": 1264,
      "##oney": 1265,
      "There": 1266,
      "cool": 1267,
      "##mer": 1268,
      "blocks": 1269,
      "doing": 1270,
      "surprise": 1271,
      "##ster": 1272,
      "##ac": 1273,
      "turn": 1274,
      "green": 1275,
      "light": 1276,
      "years": 1277,
      "lesson": 1278,
      "##ation": 1279,
      "read": 1280,
      "floor": 1281,
      "din": 1282,
      "dri": 1283,
      "wood": 1284,
      "##ards": 1285,
      "running": 1286,
      "window": 1287,
      "worked": 1288,
      "full": 1289,
      "trees": 1290,
      "smell": 1291,
      "par": 1292,
      "dro": 1293,
      "spot": 1294,
      "wear": 1295,
      "dark": 1296,
      "behind": 1297,
      "##andy": 1298,
      "wished": 1299,
      "likes": 1300,
      "##ons": 1301,
      "##ued": 1302,
      "paper": 1303,
      "yellow": 1304,
      "happily": 1305,
      "sho": 1306,
      "bag": 1307,
      "##ely": 1308,
      "bow": 1309,
      "##ul": 1310,
      "Daisy": 1311,
      "sat": 1312,
      "swim": 1313,
      "##ren": 1314,
      "Em": 1315,
      "sleep": 1316,
      "surprised": 1317,
      "frog": 1318,
      "butterfly": 1319,
      "Benny": 1320,
      "##us": 1321,
      "##ike": 1322,
      "Jim": 1323,
      "carefully": 1324,
      "set": 1325,
      "##uff": 1326,
      "##â€™s": 1327,
      "slow": 1328,
      "remembered": 1329,
      "swing": 1330,
      "lost": 1331,
      "cold": 1332,
      "held": 1333,
      "To": 1334,
      "laugh": 1335,
      "hole": 1336,
      "needed": 1337,
      "At": 1338,
      "ice": 1339,
      "##rew": 1340,
      "buy": 1341,
      "perf": 1342,
      "Gra": 1343,
      "left": 1344,
      "ste": 1345,
      "##reed": 1346,
      "Billy": 1347,
      "move": 1348,
      "tall": 1349,
      "enjoyed": 1350,
      "##cess": 1351,
      "dream": 1352,
      "anything": 1353,
      "Hello": 1354,
      "wrong": 1355,
      "fair": 1356,
      "arri": 1357,
      "air": 1358,
      "followed": 1359,
      "Finally": 1360,
      "books": 1361,
      "el": 1362,
      "##ross": 1363,
      "children": 1364,
      "hun": 1365,
      "Molly": 1366,
      "delicious": 1367,
      "bus": 1368,
      "please": 1369,
      "finished": 1370,
      "contin": 1371,
      "friendly": 1372,
      "table": 1373,
      "##ds": 1374,
      "dir": 1375,
      "herself": 1376,
      "hot": 1377,
      "Amy": 1378,
      "##lf": 1379,
      "snow": 1380,
      "##ens": 1381,
      "hill": 1382,
      "understand": 1383,
      "close": 1384,
      "cream": 1385,
      "##ined": 1386,
      "hid": 1387,
      "baby": 1388,
      "arrived": 1389,
      "wonderful": 1390,
      "might": 1391,
      "else": 1392,
      "arm": 1393,
      "cast": 1394,
      "gent": 1395,
      "res": 1396,
      "##ield": 1397,
      "tight": 1398,
      "yes": 1399,
      "forgot": 1400,
      "rel": 1401,
      "sig": 1402,
      "colors": 1403,
      "bug": 1404,
      "Jen": 1405,
      "build": 1406,
      "broken": 1407,
      "##ner": 1408,
      "able": 1409,
      "gone": 1410,
      "##av": 1411,
      "##ich": 1412,
      "song": 1413,
      "filled": 1414,
      "wall": 1415,
      "squir": 1416,
      "agreed": 1417,
      "someone": 1418,
      "mat": 1419,
      "fur": 1420,
      "gu": 1421,
      "continued": 1422,
      "##room": 1423,
      "creat": 1424,
      "ll": 1425,
      "pat": 1426,
      "##asure": 1427,
      "count": 1428,
      "##set": 1429,
      "squirrel": 1430,
      "wants": 1431,
      "leaves": 1432,
      "pink": 1433,
      "bar": 1434,
      "##ask": 1435,
      "enough": 1436,
      "lion": 1437,
      "##ama": 1438,
      "morning": 1439,
      "Why": 1440,
      "vis": 1441,
      "moment": 1442,
      "finally": 1443,
      "OK": 1444,
      "getting": 1445,
      "stayed": 1446,
      "cookies": 1447,
      "break": 1448,
      "##shed": 1449,
      "##ence": 1450,
      "##ance": 1451,
      "##app": 1452,
      "poin": 1453,
      "beach": 1454,
      "sometimes": 1455,
      "fight": 1456,
      "scary": 1457,
      "few": 1458,
      "##row": 1459,
      "##ries": 1460,
      "##ced": 1461,
      "hungry": 1462,
      "fall": 1463,
      "##red": 1464,
      "turned": 1465,
      "dinner": 1466,
      "mother": 1467,
      "ju": 1468,
      "grandma": 1469,
      "##gon": 1470,
      "##apped": 1471,
      "wet": 1472,
      "trying": 1473,
      "amazing": 1474,
      "pi": 1475,
      "perfect": 1476,
      "makes": 1477,
      "plan": 1478,
      "daddy": 1479,
      "others": 1480,
      "climbed": 1481,
      "pictures": 1482,
      "##oup": 1483,
      "talk": 1484,
      "castle": 1485,
      "##key": 1486,
      "comp": 1487,
      "mus": 1488,
      "##amp": 1489,
      "Jill": 1490,
      "mar": 1491,
      "met": 1492,
      "white": 1493,
      "listened": 1494,
      "smiles": 1495,
      "##oring": 1496,
      "##oom": 1497,
      "clot": 1498,
      "##man": 1499,
      "Come": 1500,
      "pol": 1501,
      "clothes": 1502,
      "alone": 1503,
      "tail": 1504,
      "joy": 1505,
      "spl": 1506,
      "puppy": 1507,
      "balloon": 1508,
      "##ated": 1509,
      "##rot": 1510,
      "##ee": 1511,
      "wasn": 1512,
      "brought": 1513,
      "everything": 1514,
      "deep": 1515,
      "##ctor": 1516,
      "pet": 1517,
      "##ister": 1518,
      "sear": 1519,
      "grow": 1520,
      "spark": 1521,
      "sit": 1522,
      "strange": 1523,
      "##elc": 1524,
      "pulled": 1525,
      "woods": 1526,
      "##ott": 1527,
      "##der": 1528,
      "start": 1529,
      "##ling": 1530,
      "sail": 1531,
      "won": 1532,
      "##sp": 1533,
      "##eter": 1534,
      "ride": 1535,
      "asks": 1536,
      "treat": 1537,
      "##uffy": 1538,
      "fox": 1539,
      "danger": 1540,
      "pie": 1541,
      "Daddy": 1542,
      "roll": 1543,
      "visit": 1544,
      "##med": 1545,
      "##os": 1546,
      "leave": 1547,
      "Mama": 1548,
      "Oh": 1549,
      "Soon": 1550,
      "music": 1551,
      "##ucky": 1552,
      "ow": 1553,
      "teddy": 1554,
      "amazed": 1555,
      "##me": 1556,
      "waited": 1557,
      "hide": 1558,
      "towards": 1559,
      "All": 1560,
      "##ever": 1561,
      "field": 1562,
      "##ang": 1563,
      "##ower": 1564,
      "pre": 1565,
      "##ead": 1566,
      "land": 1567,
      "##lep": 1568,
      "flying": 1569,
      "##cy": 1570,
      "pen": 1571,
      "shared": 1572,
      "owner": 1573,
      "silly": 1574,
      "runs": 1575,
      "##zz": 1576,
      "##ained": 1577,
      "belie": 1578,
      "##ugg": 1579,
      "qui": 1580,
      "cloud": 1581,
      "##ames": 1582,
      "living": 1583,
      "job": 1584,
      "shap": 1585,
      "##ash": 1586,
      "promised": 1587,
      "##igg": 1588,
      "moral": 1589,
      "##orm": 1590,
      "##gs": 1591,
      "side": 1592,
      "##ol": 1593,
      "##cket": 1594,
      "lake": 1595,
      "sister": 1596,
      "paint": 1597,
      "thinks": 1598,
      "party": 1599,
      "##ually": 1600,
      "sec": 1601,
      "##thy": 1602,
      "quiet": 1603,
      "race": 1604,
      "Mary": 1605,
      "##ope": 1606,
      "##ises": 1607,
      "must": 1608,
      "money": 1609,
      "##avy": 1610,
      "Okay": 1611,
      "worried": 1612,
      "##sw": 1613,
      "##cle": 1614,
      "answ": 1615,
      "Fl": 1616,
      "##unch": 1617,
      "bott": 1618,
      "##eces": 1619,
      "slowly": 1620,
      "Just": 1621,
      "bran": 1622,
      "grate": 1623,
      "faster": 1624,
      "pot": 1625,
      "pieces": 1626,
      "dance": 1627,
      "Mr": 1628,
      "colorful": 1629,
      "welc": 1630,
      "cup": 1631,
      "broke": 1632,
      "Sure": 1633,
      "grateful": 1634,
      "##ze": 1635,
      "such": 1636,
      "bigger": 1637,
      "St": 1638,
      "##ix": 1639,
      "snack": 1640,
      "train": 1641,
      "blank": 1642,
      "reach": 1643,
      "cho": 1644,
      "pro": 1645,
      "monster": 1646,
      "river": 1647,
      "candy": 1648,
      "win": 1649,
      "join": 1650,
      "##less": 1651,
      "##uit": 1652,
      "black": 1653,
      "smart": 1654,
      "##ased": 1655,
      "blanket": 1656,
      "treasure": 1657,
      "scream": 1658,
      "stu": 1659,
      "pea": 1660,
      "magical": 1661,
      "ear": 1662,
      "princess": 1663,
      "bike": 1664,
      "dangerous": 1665,
      "Mum": 1666,
      "everywhere": 1667,
      "dragon": 1668,
      "across": 1669,
      "helping": 1670,
      "nap": 1671,
      "em": 1672,
      "monkey": 1673,
      "Grandma": 1674,
      "farmer": 1675,
      "most": 1676,
      "##eak": 1677,
      "##aw": 1678,
      "##outh": 1679,
      "##cked": 1680,
      "mouth": 1681,
      "disapp": 1682,
      "Jimmy": 1683,
      "words": 1684,
      "##icy": 1685,
      "##eared": 1686,
      "stre": 1687,
      "##leph": 1688,
      "dolls": 1689,
      "tower": 1690,
      "##ming": 1691,
      "bite": 1692,
      "stepped": 1693,
      "pass": 1694,
      "heavy": 1695,
      "same": 1696,
      "threw": 1697,
      "believe": 1698,
      "bee": 1699,
      "##de": 1700,
      "spr": 1701,
      "twins": 1702,
      "bowl": 1703,
      "crying": 1704,
      "dirty": 1705,
      "doctor": 1706,
      "sign": 1707,
      "##ored": 1708,
      "##â€™t": 1709,
      "acc": 1710,
      "##ident": 1711,
      "##chool": 1712,
      "##ches": 1713,
      "Hi": 1714,
      "wouldn": 1715,
      "bath": 1716,
      "##fort": 1717,
      "heal": 1718,
      "##bble": 1719,
      "##ale": 1720,
      "hig": 1721,
      "closed": 1722,
      "heart": 1723,
      "carrot": 1724,
      "fruit": 1725,
      "stuck": 1726,
      "cour": 1727,
      "school": 1728,
      "buck": 1729,
      "plant": 1730,
      "Please": 1731,
      "att": 1732,
      "min": 1733,
      "brown": 1734,
      "##ipped": 1735,
      "hoped": 1736,
      "suddenly": 1737,
      "##iting": 1738,
      "Emma": 1739,
      "chair": 1740,
      "feels": 1741,
      "cray": 1742,
      "bask": 1743,
      "mix": 1744,
      "eating": 1745,
      "basket": 1746,
      "town": 1747,
      "##cher": 1748,
      "clapped": 1749,
      "course": 1750,
      "fairy": 1751,
      "##pping": 1752,
      "gentle": 1753,
      "##ventually": 1754,
      "coll": 1755,
      "butt": 1756,
      "stand": 1757,
      "pack": 1758,
      "##ier": 1759,
      "drove": 1760,
      "##ire": 1761,
      "pushed": 1762,
      "##ors": 1763,
      "welcome": 1764,
      "##br": 1765,
      "ve": 1766,
      "##issed": 1767,
      "Inside": 1768,
      "neigh": 1769,
      "swings": 1770,
      "today": 1771,
      "##orrow": 1772,
      "higher": 1773,
      "without": 1774,
      "pocket": 1775,
      "teacher": 1776,
      "pers": 1777,
      "â€œI": 1778,
      "hit": 1779,
      "neighb": 1780,
      "free": 1781,
      "piece": 1782,
      "smo": 1783,
      "##ourn": 1784,
      "games": 1785,
      "cheered": 1786,
      "journ": 1787,
      "ben": 1788,
      "yard": 1789,
      "longer": 1790,
      "wings": 1791,
      "##ord": 1792,
      "explained": 1793,
      "forget": 1794,
      "corn": 1795,
      "##ible": 1796,
      "accident": 1797,
      "##umb": 1798,
      "along": 1799,
      "dry": 1800,
      "sang": 1801,
      "noises": 1802,
      "Their": 1803,
      "##itting": 1804,
      "How": 1805,
      "##ment": 1806,
      "inst": 1807,
      "neck": 1808,
      "throw": 1809,
      "late": 1810,
      "happen": 1811,
      "##ract": 1812,
      "##lephant": 1813,
      "young": 1814,
      "hugs": 1815,
      "shoes": 1816,
      "turns": 1817,
      "##vel": 1818,
      "miss": 1819,
      "stories": 1820,
      "lon": 1821,
      "adventures": 1822,
      "apple": 1823,
      "key": 1824,
      "singing": 1825,
      "##sc": 1826,
      "trou": 1827,
      "well": 1828,
      "Re": 1829,
      "upset": 1830,
      "gift": 1831,
      "Tw": 1832,
      "lunch": 1833,
      "elephant": 1834,
      "tom": 1835,
      "##ape": 1836,
      "jar": 1837,
      "lonely": 1838,
      "##bby": 1839,
      "dist": 1840,
      "belong": 1841,
      "mine": 1842,
      "Fluffy": 1843,
      "secret": 1844,
      "street": 1845,
      "plac": 1846,
      "##oun": 1847,
      "wish": 1848,
      "fence": 1849,
      "##ountain": 1850,
      "shook": 1851,
      "exploring": 1852,
      "owl": 1853,
      "Go": 1854,
      "moved": 1855,
      "nearby": 1856,
      "purp": 1857,
      "Sammy": 1858,
      "##aughty": 1859,
      "##fused": 1860,
      "##ts": 1861,
      "shop": 1862,
      "stars": 1863,
      "wise": 1864,
      "naughty": 1865,
      "inv": 1866,
      "bring": 1867,
      "##bow": 1868,
      "whe": 1869,
      "soup": 1870,
      "exp": 1871,
      "caught": 1872,
      "seemed": 1873,
      "##ail": 1874,
      "##ward": 1875,
      "##yard": 1876,
      "##ocked": 1877,
      "sea": 1878,
      "bat": 1879,
      "dropped": 1880,
      "ph": 1881,
      "backyard": 1882,
      "relie": 1883,
      "rocks": 1884,
      "##aughter": 1885,
      "Al": 1886,
      "je": 1887,
      "##ces": 1888,
      "drink": 1889,
      "##adow": 1890,
      "bucket": 1891,
      "des": 1892,
      "farm": 1893,
      "purple": 1894,
      "##sy": 1895,
      "Be": 1896,
      "taking": 1897,
      "resp": 1898,
      "orange": 1899,
      "swam": 1900,
      "##ions": 1901,
      "though": 1902,
      "mail": 1903,
      "shapes": 1904,
      "past": 1905,
      "cow": 1906,
      "af": 1907,
      "woke": 1908,
      "bench": 1909,
      "wondered": 1910,
      "sounds": 1911,
      "##ung": 1912,
      "fit": 1913,
      "hello": 1914,
      "My": 1915,
      "##ity": 1916,
      "##og": 1917,
      "Later": 1918,
      "busy": 1919,
      "ob": 1920,
      "nest": 1921,
      "tiny": 1922,
      "rainbow": 1923,
      "mark": 1924,
      "sitting": 1925,
      "daughter": 1926,
      "mad": 1927,
      "##cing": 1928,
      "kite": 1929,
      "##ese": 1930,
      "de": 1931,
      "nose": 1932,
      "nothing": 1933,
      "holding": 1934,
      "##col": 1935,
      "##read": 1936,
      "takes": 1937,
      "cou": 1938,
      "##fish": 1939,
      "juice": 1940,
      "comes": 1941,
      "part": 1942,
      "arms": 1943,
      "##ceful": 1944,
      "With": 1945,
      "Ell": 1946,
      "pig": 1947,
      "##thday": 1948,
      "##cks": 1949,
      "coat": 1950,
      "cir": 1951,
      "##ining": 1952,
      "##raid": 1953,
      "branch": 1954,
      "round": 1955,
      "afraid": 1956,
      "##idge": 1957,
      "##que": 1958,
      "##gn": 1959,
      "driver": 1960,
      "relieved": 1961,
      "inter": 1962,
      "##ose": 1963,
      "Ch": 1964,
      "cute": 1965,
      "forever": 1966,
      "##vered": 1967,
      "spoon": 1968,
      "mil": 1969,
      "te": 1970,
      "carry": 1971,
      "Jenny": 1972,
      "ca": 1973,
      "sick": 1974,
      "boun": 1975,
      "##ek": 1976,
      "Tweet": 1977,
      "##ost": 1978,
      "huge": 1979,
      "##ours": 1980,
      "promise": 1981,
      "Good": 1982,
      "patient": 1983,
      "##unt": 1984,
      "touched": 1985,
      "fing": 1986,
      "king": 1987,
      "grab": 1988,
      "letter": 1989,
      "exciting": 1990,
      "birthday": 1991,
      "##ching": 1992,
      "sunny": 1993,
      "cheese": 1994,
      "Of": 1995,
      "bush": 1996,
      "onto": 1997,
      "journey": 1998,
      "days": 1999,
      "laughing": 2000,
      "##board": 2001,
      "##ped": 2002,
      "gigg": 2003,
      "disco": 2004,
      "creature": 2005,
      "band": 2006,
      "imag": 2007,
      "Emily": 2008,
      "ret": 2009,
      "life": 2010,
      "##ittens": 2011,
      "hope": 2012,
      "##oph": 2013,
      "##shine": 2014,
      "bottle": 2015,
      "bread": 2016,
      "shell": 2017,
      "power": 2018,
      "craw": 2019,
      "cozy": 2020,
      "##gged": 2021,
      "kick": 2022,
      "swimming": 2023,
      "inc": 2024,
      "##gg": 2025,
      "wra": 2026,
      "whist": 2027,
      "sharp": 2028,
      "suc": 2029,
      "watching": 2030,
      "mist": 2031,
      "##alm": 2032,
      "retur": 2033,
      "##ness": 2034,
      "instead": 2035,
      "##esting": 2036,
      "eas": 2037,
      "##ten": 2038,
      "milk": 2039,
      "##let": 2040,
      "cave": 2041,
      "accidentally": 2042,
      "sunshine": 2043,
      "##ndp": 2044,
      "spin": 2045,
      "shout": 2046,
      "har": 2047
    }
  }
}