{
  "version": "1.0",
  "truncation": null,
  "padding": null,
  "added_tokens": [
    {
      "id": 0,
      "content": "[PAD]",
      "single_word": false,
      "lstrip": false,
      "rstrip": false,
      "normalized": false,
      "special": true
    },
    {
      "id": 1,
      "content": "[UNK]",
      "single_word": false,
      "lstrip": false,
      "rstrip": false,
      "normalized": false,
      "special": true
    },
    {
      "id": 2,
      "content": "[CLS]",
      "single_word": false,
      "lstrip": false,
      "rstrip": false,
      "normalized": false,
      "special": true
    },
    {
      "id": 3,
      "content": "[SEP]",
      "single_word": false,
      "lstrip": false,
      "rstrip": false,
      "normalized": false,
      "special": true
    },
    {
      "id": 4,
      "content": "[MASK]",
      "single_word": false,
      "lstrip": false,
      "rstrip": false,
      "normalized": false,
      "special": true
    }
  ],
  "normalizer": {
    "type": "BertNormalizer",
    "clean_text": true,
    "handle_chinese_chars": true,
    "strip_accents": null,
    "lowercase": false
  },
  "pre_tokenizer": {
    "type": "BertPreTokenizer"
  },
  "post_processor": {
    "type": "TemplateProcessing",
    "single": [
      {
        "SpecialToken": {
          "id": "[CLS]",
          "type_id": 0
        }
      },
      {
        "Sequence": {
          "id": "A",
          "type_id": 0
        }
      },
      {
        "SpecialToken": {
          "id": "[SEP]",
          "type_id": 0
        }
      }
    ],
    "pair": [
      {
        "SpecialToken": {
          "id": "[CLS]",
          "type_id": 0
        }
      },
      {
        "Sequence": {
          "id": "A",
          "type_id": 0
        }
      },
      {
        "SpecialToken": {
          "id": "[SEP]",
          "type_id": 0
        }
      },
      {
        "Sequence": {
          "id": "B",
          "type_id": 1
        }
      },
      {
        "SpecialToken": {
          "id": "[SEP]",
          "type_id": 1
        }
      }
    ],
    "special_tokens": {
      "[CLS]": {
        "id": "[CLS]",
        "ids": [
          2
        ],
        "tokens": [
          "[CLS]"
        ]
      },
      "[SEP]": {
        "id": "[SEP]",
        "ids": [
          3
        ],
        "tokens": [
          "[SEP]"
        ]
      }
    }
  },
  "decoder": {
    "type": "WordPiece",
    "prefix": "##",
    "cleanup": true
  },
  "model": {
    "type": "WordPiece",
    "unk_token": "[UNK]",
    "continuing_subword_prefix": "##",
    "max_input_chars_per_word": 100,
    "vocab": {
      "[PAD]": 0,
      "[UNK]": 1,
      "[CLS]": 2,
      "[SEP]": 3,
      "[MASK]": 4,
      "!": 5,
      "\"": 6,
      "#": 7,
      "$": 8,
      "%": 9,
      "&": 10,
      "'": 11,
      "(": 12,
      ")": 13,
      "*": 14,
      "+": 15,
      ",": 16,
      "-": 17,
      ".": 18,
      "/": 19,
      "0": 20,
      "1": 21,
      "2": 22,
      "3": 23,
      "4": 24,
      "5": 25,
      "6": 26,
      "7": 27,
      "8": 28,
      "9": 29,
      ":": 30,
      ";": 31,
      "<": 32,
      "=": 33,
      ">": 34,
      "?": 35,
      "A": 36,
      "B": 37,
      "C": 38,
      "D": 39,
      "E": 40,
      "F": 41,
      "G": 42,
      "H": 43,
      "I": 44,
      "J": 45,
      "K": 46,
      "L": 47,
      "M": 48,
      "N": 49,
      "O": 50,
      "P": 51,
      "Q": 52,
      "R": 53,
      "S": 54,
      "T": 55,
      "U": 56,
      "V": 57,
      "W": 58,
      "X": 59,
      "Y": 60,
      "Z": 61,
      "[": 62,
      "\\": 63,
      "]": 64,
      "_": 65,
      "`": 66,
      "a": 67,
      "b": 68,
      "c": 69,
      "d": 70,
      "e": 71,
      "f": 72,
      "g": 73,
      "h": 74,
      "i": 75,
      "j": 76,
      "k": 77,
      "l": 78,
      "m": 79,
      "n": 80,
      "o": 81,
      "p": 82,
      "q": 83,
      "r": 84,
      "s": 85,
      "t": 86,
      "u": 87,
      "v": 88,
      "w": 89,
      "x": 90,
      "y": 91,
      "z": 92,
      "{": 93,
      "}": 94,
      "~": 95,
      "¡": 96,
      "¢": 97,
      "£": 98,
      "¥": 99,
      "¦": 100,
      "§": 101,
      "¨": 102,
      "©": 103,
      "ª": 104,
      "¬": 105,
      "¯": 106,
      "°": 107,
      "±": 108,
      "³": 109,
      "´": 110,
      "·": 111,
      "º": 112,
      "»": 113,
      "¼": 114,
      "¾": 115,
      "¿": 116,
      "Â": 117,
      "Ã": 118,
      "Ä": 119,
      "Å": 120,
      "Ê": 121,
      "á": 122,
      "â": 123,
      "ã": 124,
      "ä": 125,
      "å": 126,
      "æ": 127,
      "ç": 128,
      "è": 129,
      "é": 130,
      "ï": 131,
      "ð": 132,
      "Œ": 133,
      "œ": 134,
      "Š": 135,
      "Ÿ": 136,
      "Ž": 137,
      "ž": 138,
      "ˆ": 139,
      "˜": 140,
      "–": 141,
      "’": 142,
      "‚": 143,
      "“": 144,
      "”": 145,
      "„": 146,
      "‡": 147,
      "•": 148,
      "…": 149,
      "‰": 150,
      "‹": 151,
      "›": 152,
      "€": 153,
      "™": 154,
      "##t": 155,
      "##u": 156,
      "##m": 157,
      "##b": 158,
      "##l": 159,
      "##e": 160,
      "##s": 161,
      "##p": 162,
      "##c": 163,
      "##€": 164,
      "##œ": 165,
      "##Y": 166,
      "##y": 167,
      "##a": 168,
      "##d": 169,
      "##h": 170,
      "##i": 171,
      "##r": 172,
      "##g": 173,
      "##n": 174,
      "##f": 175,
      "##o": 176,
      "##â": 177,
      "##Š": 178,
      "##4": 179,
      "##™": 180,
      "##w": 181,
      "##A": 182,
      "##I": 183,
      "##v": 184,
      "##˜": 185,
      "##W": 186,
      "##¦": 187,
      "##k": 188,
      "##x": 189,
      "##z": 190,
      "##E": 191,
      "##R": 192,
      "##S": 193,
      "##j": 194,
      "##N": 195,
      "##M": 196,
      "##H": 197,
      "##O": 198,
      "##T": 199,
      "##Ã": 200,
      "##±": 201,
      "##0": 202,
      "##B": 203,
      "##3": 204,
      "##J": 205,
      "##L": 206,
      "##G": 207,
      "##F": 208,
      "##q": 209,
      "##C": 210,
      "##D": 211,
      "##P": 212,
      "##1": 213,
      "##©": 214,
      "##2": 215,
      "##Q": 216,
      "##X": 217,
      "##Ÿ": 218,
      "##æ": 219,
      "##ä": 220,
      "##U": 221,
      "##V": 222,
      "##³": 223,
      "##Å": 224,
      "##K": 225,
      "##Â": 226,
      "##´": 227,
      "##Z": 228,
      "##7": 229,
      "##Œ": 230,
      "##ç": 231,
      "##¨": 232,
      "##è": 233,
      "##5": 234,
      "##ï": 235,
      "##¬": 236,
      "##9": 237,
      "##6": 238,
      "##å": 239,
      "##¢": 240,
      "##ˆ": 241,
      "##8": 242,
      "##¾": 243,
      "##¥": 244,
      "##¼": 245,
      "##Ä": 246,
      "##¯": 247,
      "##ã": 248,
      "##é": 249,
      "##º": 250,
      "##£": 251,
      "##ª": 252,
      "##Ž": 253,
      "##ž": 254,
      "##ð": 255,
      "##°": 256,
      "##á": 257,
      "##Ê": 258,
      "##he": 259,
      "##nd": 260,
      "the": 261,
      "##ed": 262,
      "and": 263,
      "##er": 264,
      "to": 265,
      "wa": 266,
      "##ou": 267,
      "##in": 268,
      "##re": 269,
      "was": 270,
      "##om": 271,
      "The": 272,
      "##ay": 273,
      "##ar": 274,
      "##ing": 275,
      "##il": 276,
      "##it": 277,
      "##id": 278,
      "##at": 279,
      "sa": 280,
      "##en": 281,
      "ha": 282,
      "##is": 283,
      "##an": 284,
      "##or": 285,
      "##im": 286,
      "he": 287,
      "##on": 288,
      "it": 289,
      "th": 290,
      "##ut": 291,
      "##ll": 292,
      "##le": 293,
      "her": 294,
      "##et": 295,
      "He": 296,
      "##ot": 297,
      "She": 298,
      "##ir": 299,
      "##es": 300,
      "They": 301,
      "in": 302,
      "##ow": 303,
      "##ck": 304,
      "##ld": 305,
      "##oo": 306,
      "said": 307,
      "##ily": 308,
      "be": 309,
      "##ig": 310,
      "##am": 311,
      "st": 312,
      "##ce": 313,
      "she": 314,
      "##pp": 315,
      "##ith": 316,
      "##ve": 317,
      "with": 318,
      "Lily": 319,
      "On": 320,
      "on": 321,
      "you": 322,
      "of": 323,
      "##ked": 324,
      "##ri": 325,
      "so": 326,
      "his": 327,
      "pl": 328,
      "##ery": 329,
      "##ad": 330,
      "##ke": 331,
      "##nt": 332,
      "day": 333,
      "that": 334,
      "up": 335,
      "play": 336,
      "had": 337,
      "they": 338,
      "##el": 339,
      "mom": 340,
      "for": 341,
      "##st": 342,
      "##un": 343,
      "##ould": 344,
      "##my": 345,
      "##ent": 346,
      "li": 347,
      "##ch": 348,
      "happ": 349,
      "want": 350,
      "##itt": 351,
      "sh": 352,
      "##her": 353,
      "It": 354,
      "do": 355,
      "##ly": 356,
      "not": 357,
      "##ome": 358,
      "very": 359,
      "##se": 360,
      "##ound": 361,
      "##end": 362,
      "##all": 363,
      "wh": 364,
      "##ime": 365,
      "##ittle": 366,
      "time": 367,
      "little": 368,
      "##al": 369,
      "there": 370,
      "ne": 371,
      "##ht": 372,
      "happy": 373,
      "sm": 374,
      "big": 375,
      "is": 376,
      "but": 377,
      "##ra": 378,
      "an": 379,
      "saw": 380,
      "##riend": 381,
      "friend": 382,
      "##ry": 383,
      "as": 384,
      "##ack": 385,
      "One": 386,
      "##ake": 387,
      "re": 388,
      "##ere": 389,
      "Tim": 390,
      "##ter": 391,
      "##ug": 392,
      "loo": 393,
      "##ved": 394,
      "were": 395,
      "Once": 396,
      "lo": 397,
      "##ore": 398,
      "##ec": 399,
      "him": 400,
      "go": 401,
      "too": 402,
      "##ur": 403,
      "bo": 404,
      "##ide": 405,
      "se": 406,
      "##irl": 407,
      "##ver": 408,
      "are": 409,
      "##ard": 410,
      "Tom": 411,
      "wanted": 412,
      "##ill": 413,
      "girl": 414,
      "upon": 415,
      "them": 416,
      "out": 417,
      "at": 418,
      "Ben": 419,
      "their": 420,
      "##fu": 421,
      "sp": 422,
      "##way": 423,
      "##ind": 424,
      "smil": 425,
      "did": 426,
      "could": 427,
      "##hen": 428,
      "have": 429,
      "##ted": 430,
      "##ain": 431,
      "ex": 432,
      "##hed": 433,
      "But": 434,
      "##rom": 435,
      "went": 436,
      "ar": 437,
      "##lp": 438,
      "can": 439,
      "##ic": 440,
      "##ful": 441,
      "##ood": 442,
      "##hing": 443,
      "friends": 444,
      "nam": 445,
      "##ight": 446,
      "all": 447,
      "help": 448,
      "kn": 449,
      "##um": 450,
      "##one": 451,
      "##ark": 452,
      "back": 453,
      "say": 454,
      "fun": 455,
      "cl": 456,
      "You": 457,
      "no": 458,
      "##are": 459,
      "##ear": 460,
      "##very": 461,
      "Timmy": 462,
      "##op": 463,
      "star": 464,
      "smiled": 465,
      "sc": 466,
      "named": 467,
      "al": 468,
      "##oug": 469,
      "loved": 470,
      "##side": 471,
      "man": 472,
      "asked": 473,
      "##elt": 474,
      "##ick": 475,
      "toy": 476,
      "Mom": 477,
      "like": 478,
      "felt": 479,
      "see": 480,
      "looked": 481,
      "some": 482,
      "around": 483,
      "##ep": 484,
      "me": 485,
      "##ame": 486,
      "##omet": 487,
      "fe": 488,
      "ro": 489,
      "br": 490,
      "##ure": 491,
      "bir": 492,
      "##get": 493,
      "would": 494,
      "boy": 495,
      "##ong": 496,
      "##ea": 497,
      "##ss": 498,
      "bird": 499,
      "somet": 500,
      "fa": 501,
      "##dd": 502,
      "##est": 503,
      "##ings": 504,
      "ag": 505,
      "wor": 506,
      "what": 507,
      "##ade": 508,
      "make": 509,
      "##king": 510,
      "##ie": 511,
      "car": 512,
      "##own": 513,
      "tre": 514,
      "ran": 515,
      "##gether": 516,
      "away": 517,
      "##ag": 518,
      "we": 519,
      "Th": 520,
      "says": 521,
      "started": 522,
      "##ice": 523,
      "##oud": 524,
      "made": 525,
      "something": 526,
      "together": 527,
      "##ther": 528,
      "##ited": 529,
      "co": 530,
      "park": 531,
      "sad": 532,
      "other": 533,
      "new": 534,
      "exc": 535,
      "put": 536,
      "from": 537,
      "##out": 538,
      "pr": 539,
      "scar": 540,
      "la": 541,
      "hug": 542,
      "##ble": 543,
      "##ook": 544,
      "mu": 545,
      "again": 546,
      "home": 547,
      "when": 548,
      "good": 549,
      "who": 550,
      "ch": 551,
      "##ried": 552,
      "found": 553,
      "fl": 554,
      "then": 555,
      "dec": 556,
      "##pped": 557,
      "wal": 558,
      "get": 559,
      "playing": 560,
      "##ought": 561,
      "##ach": 562,
      "##pl": 563,
      "##ally": 564,
      "sw": 565,
      "Su": 566,
      "##ous": 567,
      "##nn": 568,
      "things": 569,
      "â€": 570,
      "excited": 571,
      "liked": 572,
      "got": 573,
      "Sam": 574,
      "##uck": 575,
      "##ro": 576,
      "##ided": 577,
      "##as": 578,
      "##ell": 579,
      "bl": 580,
      "decided": 581,
      "Ann": 582,
      "came": 583,
      "every": 584,
      "##ara": 585,
      "your": 586,
      "##ax": 587,
      "one": 588,
      "scared": 589,
      "##ust": 590,
      "dog": 591,
      "down": 592,
      "##ny": 593,
      "##ouse": 594,
      "find": 595,
      "care": 596,
      "bec": 597,
      "than": 598,
      "Sara": 599,
      "feel": 600,
      "We": 601,
      "Anna": 602,
      "ab": 603,
      "dad": 604,
      "my": 605,
      "Max": 606,
      "##ap": 607,
      "look": 608,
      "will": 609,
      "##ist": 610,
      "gr": 611,
      "##nder": 612,
      "gra": 613,
      "##ways": 614,
      "##ess": 615,
      "po": 616,
      "didn": 617,
      "about": 618,
      "always": 619,
      "took": 620,
      "##bb": 621,
      "##ers": 622,
      "mommy": 623,
      "lot": 624,
      "##ned": 625,
      "toys": 626,
      "kne": 627,
      "So": 628,
      "##ise": 629,
      "##ant": 630,
      "bu": 631,
      "old": 632,
      "outside": 633,
      "tree": 634,
      "##ite": 635,
      "##ave": 636,
      "ball": 637,
      "thought": 638,
      "lear": 639,
      "more": 640,
      "##eci": 641,
      "##ened": 642,
      "##ched": 643,
      "ta": 644,
      "ho": 645,
      "##ret": 646,
      "When": 647,
      "##ged": 648,
      "pu": 649,
      "Jo": 650,
      "know": 651,
      "Wh": 652,
      "##to": 653,
      "take": 654,
      "laug": 655,
      "speci": 656,
      "special": 657,
      "sor": 658,
      "cat": 659,
      "##dden": 660,
      "knew": 661,
      "##ty": 662,
      "##ive": 663,
      "##ff": 664,
      "Her": 665,
      "##ia": 666,
      "any": 667,
      "##ddenly": 668,
      "##fter": 669,
      "how": 670,
      "##au": 671,
      "##ue": 672,
      "show": 673,
      "##ma": 674,
      "##ink": 675,
      "Jack": 676,
      "sorry": 677,
      "tw": 678,
      "much": 679,
      "##ish": 680,
      "Every": 681,
      "tr": 682,
      "run": 683,
      "hand": 684,
      "sl": 685,
      "##ven": 686,
      "house": 687,
      "##and": 688,
      "op": 689,
      "or": 690,
      "sk": 691,
      "mo": 692,
      "clo": 693,
      "sun": 694,
      "into": 695,
      "tried": 696,
      "inside": 697,
      "##ate": 698,
      "told": 699,
      "water": 700,
      "this": 701,
      "##ump": 702,
      "en": 703,
      "if": 704,
      "proud": 705,
      "over": 706,
      "couldn": 707,
      "gave": 708,
      "##dy": 709,
      "heard": 710,
      "##ank": 711,
      "never": 712,
      "each": 713,
      "##by": 714,
      "room": 715,
      "expl": 716,
      "eat": 717,
      "Suddenly": 718,
      "##other": 719,
      "##ause": 720,
      "pick": 721,
      "##ion": 722,
      "pret": 723,
      "Mia": 724,
      "played": 725,
      "Then": 726,
      "##ge": 727,
      "##etter": 728,
      "gre": 729,
      "just": 730,
      "hugged": 731,
      "qu": 732,
      "Let": 733,
      "##here": 734,
      "off": 735,
      "wat": 736,
      "com": 737,
      "box": 738,
      "##oth": 739,
      "##our": 740,
      "And": 741,
      "nice": 742,
      "From": 743,
      "because": 744,
      "ra": 745,
      "need": 746,
      "His": 747,
      "str": 748,
      "pe": 749,
      "##ile": 750,
      "many": 751,
      "##fe": 752,
      "##ft": 753,
      "fo": 754,
      "##eep": 755,
      "##uc": 756,
      "jo": 757,
      "bear": 758,
      "small": 759,
      "##sed": 760,
      "##iz": 761,
      "##ving": 762,
      "long": 763,
      "##kes": 764,
      "##gry": 765,
      "##ine": 766,
      "##imal": 767,
      "##em": 768,
      "animal": 769,
      "sn": 770,
      "##ough": 771,
      "That": 772,
      "try": 773,
      "unt": 774,
      "##ild": 775,
      "##ort": 776,
      "##sel": 777,
      "##urt": 778,
      "until": 779,
      "kind": 780,
      "learned": 781,
      "bea": 782,
      "im": 783,
      "love": 784,
      "better": 785,
      "call": 786,
      "flow": 787,
      "end": 788,
      "don": 789,
      "ad": 790,
      "##vent": 791,
      "best": 792,
      "##ning": 793,
      "##ady": 794,
      "##urp": 795,
      "##ream": 796,
      "cle": 797,
      "ma": 798,
      "##ves": 799,
      "##arden": 800,
      "â€œ": 801,
      "garden": 802,
      "fast": 803,
      "cu": 804,
      "careful": 805,
      "Mommy": 806,
      "##lly": 807,
      "beaut": 808,
      "##ber": 809,
      "fi": 810,
      "even": 811,
      "bra": 812,
      "by": 813,
      "##ies": 814,
      "thanked": 815,
      "che": 816,
      "laughed": 817,
      "sky": 818,
      "What": 819,
      "##sh": 820,
      "jump": 821,
      "gl": 822,
      "Yes": 823,
      "loud": 824,
      "##self": 825,
      "##iny": 826,
      "way": 827,
      "beauti": 828,
      "come": 829,
      "##lew": 830,
      "wo": 831,
      "beautiful": 832,
      "list": 833,
      "hard": 834,
      "lots": 835,
      "##ase": 836,
      "Can": 837,
      "fam": 838,
      "animals": 839,
      "still": 840,
      "Joh": 841,
      "hurt": 842,
      "under": 843,
      "let": 844,
      "stay": 845,
      "##wn": 846,
      "both": 847,
      "##hes": 848,
      "safe": 849,
      "##ool": 850,
      "##ct": 851,
      "##be": 852,
      "lea": 853,
      "col": 854,
      "##ree": 855,
      "di": 856,
      "two": 857,
      "bad": 858,
      "book": 859,
      "##ace": 860,
      "##ople": 861,
      "imp": 862,
      "rem": 863,
      "##ane": 864,
      "As": 865,
      "lived": 866,
      "Luc": 867,
      "##kay": 868,
      "Lucy": 869,
      "##ock": 870,
      "walked": 871,
      "##urpr": 872,
      "brave": 873,
      "su": 874,
      "its": 875,
      "should": 876,
      "##ob": 877,
      "surpr": 878,
      "family": 879,
      "##ished": 880,
      "angry": 881,
      "##ept": 882,
      "##ress": 883,
      "people": 884,
      "##igh": 885,
      "flew": 886,
      "Thank": 887,
      "called": 888,
      "After": 889,
      "red": 890,
      "##ip": 891,
      "stor": 892,
      "##eet": 893,
      "soon": 894,
      "fin": 895,
      "##ast": 896,
      "##ect": 897,
      "Dad": 898,
      "kept": 899,
      "##art": 900,
      "##led": 901,
      "John": 902,
      "fore": 903,
      "##fore": 904,
      "dan": 905,
      "fly": 906,
      "share": 907,
      "##xt": 908,
      "le": 909,
      "No": 910,
      "##ised": 911,
      "door": 912,
      "##dded": 913,
      "pic": 914,
      "going": 915,
      "tur": 916,
      "pretty": 917,
      "keep": 918,
      "##â€": 919,
      "now": 920,
      "rock": 921,
      "clean": 922,
      "dra": 923,
      "advent": 924,
      "##ummy": 925,
      "noise": 926,
      "##age": 927,
      "opened": 928,
      "shiny": 929,
      "id": 930,
      "con": 931,
      "idea": 932,
      "wind": 933,
      "cry": 934,
      "doll": 935,
      "before": 936,
      "##illy": 937,
      "real": 938,
      "sto": 939,
      "Sp": 940,
      "##so": 941,
      "explore": 942,
      "ground": 943,
      "also": 944,
      "##les": 945,
      "##ied": 946,
      "far": 947,
      "ey": 948,
      "fr": 949,
      "##â€™": 950,
      "color": 951,
      "nodded": 952,
      "war": 953,
      "feeling": 954,
      "un": 955,
      "Bob": 956,
      "picked": 957,
      "next": 958,
      "##oy": 959,
      "##imb": 960,
      "walking": 961,
      "##thing": 962,
      "##ture": 963,
      "has": 964,
      "climb": 965,
      "##ting": 966,
      "thr": 967,
      "while": 968,
      "bed": 969,
      "smile": 970,
      "adventure": 971,
      "##th": 972,
      "##aybe": 973,
      "##ser": 974,
      "##iced": 975,
      "##ger": 976,
      "##ious": 977,
      "##qu": 978,
      "looking": 979,
      "being": 980,
      "diff": 981,
      "wr": 982,
      "##joy": 983,
      "food": 984,
      "give": 985,
      "picture": 986,
      "think": 987,
      "del": 988,
      "Spot": 989,
      "wait": 990,
      "truck": 991,
      "##ught": 992,
      "eyes": 993,
      "tow": 994,
      "repl": 995,
      "tra": 996,
      "bro": 997,
      "stopped": 998,
      "gi": 999,
      "listen": 1000,
      "after": 1001,
      "bre": 1002,
      "walk": 1003,
      "Do": 1004,
      "vo": 1005,
      "year": 1006,
      "wonder": 1007,
      "great": 1008,
      "##ember": 1009,
      "hands": 1010,
      "Sue": 1011,
      "import": 1012,
      "enjoy": 1013,
      "head": 1014,
      "ever": 1015,
      "##bbit": 1016,
      "flowers": 1017,
      "blue": 1018,
      "noticed": 1019,
      "forest": 1020,
      "own": 1021,
      "near": 1022,
      "app": 1023,
      "dis": 1024,
      "quick": 1025,
      "ac": 1026,
      "##irst": 1027,
      "##ized": 1028,
      "fish": 1029,
      "important": 1030,
      "##able": 1031,
      "remember": 1032,
      "##llow": 1033,
      "sound": 1034,
      "us": 1035,
      "replied": 1036,
      "slide": 1037,
      "##maz": 1038,
      "amaz": 1039,
      "##lease": 1040,
      "watch": 1041,
      "rain": 1042,
      "work": 1043,
      "rabbit": 1044,
      "showed": 1045,
      "okay": 1046,
      "tal": 1047,
      "##gan": 1048,
      "Sarah": 1049,
      "ask": 1050,
      "##bbed": 1051,
      "differ": 1052,
      "ru": 1053,
      "mean": 1054,
      "right": 1055,
      "tou": 1056,
      "##day": 1057,
      "Look": 1058,
      "##bye": 1059,
      "watched": 1060,
      "bright": 1061,
      "follow": 1062,
      "everyone": 1063,
      "strong": 1064,
      "been": 1065,
      "use": 1066,
      "This": 1067,
      "stick": 1068,
      "mor": 1069,
      "quickly": 1070,
      "voice": 1071,
      "##ered": 1072,
      "where": 1073,
      "our": 1074,
      "##ath": 1075,
      "yell": 1076,
      "Jane": 1077,
      "different": 1078,
      "child": 1079,
      "curi": 1080,
      "##ng": 1081,
      "boat": 1082,
      "##ey": 1083,
      "sure": 1084,
      "Maybe": 1085,
      "face": 1086,
      "goodbye": 1087,
      "became": 1088,
      "place": 1089,
      "hop": 1090,
      "am": 1091,
      "high": 1092,
      "##aught": 1093,
      "##ange": 1094,
      "closer": 1095,
      "store": 1096,
      "##oon": 1097,
      "warm": 1098,
      "##unny": 1099,
      "does": 1100,
      "dress": 1101,
      "tea": 1102,
      "##llo": 1103,
      "curious": 1104,
      "mag": 1105,
      "bel": 1106,
      "cook": 1107,
      "forg": 1108,
      "##ila": 1109,
      "tell": 1110,
      "##ndma": 1111,
      "fav": 1112,
      "##ass": 1113,
      "three": 1114,
      "##ount": 1115,
      "ba": 1116,
      "##leep": 1117,
      "Lila": 1118,
      "##co": 1119,
      "night": 1120,
      "open": 1121,
      "cake": 1122,
      "shar": 1123,
      "##more": 1124,
      "block": 1125,
      "anymore": 1126,
      "##iss": 1127,
      "here": 1128,
      "pull": 1129,
      "first": 1130,
      "##itc": 1131,
      "##ull": 1132,
      "##ached": 1133,
      "##ired": 1134,
      "butter": 1135,
      "##imes": 1136,
      "In": 1137,
      "##orn": 1138,
      "pain": 1139,
      "sweet": 1140,
      "grabbed": 1141,
      "kid": 1142,
      "##isy": 1143,
      "only": 1144,
      "mon": 1145,
      "fell": 1146,
      "Everyone": 1147,
      "cont": 1148,
      "jumped": 1149,
      "birds": 1150,
      "glad": 1151,
      "bit": 1152,
      "##itchen": 1153,
      "kitchen": 1154,
      "sand": 1155,
      "sees": 1156,
      "helped": 1157,
      "per": 1158,
      "squ": 1159,
      "Don": 1160,
      "fire": 1161,
      "stop": 1162,
      "##outed": 1163,
      "flo": 1164,
      "Joe": 1165,
      "hear": 1166,
      "happened": 1167,
      "cra": 1168,
      "Tommy": 1169,
      "grass": 1170,
      "bunny": 1171,
      "sing": 1172,
      "tri": 1173,
      "shouted": 1174,
      "story": 1175,
      "##nts": 1176,
      "dr": 1177,
      "##air": 1178,
      "##ppy": 1179,
      "beh": 1180,
      "reached": 1181,
      "yummy": 1182,
      "brother": 1183,
      "realized": 1184,
      "cr": 1185,
      "lady": 1186,
      "mum": 1187,
      "prin": 1188,
      "having": 1189,
      "##ins": 1190,
      "favor": 1191,
      "mess": 1192,
      "learn": 1193,
      "favorite": 1194,
      "cre": 1195,
      "through": 1196,
      "ate": 1197,
      "##ary": 1198,
      "hat": 1199,
      "draw": 1200,
      "soft": 1201,
      "game": 1202,
      "less": 1203,
      "underst": 1204,
      "##zy": 1205,
      "##ather": 1206,
      "pare": 1207,
      "thing": 1208,
      "ready": 1209,
      "really": 1210,
      "pretend": 1211,
      "##where": 1212,
      "began": 1213,
      "world": 1214,
      "##ken": 1215,
      "looks": 1216,
      "##fully": 1217,
      "himself": 1218,
      "pap": 1219,
      "magic": 1220,
      "cut": 1221,
      "done": 1222,
      "making": 1223,
      "Now": 1224,
      "butterf": 1225,
      "rest": 1226,
      "coming": 1227,
      "duck": 1228,
      "##ater": 1229,
      "pond": 1230,
      "why": 1231,
      "kids": 1232,
      "fro": 1233,
      "waved": 1234,
      "prom": 1235,
      "fix": 1236,
      "tired": 1237,
      "worry": 1238,
      "mouse": 1239,
      "cars": 1240,
      "delic": 1241,
      "##olly": 1242,
      "Sally": 1243,
      "Fin": 1244,
      "fill": 1245,
      "flower": 1246,
      "name": 1247,
      "##aisy": 1248,
      "funny": 1249,
      "touch": 1250,
      "catch": 1251,
      "used": 1252,
      "thank": 1253,
      "##eddy": 1254,
      "tast": 1255,
      "seen": 1256,
      "##ient": 1257,
      "##ak": 1258,
      "##bo": 1259,
      "hair": 1260,
      "top": 1261,
      "another": 1262,
      "##rel": 1263,
      "##iver": 1264,
      "parents": 1265,
      "Wow": 1266,
      "cried": 1267,
      "hopped": 1268,
      "##oney": 1269,
      "hold": 1270,
      "cool": 1271,
      "blocks": 1272,
      "doing": 1273,
      "There": 1274,
      "##mer": 1275,
      "surprise": 1276,
      "turn": 1277,
      "green": 1278,
      "##ac": 1279,
      "##ster": 1280,
      "light": 1281,
      "years": 1282,
      "##ation": 1283,
      "lesson": 1284,
      "read": 1285,
      "din": 1286,
      "floor": 1287,
      "dri": 1288,
      "trees": 1289,
      "wood": 1290,
      "full": 1291,
      "worked": 1292,
      "##ards": 1293,
      "running": 1294,
      "window": 1295,
      "dro": 1296,
      "smell": 1297,
      "behind": 1298,
      "dark": 1299,
      "par": 1300,
      "wear": 1301,
      "wished": 1302,
      "likes": 1303,
      "spot": 1304,
      "paper": 1305,
      "##ued": 1306,
      "##ons": 1307,
      "swim": 1308,
      "yellow": 1309,
      "##ely": 1310,
      "sat": 1311,
      "bag": 1312,
      "happily": 1313,
      "##ren": 1314,
      "bow": 1315,
      "##ul": 1316,
      "##andy": 1317,
      "sho": 1318,
      "Em": 1319,
      "Daisy": 1320,
      "sleep": 1321,
      "frog": 1322,
      "surprised": 1323,
      "Jim": 1324,
      "##us": 1325,
      "##ike": 1326,
      "butterfly": 1327,
      "cold": 1328,
      "carefully": 1329,
      "set": 1330,
      "lost": 1331,
      "Benny": 1332,
      "To": 1333,
      "swing": 1334,
      "held": 1335,
      "slow": 1336,
      "##â€™s": 1337,
      "remembered": 1338,
      "##uff": 1339,
      "hole": 1340,
      "ice": 1341,
      "##rew": 1342,
      "needed": 1343,
      "laugh": 1344,
      "At": 1345,
      "perf": 1346,
      "buy": 1347,
      "Gra": 1348,
      "ste": 1349,
      "Billy": 1350,
      "left": 1351,
      "move": 1352,
      "##reed": 1353,
      "tall": 1354,
      "enjoyed": 1355,
      "anything": 1356,
      "wrong": 1357,
      "dream": 1358,
      "arri": 1359,
      "##cess": 1360,
      "Hello": 1361,
      "air": 1362,
      "followed": 1363,
      "fair": 1364,
      "el": 1365,
      "books": 1366,
      "Finally": 1367,
      "##ross": 1368,
      "children": 1369,
      "hun": 1370,
      "delicious": 1371,
      "bus": 1372,
      "please": 1373,
      "table": 1374,
      "Molly": 1375,
      "contin": 1376,
      "dir": 1377,
      "snow": 1378,
      "friendly": 1379,
      "finished": 1380,
      "hot": 1381,
      "herself": 1382,
      "##lf": 1383,
      "##ds": 1384,
      "cream": 1385,
      "##ens": 1386,
      "hill": 1387,
      "Amy": 1388,
      "understand": 1389,
      "close": 1390,
      "##ined": 1391,
      "arrived": 1392,
      "hid": 1393,
      "else": 1394,
      "cast": 1395,
      "baby": 1396,
      "arm": 1397,
      "wonderful": 1398,
      "gent": 1399,
      "might": 1400,
      "forgot": 1401,
      "tight": 1402,
      "yes": 1403,
      "res": 1404,
      "##ield": 1405,
      "Jen": 1406,
      "colors": 1407,
      "bug": 1408,
      "rel": 1409,
      "broken": 1410,
      "build": 1411,
      "##ner": 1412,
      "able": 1413,
      "##av": 1414,
      "sig": 1415,
      "gone": 1416,
      "##ich": 1417,
      "filled": 1418,
      "squir": 1419,
      "wall": 1420,
      "song": 1421,
      "agreed": 1422,
      "mat": 1423,
      "someone": 1424,
      "fur": 1425,
      "gu": 1426,
      "continued": 1427,
      "##room": 1428,
      "creat": 1429,
      "ll": 1430,
      "##asure": 1431,
      "pat": 1432,
      "count": 1433,
      "wants": 1434,
      "##set": 1435,
      "pink": 1436,
      "##ask": 1437,
      "leaves": 1438,
      "squirrel": 1439,
      "enough": 1440,
      "bar": 1441,
      "lion": 1442,
      "##ama": 1443,
      "morning": 1444,
      "Why": 1445,
      "vis": 1446,
      "OK": 1447,
      "moment": 1448,
      "finally": 1449,
      "getting": 1450,
      "stayed": 1451,
      "break": 1452,
      "cookies": 1453,
      "##shed": 1454,
      "##ence": 1455,
      "poin": 1456,
      "##app": 1457,
      "##ance": 1458,
      "beach": 1459,
      "few": 1460,
      "##row": 1461,
      "fight": 1462,
      "sometimes": 1463,
      "scary": 1464,
      "##ced": 1465,
      "##red": 1466,
      "fall": 1467,
      "hungry": 1468,
      "dinner": 1469,
      "turned": 1470,
      "grandma": 1471,
      "wet": 1472,
      "##ries": 1473,
      "##gon": 1474,
      "mother": 1475,
      "makes": 1476,
      "trying": 1477,
      "perfect": 1478,
      "##apped": 1479,
      "amazing": 1480,
      "ju": 1481,
      "pi": 1482,
      "daddy": 1483,
      "others": 1484,
      "castle": 1485,
      "plan": 1486,
      "climbed": 1487,
      "talk": 1488,
      "comp": 1489,
      "##oup": 1490,
      "pictures": 1491,
      "##amp": 1492,
      "##key": 1493,
      "met": 1494,
      "##oom": 1495,
      "mus": 1496,
      "mar": 1497,
      "white": 1498,
      "Jill": 1499,
      "##man": 1500,
      "listened": 1501,
      "balloon": 1502,
      "smiles": 1503,
      "##oring": 1504,
      "clot": 1505,
      "alone": 1506,
      "clothes": 1507,
      "Come": 1508,
      "pol": 1509,
      "##rot": 1510,
      "spl": 1511,
      "tail": 1512,
      "puppy": 1513,
      "##ated": 1514,
      "joy": 1515,
      "deep": 1516,
      "brought": 1517,
      "##ee": 1518,
      "wasn": 1519,
      "sear": 1520,
      "everything": 1521,
      "pet": 1522,
      "strange": 1523,
      "sit": 1524,
      "##der": 1525,
      "##ctor": 1526,
      "spark": 1527,
      "grow": 1528,
      "##elc": 1529,
      "##ister": 1530,
      "woods": 1531,
      "pulled": 1532,
      "start": 1533,
      "##ling": 1534,
      "sail": 1535,
      "won": 1536,
      "##ott": 1537,
      "fox": 1538,
      "asks": 1539,
      "pie": 1540,
      "##sp": 1541,
      "treat": 1542,
      "Daddy": 1543,
      "danger": 1544,
      "ride": 1545,
      "##eter": 1546,
      "roll": 1547,
      "##uffy": 1548,
      "visit": 1549,
      "leave": 1550,
      "Mama": 1551,
      "Oh": 1552,
      "##med": 1553,
      "Soon": 1554,
      "##os": 1555,
      "amazed": 1556,
      "music": 1557,
      "ow": 1558,
      "waited": 1559,
      "##ucky": 1560,
      "##me": 1561,
      "hide": 1562,
      "All": 1563,
      "towards": 1564,
      "##ever": 1565,
      "teddy": 1566,
      "##ang": 1567,
      "pre": 1568,
      "##cy": 1569,
      "##ead": 1570,
      "field": 1571,
      "land": 1572,
      "##ower": 1573,
      "pen": 1574,
      "owner": 1575,
      "flying": 1576,
      "silly": 1577,
      "##zz": 1578,
      "##ained": 1579,
      "shared": 1580,
      "shap": 1581,
      "runs": 1582,
      "##lep": 1583,
      "cloud": 1584,
      "##ugg": 1585,
      "qui": 1586,
      "living": 1587,
      "job": 1588,
      "##ames": 1589,
      "##ol": 1590,
      "##ash": 1591,
      "belie": 1592,
      "lake": 1593,
      "promised": 1594,
      "side": 1595,
      "moral": 1596,
      "##orm": 1597,
      "##igg": 1598,
      "##gs": 1599,
      "##cket": 1600,
      "thinks": 1601,
      "sec": 1602,
      "paint": 1603,
      "Mary": 1604,
      "##ually": 1605,
      "##thy": 1606,
      "sister": 1607,
      "quiet": 1608,
      "race": 1609,
      "##ope": 1610,
      "party": 1611,
      "##ises": 1612,
      "money": 1613,
      "##avy": 1614,
      "Okay": 1615,
      "must": 1616,
      "##cle": 1617,
      "##sw": 1618,
      "worried": 1619,
      "##unch": 1620,
      "answ": 1621,
      "grate": 1622,
      "Just": 1623,
      "colorful": 1624,
      "slowly": 1625,
      "faster": 1626,
      "##eces": 1627,
      "Fl": 1628,
      "bran": 1629,
      "pieces": 1630,
      "Mr": 1631,
      "welc": 1632,
      "bott": 1633,
      "##ix": 1634,
      "pot": 1635,
      "broke": 1636,
      "grateful": 1637,
      "dance": 1638,
      "St": 1639,
      "Sure": 1640,
      "cup": 1641,
      "such": 1642,
      "bigger": 1643,
      "##ze": 1644,
      "train": 1645,
      "cho": 1646,
      "snack": 1647,
      "blank": 1648,
      "reach": 1649,
      "pro": 1650,
      "black": 1651,
      "river": 1652,
      "monster": 1653,
      "join": 1654,
      "##less": 1655,
      "win": 1656,
      "##ased": 1657,
      "blanket": 1658,
      "##eak": 1659,
      "##uit": 1660,
      "treasure": 1661,
      "stu": 1662,
      "candy": 1663,
      "smart": 1664,
      "scream": 1665,
      "magical": 1666,
      "dangerous": 1667,
      "princess": 1668,
      "ear": 1669,
      "bike": 1670,
      "dragon": 1671,
      "across": 1672,
      "helping": 1673,
      "most": 1674,
      "monkey": 1675,
      "Mum": 1676,
      "Jimmy": 1677,
      "everywhere": 1678,
      "##outh": 1679,
      "em": 1680,
      "nap": 1681,
      "pea": 1682,
      "##cked": 1683,
      "mouth": 1684,
      "Grandma": 1685,
      "farmer": 1686,
      "##aw": 1687,
      "disapp": 1688,
      "##icy": 1689,
      "words": 1690,
      "##ming": 1691,
      "##eared": 1692,
      "stre": 1693,
      "stepped": 1694,
      "heavy": 1695,
      "tower": 1696,
      "threw": 1697,
      "dolls": 1698,
      "pass": 1699,
      "dirty": 1700,
      "same": 1701,
      "bite": 1702,
      "twins": 1703,
      "##ored": 1704,
      "##de": 1705,
      "spr": 1706,
      "crying": 1707,
      "##â€™t": 1708,
      "bee": 1709,
      "believe": 1710,
      "bowl": 1711,
      "acc": 1712,
      "##leph": 1713,
      "##ident": 1714,
      "doctor": 1715,
      "##ches": 1716,
      "wouldn": 1717,
      "sign": 1718,
      "bath": 1719,
      "##fort": 1720,
      "heal": 1721,
      "Hi": 1722,
      "hig": 1723,
      "##chool": 1724,
      "##ale": 1725,
      "carrot": 1726,
      "closed": 1727,
      "##bble": 1728,
      "stuck": 1729,
      "min": 1730,
      "buck": 1731,
      "heart": 1732,
      "cour": 1733,
      "att": 1734,
      "plant": 1735,
      "fruit": 1736,
      "brown": 1737,
      "Please": 1738,
      "hoped": 1739,
      "bask": 1740,
      "school": 1741,
      "##iting": 1742,
      "basket": 1743,
      "mix": 1744,
      "##ipped": 1745,
      "Emma": 1746,
      "feels": 1747,
      "chair": 1748,
      "suddenly": 1749,
      "eating": 1750,
      "town": 1751,
      "cray": 1752,
      "##cher": 1753,
      "course": 1754,
      "clapped": 1755,
      "gentle": 1756,
      "fairy": 1757,
      "pack": 1758,
      "butt": 1759,
      "coll": 1760,
      "##pping": 1761,
      "##ventually": 1762,
      "stand": 1763,
      "##ire": 1764,
      "##ors": 1765,
      "drove": 1766,
      "pushed": 1767,
      "##ier": 1768,
      "welcome": 1769,
      "##br": 1770,
      "##issed": 1771,
      "today": 1772,
      "swings": 1773,
      "Inside": 1774,
      "##orrow": 1775,
      "neigh": 1776,
      "without": 1777,
      "higher": 1778,
      "ve": 1779,
      "teacher": 1780,
      "pocket": 1781,
      "neighb": 1782,
      "hit": 1783,
      "free": 1784,
      "â€œI": 1785,
      "pers": 1786,
      "##ord": 1787,
      "ben": 1788,
      "smo": 1789,
      "games": 1790,
      "##ourn": 1791,
      "wings": 1792,
      "piece": 1793,
      "yard": 1794,
      "forget": 1795,
      "cheered": 1796,
      "journ": 1797,
      "corn": 1798,
      "explained": 1799,
      "longer": 1800,
      "##ible": 1801,
      "dry": 1802,
      "accident": 1803,
      "Their": 1804,
      "along": 1805,
      "##umb": 1806,
      "neck": 1807,
      "##ment": 1808,
      "##itting": 1809,
      "noises": 1810,
      "sang": 1811,
      "How": 1812,
      "happen": 1813,
      "inst": 1814,
      "late": 1815,
      "throw": 1816,
      "##ract": 1817,
      "hugs": 1818,
      "turns": 1819,
      "young": 1820,
      "stories": 1821,
      "lon": 1822,
      "miss": 1823,
      "##vel": 1824,
      "shoes": 1825,
      "adventures": 1826,
      "##sc": 1827,
      "lunch": 1828,
      "apple": 1829,
      "singing": 1830,
      "Tw": 1831,
      "##lephant": 1832,
      "well": 1833,
      "##ape": 1834,
      "trou": 1835,
      "upset": 1836,
      "jar": 1837,
      "lonely": 1838,
      "gift": 1839,
      "secret": 1840,
      "Re": 1841,
      "key": 1842,
      "tom": 1843,
      "belong": 1844,
      "##bby": 1845,
      "mine": 1846,
      "street": 1847,
      "dist": 1848,
      "##oun": 1849,
      "Fluffy": 1850,
      "fence": 1851,
      "##ountain": 1852,
      "wish": 1853,
      "plac": 1854,
      "exploring": 1855,
      "Sammy": 1856,
      "elephant": 1857,
      "shook": 1858,
      "moved": 1859,
      "nearby": 1860,
      "##ail": 1861,
      "purp": 1862,
      "Go": 1863,
      "wise": 1864,
      "##ts": 1865,
      "##aughty": 1866,
      "shop": 1867,
      "stars": 1868,
      "soup": 1869,
      "naughty": 1870,
      "owl": 1871,
      "whe": 1872,
      "bring": 1873,
      "##fused": 1874,
      "inv": 1875,
      "caught": 1876,
      "sea": 1877,
      "##ocked": 1878,
      "##bow": 1879,
      "##yard": 1880,
      "bat": 1881,
      "##ward": 1882,
      "ph": 1883,
      "exp": 1884,
      "rocks": 1885,
      "seemed": 1886,
      "##aughter": 1887,
      "backyard": 1888,
      "dropped": 1889,
      "relie": 1890,
      "bucket": 1891,
      "swam": 1892,
      "des": 1893,
      "Be": 1894,
      "Al": 1895,
      "drink": 1896,
      "mail": 1897,
      "##ces": 1898,
      "farm": 1899,
      "purple": 1900,
      "je": 1901,
      "resp": 1902,
      "##ions": 1903,
      "taking": 1904,
      "##sy": 1905,
      "shapes": 1906,
      "though": 1907,
      "##adow": 1908,
      "past": 1909,
      "orange": 1910,
      "woke": 1911,
      "cow": 1912,
      "bench": 1913,
      "##og": 1914,
      "af": 1915,
      "ob": 1916,
      "fit": 1917,
      "##ity": 1918,
      "##ung": 1919,
      "My": 1920,
      "hello": 1921,
      "daughter": 1922,
      "wondered": 1923,
      "sounds": 1924,
      "busy": 1925,
      "Later": 1926,
      "##read": 1927,
      "tiny": 1928,
      "sitting": 1929,
      "nest": 1930,
      "cou": 1931,
      "nose": 1932,
      "rainbow": 1933,
      "mark": 1934,
      "mad": 1935,
      "nothing": 1936,
      "##col": 1937,
      "takes": 1938,
      "##ese": 1939,
      "##fish": 1940,
      "holding": 1941,
      "comes": 1942,
      "##cks": 1943,
      "arms": 1944,
      "##cing": 1945,
      "de": 1946,
      "##thday": 1947,
      "part": 1948,
      "##ceful": 1949,
      "kite": 1950,
      "pig": 1951,
      "##ining": 1952,
      "With": 1953,
      "round": 1954,
      "coat": 1955,
      "juice": 1956,
      "Ell": 1957,
      "cir": 1958,
      "branch": 1959,
      "##raid": 1960,
      "##que": 1961,
      "driver": 1962,
      "afraid": 1963,
      "relieved": 1964,
      "forever": 1965,
      "##gn": 1966,
      "##ose": 1967,
      "##vered": 1968,
      "inter": 1969,
      "##idge": 1970,
      "mil": 1971,
      "cute": 1972,
      "##ost": 1973,
      "te": 1974,
      "##ek": 1975,
      "Tweet": 1976,
      "boun": 1977,
      "ca": 1978,
      "carry": 1979,
      "sick": 1980,
      "promise": 1981,
      "spoon": 1982,
      "Jenny": 1983,
      "king": 1984,
      "letter": 1985,
      "Ch": 1986,
      "huge": 1987,
      "touched": 1988,
      "##ours": 1989,
      "##unt": 1990,
      "Good": 1991,
      "patient": 1992,
      "birthday": 1993,
      "fing": 1994,
      "grab": 1995,
      "exciting": 1996,
      "##ching": 1997,
      "sunny": 1998,
      "Of": 1999,
      "bush": 2000,
      "onto": 2001,
      "cheese": 2002,
      "##ped": 2003,
      "days": 2004,
      "laughing": 2005,
      "band": 2006,
      "disco": 2007,
      "gigg": 2008,
      "##board": 2009,
      "##ittens": 2010,
      "journey": 2011,
      "creature": 2012,
      "imag": 2013,
      "ret": 2014,
      "life": 2015,
      "Emily": 2016,
      "kick": 2017,
      "##shine": 2018,
      "swimming": 2019,
      "bread": 2020,
      "##let": 2021,
      "shell": 2022,
      "cozy": 2023,
      "##gged": 2024,
      "power": 2025,
      "hope": 2026,
      "##oph": 2027,
      "##gg": 2028,
      "sharp": 2029,
      "craw": 2030,
      "mist": 2031,
      "inc": 2032,
      "wra": 2033,
      "bottle": 2034,
      "##ness": 2035,
      "whist": 2036,
      "spin": 2037,
      "suc": 2038,
      "retur": 2039,
      "instead": 2040,
      "##ten": 2041,
      "watching": 2042,
      "accidentally": 2043,
      "##esting": 2044,
      "##alm": 2045,
      "milk": 2046,
      "shout": 2047
    }
  }
}