{
  "version": "1.0",
  "truncation": null,
  "padding": null,
  "added_tokens": [
    {
      "id": 0,
      "content": "[PAD]",
      "single_word": false,
      "lstrip": false,
      "rstrip": false,
      "normalized": false,
      "special": true
    },
    {
      "id": 1,
      "content": "[UNK]",
      "single_word": false,
      "lstrip": false,
      "rstrip": false,
      "normalized": false,
      "special": true
    },
    {
      "id": 2,
      "content": "[CLS]",
      "single_word": false,
      "lstrip": false,
      "rstrip": false,
      "normalized": false,
      "special": true
    },
    {
      "id": 3,
      "content": "[SEP]",
      "single_word": false,
      "lstrip": false,
      "rstrip": false,
      "normalized": false,
      "special": true
    },
    {
      "id": 4,
      "content": "[MASK]",
      "single_word": false,
      "lstrip": false,
      "rstrip": false,
      "normalized": false,
      "special": true
    }
  ],
  "normalizer": {
    "type": "BertNormalizer",
    "clean_text": true,
    "handle_chinese_chars": true,
    "strip_accents": null,
    "lowercase": false
  },
  "pre_tokenizer": {
    "type": "BertPreTokenizer"
  },
  "post_processor": {
    "type": "TemplateProcessing",
    "single": [
      {
        "SpecialToken": {
          "id": "[CLS]",
          "type_id": 0
        }
      },
      {
        "Sequence": {
          "id": "A",
          "type_id": 0
        }
      },
      {
        "SpecialToken": {
          "id": "[SEP]",
          "type_id": 0
        }
      }
    ],
    "pair": [
      {
        "SpecialToken": {
          "id": "[CLS]",
          "type_id": 0
        }
      },
      {
        "Sequence": {
          "id": "A",
          "type_id": 0
        }
      },
      {
        "SpecialToken": {
          "id": "[SEP]",
          "type_id": 0
        }
      },
      {
        "Sequence": {
          "id": "B",
          "type_id": 1
        }
      },
      {
        "SpecialToken": {
          "id": "[SEP]",
          "type_id": 1
        }
      }
    ],
    "special_tokens": {
      "[CLS]": {
        "id": "[CLS]",
        "ids": [
          2
        ],
        "tokens": [
          "[CLS]"
        ]
      },
      "[SEP]": {
        "id": "[SEP]",
        "ids": [
          3
        ],
        "tokens": [
          "[SEP]"
        ]
      }
    }
  },
  "decoder": {
    "type": "WordPiece",
    "prefix": "##",
    "cleanup": true
  },
  "model": {
    "type": "WordPiece",
    "unk_token": "[UNK]",
    "continuing_subword_prefix": "##",
    "max_input_chars_per_word": 100,
    "vocab": {
      "[PAD]": 0,
      "[UNK]": 1,
      "[CLS]": 2,
      "[SEP]": 3,
      "[MASK]": 4,
      "!": 5,
      "\"": 6,
      "#": 7,
      "$": 8,
      "%": 9,
      "&": 10,
      "'": 11,
      "(": 12,
      ")": 13,
      "*": 14,
      "+": 15,
      ",": 16,
      "-": 17,
      ".": 18,
      "/": 19,
      "0": 20,
      "1": 21,
      "2": 22,
      "3": 23,
      "4": 24,
      "5": 25,
      "6": 26,
      "7": 27,
      "8": 28,
      "9": 29,
      ":": 30,
      ";": 31,
      "<": 32,
      "=": 33,
      ">": 34,
      "?": 35,
      "@": 36,
      "A": 37,
      "B": 38,
      "C": 39,
      "D": 40,
      "E": 41,
      "F": 42,
      "G": 43,
      "H": 44,
      "I": 45,
      "J": 46,
      "K": 47,
      "L": 48,
      "M": 49,
      "N": 50,
      "O": 51,
      "P": 52,
      "Q": 53,
      "R": 54,
      "S": 55,
      "T": 56,
      "U": 57,
      "V": 58,
      "W": 59,
      "X": 60,
      "Y": 61,
      "Z": 62,
      "[": 63,
      "\\": 64,
      "]": 65,
      "_": 66,
      "`": 67,
      "a": 68,
      "b": 69,
      "c": 70,
      "d": 71,
      "e": 72,
      "f": 73,
      "g": 74,
      "h": 75,
      "i": 76,
      "j": 77,
      "k": 78,
      "l": 79,
      "m": 80,
      "n": 81,
      "o": 82,
      "p": 83,
      "q": 84,
      "r": 85,
      "s": 86,
      "t": 87,
      "u": 88,
      "v": 89,
      "w": 90,
      "x": 91,
      "y": 92,
      "z": 93,
      "{": 94,
      "|": 95,
      "}": 96,
      "~": 97,
      "¡": 98,
      "¢": 99,
      "£": 100,
      "¤": 101,
      "¦": 102,
      "§": 103,
      "¨": 104,
      "©": 105,
      "ª": 106,
      "¬": 107,
      "¯": 108,
      "°": 109,
      "±": 110,
      "³": 111,
      "´": 112,
      "¶": 113,
      "·": 114,
      "¸": 115,
      "»": 116,
      "½": 117,
      "¿": 118,
      "Â": 119,
      "Ã": 120,
      "Ä": 121,
      "Å": 122,
      "É": 123,
      "Ê": 124,
      "Ò": 125,
      "á": 126,
      "â": 127,
      "ã": 128,
      "î": 129,
      "ï": 130,
      "ð": 131,
      "Œ": 132,
      "œ": 133,
      "Š": 134,
      "Ÿ": 135,
      "Ž": 136,
      "ž": 137,
      "ˆ": 138,
      "˜": 139,
      "–": 140,
      "‘": 141,
      "’": 142,
      "‚": 143,
      "“": 144,
      "”": 145,
      "„": 146,
      "‡": 147,
      "•": 148,
      "…": 149,
      "‰": 150,
      "‹": 151,
      "›": 152,
      "€": 153,
      "™": 154,
      "##e": 155,
      "##c": 156,
      "##o": 157,
      "##v": 158,
      "##r": 159,
      "##a": 160,
      "##l": 161,
      "##k": 162,
      "##p": 163,
      "##s": 164,
      "##m": 165,
      "##g": 166,
      "##i": 167,
      "##n": 168,
      "##t": 169,
      "##0": 170,
      "##y": 171,
      "##u": 172,
      "##f": 173,
      "##b": 174,
      "##d": 175,
      "##h": 176,
      "##â": 177,
      "##€": 178,
      "##™": 179,
      "##w": 180,
      "##q": 181,
      "##œ": 182,
      "##J": 183,
      "##z": 184,
      "##9": 185,
      "##7": 186,
      "##8": 187,
      "##˜": 188,
      "##L": 189,
      "##¦": 190,
      "##S": 191,
      "##I": 192,
      "##A": 193,
      "##U": 194,
      "##P": 195,
      "##Y": 196,
      "##M": 197,
      "##x": 198,
      "##D": 199,
      "##N": 200,
      "##O": 201,
      "##F": 202,
      "##H": 203,
      "##R": 204,
      "##C": 205,
      "##K": 206,
      "##T": 207,
      "##6": 208,
      "##E": 209,
      "##Z": 210,
      "##G": 211,
      "##B": 212,
      "##2": 213,
      "##1": 214,
      "##j": 215,
      "##W": 216,
      "##5": 217,
      "##Š": 218,
      "##Ã": 219,
      "##±": 220,
      "##V": 221,
      "##³": 222,
      "##©": 223,
      "##4": 224,
      "##´": 225,
      "##X": 226,
      "##Â": 227,
      "##Ÿ": 228,
      "##Œ": 229,
      "##ž": 230,
      "##3": 231,
      "##Q": 232,
      "##Ä": 233,
      "##¢": 234,
      "##ª": 235,
      "##°": 236,
      "##ï": 237,
      "##¬": 238,
      "##¨": 239,
      "##ˆ": 240,
      "##á": 241,
      "##Å": 242,
      "##ð": 243,
      "##É": 244,
      "##Ž": 245,
      "##¯": 246,
      "##¤": 247,
      "##¸": 248,
      "##£": 249,
      "##Ê": 250,
      "##Ò": 251,
      "##he": 252,
      "##nd": 253,
      "the": 254,
      "##ed": 255,
      "and": 256,
      "##er": 257,
      "to": 258,
      "wa": 259,
      "##ou": 260,
      "##in": 261,
      "##re": 262,
      "was": 263,
      "##om": 264,
      "The": 265,
      "##ay": 266,
      "##ar": 267,
      "##ing": 268,
      "##il": 269,
      "##it": 270,
      "##id": 271,
      "##at": 272,
      "sa": 273,
      "##en": 274,
      "ha": 275,
      "##is": 276,
      "##an": 277,
      "##or": 278,
      "##im": 279,
      "he": 280,
      "##on": 281,
      "it": 282,
      "th": 283,
      "##ut": 284,
      "##ll": 285,
      "##le": 286,
      "her": 287,
      "##et": 288,
      "He": 289,
      "##ot": 290,
      "She": 291,
      "##ir": 292,
      "##es": 293,
      "They": 294,
      "in": 295,
      "##ow": 296,
      "##ck": 297,
      "##ld": 298,
      "##oo": 299,
      "said": 300,
      "##ily": 301,
      "be": 302,
      "##ig": 303,
      "##am": 304,
      "st": 305,
      "##ce": 306,
      "she": 307,
      "##pp": 308,
      "##ith": 309,
      "##ve": 310,
      "with": 311,
      "Lily": 312,
      "On": 313,
      "on": 314,
      "you": 315,
      "of": 316,
      "##ked": 317,
      "##ri": 318,
      "so": 319,
      "his": 320,
      "pl": 321,
      "##ery": 322,
      "##ad": 323,
      "##ke": 324,
      "##nt": 325,
      "day": 326,
      "that": 327,
      "up": 328,
      "play": 329,
      "had": 330,
      "they": 331,
      "##el": 332,
      "mom": 333,
      "for": 334,
      "##st": 335,
      "##un": 336,
      "##ould": 337,
      "##my": 338,
      "##ent": 339,
      "li": 340,
      "##ch": 341,
      "happ": 342,
      "want": 343,
      "##itt": 344,
      "sh": 345,
      "##her": 346,
      "It": 347,
      "do": 348,
      "##ly": 349,
      "not": 350,
      "##ome": 351,
      "very": 352,
      "##se": 353,
      "##end": 354,
      "##ound": 355,
      "##all": 356,
      "wh": 357,
      "##ime": 358,
      "##ittle": 359,
      "time": 360,
      "little": 361,
      "##al": 362,
      "there": 363,
      "ne": 364,
      "##ht": 365,
      "happy": 366,
      "sm": 367,
      "big": 368,
      "is": 369,
      "but": 370,
      "##ra": 371,
      "an": 372,
      "saw": 373,
      "##riend": 374,
      "friend": 375,
      "as": 376,
      "##ry": 377,
      "##ack": 378,
      "One": 379,
      "##ake": 380,
      "re": 381,
      "##ere": 382,
      "Tim": 383,
      "##ter": 384,
      "##ug": 385,
      "loo": 386,
      "##ved": 387,
      "were": 388,
      "Once": 389,
      "lo": 390,
      "##ore": 391,
      "##ec": 392,
      "him": 393,
      "too": 394,
      "##ur": 395,
      "go": 396,
      "bo": 397,
      "##ide": 398,
      "se": 399,
      "##irl": 400,
      "##ver": 401,
      "are": 402,
      "##ard": 403,
      "wanted": 404,
      "Tom": 405,
      "##ill": 406,
      "girl": 407,
      "upon": 408,
      "out": 409,
      "them": 410,
      "at": 411,
      "Ben": 412,
      "their": 413,
      "##fu": 414,
      "sp": 415,
      "##way": 416,
      "##ind": 417,
      "smil": 418,
      "did": 419,
      "could": 420,
      "##hen": 421,
      "have": 422,
      "##ted": 423,
      "##ain": 424,
      "ex": 425,
      "##hed": 426,
      "But": 427,
      "##rom": 428,
      "went": 429,
      "ar": 430,
      "##lp": 431,
      "can": 432,
      "##ic": 433,
      "##ful": 434,
      "##ood": 435,
      "friends": 436,
      "##hing": 437,
      "nam": 438,
      "##ight": 439,
      "all": 440,
      "help": 441,
      "kn": 442,
      "##um": 443,
      "##one": 444,
      "##ark": 445,
      "back": 446,
      "say": 447,
      "cl": 448,
      "fun": 449,
      "You": 450,
      "no": 451,
      "##are": 452,
      "##ear": 453,
      "##very": 454,
      "Timmy": 455,
      "##op": 456,
      "star": 457,
      "smiled": 458,
      "sc": 459,
      "named": 460,
      "al": 461,
      "##oug": 462,
      "loved": 463,
      "##side": 464,
      "man": 465,
      "##elt": 466,
      "asked": 467,
      "##ick": 468,
      "toy": 469,
      "Mom": 470,
      "like": 471,
      "felt": 472,
      "looked": 473,
      "see": 474,
      "some": 475,
      "around": 476,
      "me": 477,
      "##ep": 478,
      "##ame": 479,
      "##omet": 480,
      "fe": 481,
      "br": 482,
      "ro": 483,
      "##ure": 484,
      "bir": 485,
      "##get": 486,
      "boy": 487,
      "would": 488,
      "##ong": 489,
      "##ss": 490,
      "##ea": 491,
      "bird": 492,
      "somet": 493,
      "fa": 494,
      "##dd": 495,
      "##est": 496,
      "##ings": 497,
      "ag": 498,
      "wor": 499,
      "what": 500,
      "##ade": 501,
      "make": 502,
      "##king": 503,
      "##ie": 504,
      "car": 505,
      "##own": 506,
      "tre": 507,
      "ran": 508,
      "##gether": 509,
      "away": 510,
      "##ag": 511,
      "we": 512,
      "Th": 513,
      "says": 514,
      "started": 515,
      "##ice": 516,
      "##oud": 517,
      "made": 518,
      "together": 519,
      "something": 520,
      "##ther": 521,
      "##ited": 522,
      "park": 523,
      "co": 524,
      "sad": 525,
      "other": 526,
      "new": 527,
      "exc": 528,
      "put": 529,
      "from": 530,
      "##out": 531,
      "pr": 532,
      "la": 533,
      "scar": 534,
      "hug": 535,
      "##ble": 536,
      "mu": 537,
      "again": 538,
      "##ook": 539,
      "home": 540,
      "when": 541,
      "good": 542,
      "who": 543,
      "ch": 544,
      "found": 545,
      "##ried": 546,
      "fl": 547,
      "then": 548,
      "dec": 549,
      "##pped": 550,
      "wal": 551,
      "get": 552,
      "playing": 553,
      "##ought": 554,
      "##ach": 555,
      "##pl": 556,
      "##ally": 557,
      "Su": 558,
      "sw": 559,
      "##ous": 560,
      "##nn": 561,
      "â€": 562,
      "things": 563,
      "excited": 564,
      "liked": 565,
      "got": 566,
      "Sam": 567,
      "##uck": 568,
      "##ro": 569,
      "##ided": 570,
      "##as": 571,
      "##ell": 572,
      "decided": 573,
      "bl": 574,
      "came": 575,
      "every": 576,
      "Ann": 577,
      "##ara": 578,
      "your": 579,
      "##ax": 580,
      "scared": 581,
      "one": 582,
      "##ust": 583,
      "dog": 584,
      "down": 585,
      "##ouse": 586,
      "##ny": 587,
      "find": 588,
      "care": 589,
      "bec": 590,
      "than": 591,
      "Sara": 592,
      "feel": 593,
      "We": 594,
      "Anna": 595,
      "ab": 596,
      "dad": 597,
      "my": 598,
      "Max": 599,
      "look": 600,
      "##ap": 601,
      "will": 602,
      "##ist": 603,
      "gr": 604,
      "##nder": 605,
      "gra": 606,
      "##ways": 607,
      "didn": 608,
      "##ess": 609,
      "po": 610,
      "always": 611,
      "about": 612,
      "took": 613,
      "##bb": 614,
      "##ers": 615,
      "lot": 616,
      "mommy": 617,
      "##ned": 618,
      "kne": 619,
      "toys": 620,
      "So": 621,
      "##ant": 622,
      "##ise": 623,
      "bu": 624,
      "old": 625,
      "tree": 626,
      "##ite": 627,
      "outside": 628,
      "##ave": 629,
      "thought": 630,
      "lear": 631,
      "ball": 632,
      "more": 633,
      "##eci": 634,
      "##ened": 635,
      "##ched": 636,
      "ta": 637,
      "ho": 638,
      "##ret": 639,
      "When": 640,
      "##ged": 641,
      "pu": 642,
      "know": 643,
      "Jo": 644,
      "Wh": 645,
      "##to": 646,
      "laug": 647,
      "take": 648,
      "sor": 649,
      "speci": 650,
      "special": 651,
      "cat": 652,
      "##dden": 653,
      "knew": 654,
      "##ty": 655,
      "##ive": 656,
      "##ff": 657,
      "Her": 658,
      "##ia": 659,
      "##ddenly": 660,
      "any": 661,
      "##fter": 662,
      "how": 663,
      "##au": 664,
      "##ue": 665,
      "show": 666,
      "##ma": 667,
      "##ink": 668,
      "Jack": 669,
      "sorry": 670,
      "tw": 671,
      "much": 672,
      "Every": 673,
      "tr": 674,
      "run": 675,
      "##ish": 676,
      "hand": 677,
      "sl": 678,
      "house": 679,
      "##and": 680,
      "##ven": 681,
      "or": 682,
      "op": 683,
      "sk": 684,
      "mo": 685,
      "clo": 686,
      "sun": 687,
      "into": 688,
      "tried": 689,
      "inside": 690,
      "##ate": 691,
      "told": 692,
      "this": 693,
      "water": 694,
      "en": 695,
      "if": 696,
      "##ump": 697,
      "proud": 698,
      "##dy": 699,
      "over": 700,
      "couldn": 701,
      "heard": 702,
      "gave": 703,
      "##ank": 704,
      "never": 705,
      "each": 706,
      "##by": 707,
      "room": 708,
      "expl": 709,
      "Suddenly": 710,
      "eat": 711,
      "##other": 712,
      "##ause": 713,
      "pick": 714,
      "##ion": 715,
      "pret": 716,
      "played": 717,
      "Mia": 718,
      "Then": 719,
      "##ge": 720,
      "##etter": 721,
      "just": 722,
      "gre": 723,
      "hugged": 724,
      "qu": 725,
      "Let": 726,
      "##here": 727,
      "off": 728,
      "com": 729,
      "wat": 730,
      "##oth": 731,
      "box": 732,
      "##our": 733,
      "From": 734,
      "nice": 735,
      "And": 736,
      "ra": 737,
      "because": 738,
      "need": 739,
      "His": 740,
      "str": 741,
      "pe": 742,
      "##ile": 743,
      "##fe": 744,
      "many": 745,
      "##ft": 746,
      "fo": 747,
      "jo": 748,
      "##eep": 749,
      "bear": 750,
      "##uc": 751,
      "small": 752,
      "##sed": 753,
      "##iz": 754,
      "##ving": 755,
      "long": 756,
      "##ine": 757,
      "##gry": 758,
      "##em": 759,
      "##imal": 760,
      "##kes": 761,
      "animal": 762,
      "sn": 763,
      "##ough": 764,
      "That": 765,
      "try": 766,
      "unt": 767,
      "##ort": 768,
      "##ild": 769,
      "##sel": 770,
      "##urt": 771,
      "until": 772,
      "kind": 773,
      "learned": 774,
      "im": 775,
      "bea": 776,
      "better": 777,
      "love": 778,
      "call": 779,
      "flow": 780,
      "don": 781,
      "end": 782,
      "ad": 783,
      "best": 784,
      "##vent": 785,
      "##ning": 786,
      "##urp": 787,
      "##ady": 788,
      "##ream": 789,
      "cle": 790,
      "##ves": 791,
      "ma": 792,
      "â€œ": 793,
      "##arden": 794,
      "garden": 795,
      "cu": 796,
      "##lly": 797,
      "fast": 798,
      "##ber": 799,
      "careful": 800,
      "beaut": 801,
      "Mommy": 802,
      "fi": 803,
      "even": 804,
      "by": 805,
      "bra": 806,
      "thanked": 807,
      "che": 808,
      "laughed": 809,
      "##ies": 810,
      "##sh": 811,
      "What": 812,
      "sky": 813,
      "jump": 814,
      "Yes": 815,
      "gl": 816,
      "loud": 817,
      "##self": 818,
      "##iny": 819,
      "way": 820,
      "beauti": 821,
      "come": 822,
      "wo": 823,
      "##lew": 824,
      "beautiful": 825,
      "list": 826,
      "lots": 827,
      "hard": 828,
      "##ase": 829,
      "Can": 830,
      "animals": 831,
      "still": 832,
      "fam": 833,
      "Joh": 834,
      "hurt": 835,
      "under": 836,
      "let": 837,
      "stay": 838,
      "##wn": 839,
      "both": 840,
      "##hes": 841,
      "safe": 842,
      "##ct": 843,
      "##ool": 844,
      "##be": 845,
      "col": 846,
      "##ree": 847,
      "lea": 848,
      "di": 849,
      "two": 850,
      "bad": 851,
      "imp": 852,
      "##ace": 853,
      "book": 854,
      "rem": 855,
      "##ople": 856,
      "As": 857,
      "lived": 858,
      "##ane": 859,
      "##kay": 860,
      "Luc": 861,
      "Lucy": 862,
      "walked": 863,
      "##ock": 864,
      "su": 865,
      "##urpr": 866,
      "should": 867,
      "brave": 868,
      "its": 869,
      "##ob": 870,
      "surpr": 871,
      "angry": 872,
      "##ished": 873,
      "family": 874,
      "##ept": 875,
      "##igh": 876,
      "##ress": 877,
      "flew": 878,
      "people": 879,
      "After": 880,
      "called": 881,
      "Thank": 882,
      "red": 883,
      "stor": 884,
      "##ip": 885,
      "##eet": 886,
      "soon": 887,
      "fin": 888,
      "##ast": 889,
      "##led": 890,
      "##ect": 891,
      "kept": 892,
      "##art": 893,
      "John": 894,
      "Dad": 895,
      "fore": 896,
      "##fore": 897,
      "dan": 898,
      "fly": 899,
      "share": 900,
      "##xt": 901,
      "##ised": 902,
      "le": 903,
      "No": 904,
      "pic": 905,
      "##dded": 906,
      "door": 907,
      "going": 908,
      "tur": 909,
      "keep": 910,
      "pretty": 911,
      "##â€": 912,
      "now": 913,
      "clean": 914,
      "rock": 915,
      "dra": 916,
      "##ummy": 917,
      "advent": 918,
      "noise": 919,
      "##age": 920,
      "shiny": 921,
      "opened": 922,
      "wind": 923,
      "doll": 924,
      "con": 925,
      "id": 926,
      "before": 927,
      "cry": 928,
      "idea": 929,
      "real": 930,
      "##illy": 931,
      "sto": 932,
      "Sp": 933,
      "##so": 934,
      "explore": 935,
      "ground": 936,
      "far": 937,
      "also": 938,
      "##les": 939,
      "##ied": 940,
      "ey": 941,
      "fr": 942,
      "##â€™": 943,
      "color": 944,
      "war": 945,
      "nodded": 946,
      "feeling": 947,
      "##imb": 948,
      "picked": 949,
      "Bob": 950,
      "un": 951,
      "##oy": 952,
      "walking": 953,
      "next": 954,
      "##thing": 955,
      "##ture": 956,
      "climb": 957,
      "##ting": 958,
      "thr": 959,
      "has": 960,
      "while": 961,
      "bed": 962,
      "smile": 963,
      "adventure": 964,
      "##th": 965,
      "##aybe": 966,
      "##ser": 967,
      "##iced": 968,
      "##ger": 969,
      "##qu": 970,
      "##ious": 971,
      "being": 972,
      "looking": 973,
      "diff": 974,
      "wr": 975,
      "food": 976,
      "##joy": 977,
      "picture": 978,
      "give": 979,
      "think": 980,
      "Spot": 981,
      "truck": 982,
      "del": 983,
      "wait": 984,
      "eyes": 985,
      "##ught": 986,
      "tow": 987,
      "bro": 988,
      "repl": 989,
      "stopped": 990,
      "tra": 991,
      "gi": 992,
      "listen": 993,
      "after": 994,
      "Do": 995,
      "walk": 996,
      "bre": 997,
      "vo": 998,
      "great": 999,
      "year": 1000,
      "wonder": 1001,
      "##ember": 1002,
      "Sue": 1003,
      "hands": 1004,
      "head": 1005,
      "import": 1006,
      "enjoy": 1007,
      "flowers": 1008,
      "##bbit": 1009,
      "ever": 1010,
      "forest": 1011,
      "blue": 1012,
      "noticed": 1013,
      "near": 1014,
      "own": 1015,
      "app": 1016,
      "dis": 1017,
      "ac": 1018,
      "##ized": 1019,
      "##irst": 1020,
      "quick": 1021,
      "important": 1022,
      "remember": 1023,
      "##able": 1024,
      "fish": 1025,
      "sound": 1026,
      "##llow": 1027,
      "slide": 1028,
      "us": 1029,
      "replied": 1030,
      "##maz": 1031,
      "amaz": 1032,
      "watch": 1033,
      "##lease": 1034,
      "rabbit": 1035,
      "work": 1036,
      "rain": 1037,
      "okay": 1038,
      "showed": 1039,
      "##gan": 1040,
      "tal": 1041,
      "Sarah": 1042,
      "##bbed": 1043,
      "differ": 1044,
      "ask": 1045,
      "ru": 1046,
      "mean": 1047,
      "tou": 1048,
      "right": 1049,
      "##day": 1050,
      "bright": 1051,
      "##bye": 1052,
      "Look": 1053,
      "watched": 1054,
      "follow": 1055,
      "everyone": 1056,
      "strong": 1057,
      "been": 1058,
      "This": 1059,
      "use": 1060,
      "mor": 1061,
      "stick": 1062,
      "voice": 1063,
      "##ath": 1064,
      "##ered": 1065,
      "quickly": 1066,
      "our": 1067,
      "where": 1068,
      "yell": 1069,
      "Jane": 1070,
      "different": 1071,
      "child": 1072,
      "##ng": 1073,
      "curi": 1074,
      "boat": 1075,
      "sure": 1076,
      "##ey": 1077,
      "Maybe": 1078,
      "goodbye": 1079,
      "became": 1080,
      "face": 1081,
      "place": 1082,
      "hop": 1083,
      "##ange": 1084,
      "high": 1085,
      "am": 1086,
      "##aught": 1087,
      "store": 1088,
      "##unny": 1089,
      "closer": 1090,
      "warm": 1091,
      "tea": 1092,
      "##oon": 1093,
      "does": 1094,
      "dress": 1095,
      "mag": 1096,
      "##llo": 1097,
      "curious": 1098,
      "bel": 1099,
      "##ila": 1100,
      "cook": 1101,
      "forg": 1102,
      "fav": 1103,
      "##ass": 1104,
      "##ndma": 1105,
      "tell": 1106,
      "three": 1107,
      "##ount": 1108,
      "ba": 1109,
      "##leep": 1110,
      "Lila": 1111,
      "night": 1112,
      "##co": 1113,
      "open": 1114,
      "shar": 1115,
      "here": 1116,
      "cake": 1117,
      "##more": 1118,
      "anymore": 1119,
      "first": 1120,
      "block": 1121,
      "##ull": 1122,
      "##ached": 1123,
      "pull": 1124,
      "##iss": 1125,
      "##itc": 1126,
      "butter": 1127,
      "##ired": 1128,
      "##imes": 1129,
      "##orn": 1130,
      "In": 1131,
      "sweet": 1132,
      "pain": 1133,
      "kid": 1134,
      "grabbed": 1135,
      "##isy": 1136,
      "mon": 1137,
      "only": 1138,
      "fell": 1139,
      "Everyone": 1140,
      "cont": 1141,
      "birds": 1142,
      "jumped": 1143,
      "bit": 1144,
      "glad": 1145,
      "sand": 1146,
      "##itchen": 1147,
      "kitchen": 1148,
      "fire": 1149,
      "helped": 1150,
      "squ": 1151,
      "per": 1152,
      "sees": 1153,
      "flo": 1154,
      "stop": 1155,
      "Don": 1156,
      "hear": 1157,
      "##outed": 1158,
      "happened": 1159,
      "cra": 1160,
      "grass": 1161,
      "bunny": 1162,
      "sing": 1163,
      "Joe": 1164,
      "story": 1165,
      "##nts": 1166,
      "dr": 1167,
      "shouted": 1168,
      "tri": 1169,
      "Tommy": 1170,
      "##air": 1171,
      "brother": 1172,
      "reached": 1173,
      "beh": 1174,
      "yummy": 1175,
      "realized": 1176,
      "##ppy": 1177,
      "mum": 1178,
      "cr": 1179,
      "lady": 1180,
      "having": 1181,
      "prin": 1182,
      "favor": 1183,
      "##ins": 1184,
      "through": 1185,
      "favorite": 1186,
      "learn": 1187,
      "mess": 1188,
      "cre": 1189,
      "draw": 1190,
      "hat": 1191,
      "game": 1192,
      "ate": 1193,
      "less": 1194,
      "underst": 1195,
      "soft": 1196,
      "##ary": 1197,
      "pare": 1198,
      "##zy": 1199,
      "thing": 1200,
      "really": 1201,
      "ready": 1202,
      "##ather": 1203,
      "began": 1204,
      "pretend": 1205,
      "##where": 1206,
      "world": 1207,
      "##ken": 1208,
      "looks": 1209,
      "magic": 1210,
      "himself": 1211,
      "##fully": 1212,
      "butterf": 1213,
      "pap": 1214,
      "Now": 1215,
      "done": 1216,
      "cut": 1217,
      "making": 1218,
      "##ater": 1219,
      "coming": 1220,
      "rest": 1221,
      "why": 1222,
      "kids": 1223,
      "waved": 1224,
      "duck": 1225,
      "pond": 1226,
      "prom": 1227,
      "fro": 1228,
      "tired": 1229,
      "mouse": 1230,
      "##olly": 1231,
      "fix": 1232,
      "worry": 1233,
      "fill": 1234,
      "delic": 1235,
      "cars": 1236,
      "name": 1237,
      "##eddy": 1238,
      "Fin": 1239,
      "##aisy": 1240,
      "touch": 1241,
      "flower": 1242,
      "Sally": 1243,
      "catch": 1244,
      "funny": 1245,
      "thank": 1246,
      "seen": 1247,
      "used": 1248,
      "tast": 1249,
      "##bo": 1250,
      "##ient": 1251,
      "hair": 1252,
      "parents": 1253,
      "top": 1254,
      "##rel": 1255,
      "another": 1256,
      "##ak": 1257,
      "hold": 1258,
      "Wow": 1259,
      "hopped": 1260,
      "cried": 1261,
      "##iver": 1262,
      "##oney": 1263,
      "There": 1264,
      "cool": 1265,
      "##mer": 1266,
      "blocks": 1267,
      "doing": 1268,
      "surprise": 1269,
      "##ster": 1270,
      "##ac": 1271,
      "turn": 1272,
      "green": 1273,
      "light": 1274,
      "years": 1275,
      "lesson": 1276,
      "##ation": 1277,
      "read": 1278,
      "floor": 1279,
      "din": 1280,
      "dri": 1281,
      "wood": 1282,
      "##ards": 1283,
      "running": 1284,
      "window": 1285,
      "worked": 1286,
      "full": 1287,
      "trees": 1288,
      "smell": 1289,
      "par": 1290,
      "dro": 1291,
      "spot": 1292,
      "wear": 1293,
      "dark": 1294,
      "behind": 1295,
      "##andy": 1296,
      "wished": 1297,
      "likes": 1298,
      "##ons": 1299,
      "##ued": 1300,
      "paper": 1301,
      "yellow": 1302,
      "happily": 1303,
      "sho": 1304,
      "bag": 1305,
      "##ely": 1306,
      "bow": 1307,
      "##ul": 1308,
      "Daisy": 1309,
      "sat": 1310,
      "swim": 1311,
      "##ren": 1312,
      "Em": 1313,
      "sleep": 1314,
      "surprised": 1315,
      "frog": 1316,
      "butterfly": 1317,
      "Benny": 1318,
      "##us": 1319,
      "##ike": 1320,
      "Jim": 1321,
      "carefully": 1322,
      "set": 1323,
      "##uff": 1324,
      "##â€™s": 1325,
      "slow": 1326,
      "remembered": 1327,
      "swing": 1328,
      "lost": 1329,
      "cold": 1330,
      "held": 1331,
      "To": 1332,
      "laugh": 1333,
      "hole": 1334,
      "needed": 1335,
      "At": 1336,
      "ice": 1337,
      "##rew": 1338,
      "buy": 1339,
      "perf": 1340,
      "Gra": 1341,
      "left": 1342,
      "ste": 1343,
      "##reed": 1344,
      "Billy": 1345,
      "move": 1346,
      "tall": 1347,
      "enjoyed": 1348,
      "##cess": 1349,
      "dream": 1350,
      "anything": 1351,
      "Hello": 1352,
      "wrong": 1353,
      "fair": 1354,
      "arri": 1355,
      "air": 1356,
      "followed": 1357,
      "Finally": 1358,
      "books": 1359,
      "el": 1360,
      "##ross": 1361,
      "children": 1362,
      "hun": 1363,
      "Molly": 1364,
      "delicious": 1365,
      "bus": 1366,
      "please": 1367,
      "finished": 1368,
      "contin": 1369,
      "friendly": 1370,
      "table": 1371,
      "##ds": 1372,
      "dir": 1373,
      "herself": 1374,
      "hot": 1375,
      "Amy": 1376,
      "##lf": 1377,
      "snow": 1378,
      "##ens": 1379,
      "hill": 1380,
      "understand": 1381,
      "close": 1382,
      "cream": 1383,
      "##ined": 1384,
      "hid": 1385,
      "baby": 1386,
      "arrived": 1387,
      "wonderful": 1388,
      "might": 1389,
      "else": 1390,
      "arm": 1391,
      "cast": 1392,
      "gent": 1393,
      "res": 1394,
      "##ield": 1395,
      "tight": 1396,
      "yes": 1397,
      "forgot": 1398,
      "rel": 1399,
      "sig": 1400,
      "colors": 1401,
      "bug": 1402,
      "Jen": 1403,
      "build": 1404,
      "broken": 1405,
      "##ner": 1406,
      "able": 1407,
      "gone": 1408,
      "##av": 1409,
      "##ich": 1410,
      "song": 1411,
      "filled": 1412,
      "wall": 1413,
      "squir": 1414,
      "agreed": 1415,
      "someone": 1416,
      "mat": 1417,
      "fur": 1418,
      "gu": 1419,
      "continued": 1420,
      "##room": 1421,
      "creat": 1422,
      "ll": 1423,
      "pat": 1424,
      "##asure": 1425,
      "count": 1426,
      "##set": 1427,
      "squirrel": 1428,
      "wants": 1429,
      "leaves": 1430,
      "pink": 1431,
      "bar": 1432,
      "##ask": 1433,
      "enough": 1434,
      "lion": 1435,
      "##ama": 1436,
      "morning": 1437,
      "Why": 1438,
      "vis": 1439,
      "moment": 1440,
      "finally": 1441,
      "OK": 1442,
      "getting": 1443,
      "stayed": 1444,
      "cookies": 1445,
      "break": 1446,
      "##shed": 1447,
      "##ence": 1448,
      "##ance": 1449,
      "##app": 1450,
      "poin": 1451,
      "beach": 1452,
      "sometimes": 1453,
      "fight": 1454,
      "scary": 1455,
      "few": 1456,
      "##row": 1457,
      "##ries": 1458,
      "##ced": 1459,
      "hungry": 1460,
      "fall": 1461,
      "##red": 1462,
      "turned": 1463,
      "dinner": 1464,
      "mother": 1465,
      "ju": 1466,
      "grandma": 1467,
      "##gon": 1468,
      "##apped": 1469,
      "wet": 1470,
      "trying": 1471,
      "amazing": 1472,
      "pi": 1473,
      "perfect": 1474,
      "makes": 1475,
      "plan": 1476,
      "daddy": 1477,
      "others": 1478,
      "climbed": 1479,
      "pictures": 1480,
      "##oup": 1481,
      "talk": 1482,
      "castle": 1483,
      "##key": 1484,
      "comp": 1485,
      "mus": 1486,
      "##amp": 1487,
      "Jill": 1488,
      "mar": 1489,
      "met": 1490,
      "white": 1491,
      "listened": 1492,
      "smiles": 1493,
      "##oring": 1494,
      "##oom": 1495,
      "clot": 1496,
      "##man": 1497,
      "Come": 1498,
      "pol": 1499,
      "clothes": 1500,
      "alone": 1501,
      "tail": 1502,
      "joy": 1503,
      "spl": 1504,
      "puppy": 1505,
      "balloon": 1506,
      "##ated": 1507,
      "##rot": 1508,
      "##ee": 1509,
      "wasn": 1510,
      "brought": 1511,
      "everything": 1512,
      "deep": 1513,
      "##ctor": 1514,
      "pet": 1515,
      "##ister": 1516,
      "sear": 1517,
      "grow": 1518,
      "spark": 1519,
      "sit": 1520,
      "strange": 1521,
      "##elc": 1522,
      "pulled": 1523,
      "woods": 1524,
      "##ott": 1525,
      "##der": 1526,
      "start": 1527,
      "##ling": 1528,
      "sail": 1529,
      "won": 1530,
      "##sp": 1531,
      "##eter": 1532,
      "ride": 1533,
      "asks": 1534,
      "treat": 1535,
      "##uffy": 1536,
      "fox": 1537,
      "danger": 1538,
      "pie": 1539,
      "Daddy": 1540,
      "roll": 1541,
      "visit": 1542,
      "##med": 1543,
      "##os": 1544,
      "leave": 1545,
      "Mama": 1546,
      "Oh": 1547,
      "Soon": 1548,
      "music": 1549,
      "##ucky": 1550,
      "ow": 1551,
      "teddy": 1552,
      "amazed": 1553,
      "##me": 1554,
      "waited": 1555,
      "hide": 1556,
      "towards": 1557,
      "All": 1558,
      "##ever": 1559,
      "field": 1560,
      "##ang": 1561,
      "##ower": 1562,
      "pre": 1563,
      "##ead": 1564,
      "land": 1565,
      "##lep": 1566,
      "flying": 1567,
      "##cy": 1568,
      "pen": 1569,
      "shared": 1570,
      "owner": 1571,
      "silly": 1572,
      "runs": 1573,
      "##zz": 1574,
      "##ained": 1575,
      "belie": 1576,
      "##ugg": 1577,
      "qui": 1578,
      "cloud": 1579,
      "##ames": 1580,
      "living": 1581,
      "job": 1582,
      "shap": 1583,
      "##ash": 1584,
      "promised": 1585,
      "##igg": 1586,
      "moral": 1587,
      "##orm": 1588,
      "##gs": 1589,
      "side": 1590,
      "##ol": 1591,
      "##cket": 1592,
      "lake": 1593,
      "sister": 1594,
      "paint": 1595,
      "thinks": 1596,
      "party": 1597,
      "##ually": 1598,
      "sec": 1599,
      "##thy": 1600,
      "quiet": 1601,
      "race": 1602,
      "Mary": 1603,
      "##ope": 1604,
      "##ises": 1605,
      "must": 1606,
      "money": 1607,
      "##avy": 1608,
      "Okay": 1609,
      "worried": 1610,
      "##sw": 1611,
      "##cle": 1612,
      "answ": 1613,
      "Fl": 1614,
      "##unch": 1615,
      "bott": 1616,
      "##eces": 1617,
      "slowly": 1618,
      "Just": 1619,
      "bran": 1620,
      "grate": 1621,
      "faster": 1622,
      "pot": 1623,
      "pieces": 1624,
      "dance": 1625,
      "Mr": 1626,
      "colorful": 1627,
      "welc": 1628,
      "cup": 1629,
      "broke": 1630,
      "Sure": 1631,
      "grateful": 1632,
      "##ze": 1633,
      "such": 1634,
      "bigger": 1635,
      "St": 1636,
      "##ix": 1637,
      "snack": 1638,
      "train": 1639,
      "blank": 1640,
      "reach": 1641,
      "cho": 1642,
      "pro": 1643,
      "monster": 1644,
      "river": 1645,
      "candy": 1646,
      "win": 1647,
      "join": 1648,
      "##less": 1649,
      "##uit": 1650,
      "black": 1651,
      "smart": 1652,
      "##ased": 1653,
      "blanket": 1654,
      "treasure": 1655,
      "scream": 1656,
      "stu": 1657,
      "pea": 1658,
      "magical": 1659,
      "ear": 1660,
      "princess": 1661,
      "bike": 1662,
      "dangerous": 1663,
      "Mum": 1664,
      "everywhere": 1665,
      "dragon": 1666,
      "across": 1667,
      "helping": 1668,
      "nap": 1669,
      "em": 1670,
      "monkey": 1671,
      "Grandma": 1672,
      "farmer": 1673,
      "most": 1674,
      "##eak": 1675,
      "##aw": 1676,
      "##outh": 1677,
      "##cked": 1678,
      "mouth": 1679,
      "disapp": 1680,
      "Jimmy": 1681,
      "words": 1682,
      "##icy": 1683,
      "##eared": 1684,
      "stre": 1685,
      "##leph": 1686,
      "dolls": 1687,
      "tower": 1688,
      "##ming": 1689,
      "bite": 1690,
      "stepped": 1691,
      "pass": 1692,
      "heavy": 1693,
      "same": 1694,
      "threw": 1695,
      "believe": 1696,
      "bee": 1697,
      "##de": 1698,
      "spr": 1699,
      "twins": 1700,
      "bowl": 1701,
      "crying": 1702,
      "dirty": 1703,
      "doctor": 1704,
      "sign": 1705,
      "##ored": 1706,
      "##â€™t": 1707,
      "acc": 1708,
      "##ident": 1709,
      "##chool": 1710,
      "##ches": 1711,
      "Hi": 1712,
      "wouldn": 1713,
      "bath": 1714,
      "##fort": 1715,
      "heal": 1716,
      "##bble": 1717,
      "##ale": 1718,
      "hig": 1719,
      "closed": 1720,
      "heart": 1721,
      "carrot": 1722,
      "fruit": 1723,
      "stuck": 1724,
      "cour": 1725,
      "school": 1726,
      "buck": 1727,
      "plant": 1728,
      "Please": 1729,
      "att": 1730,
      "min": 1731,
      "brown": 1732,
      "##ipped": 1733,
      "hoped": 1734,
      "suddenly": 1735,
      "##iting": 1736,
      "Emma": 1737,
      "chair": 1738,
      "feels": 1739,
      "cray": 1740,
      "bask": 1741,
      "mix": 1742,
      "eating": 1743,
      "basket": 1744,
      "town": 1745,
      "##cher": 1746,
      "clapped": 1747,
      "course": 1748,
      "fairy": 1749,
      "##pping": 1750,
      "gentle": 1751,
      "##ventually": 1752,
      "coll": 1753,
      "butt": 1754,
      "stand": 1755,
      "pack": 1756,
      "##ier": 1757,
      "drove": 1758,
      "##ire": 1759,
      "pushed": 1760,
      "##ors": 1761,
      "welcome": 1762,
      "##br": 1763,
      "ve": 1764,
      "##issed": 1765,
      "Inside": 1766,
      "neigh": 1767,
      "swings": 1768,
      "today": 1769,
      "##orrow": 1770,
      "higher": 1771,
      "without": 1772,
      "pocket": 1773,
      "teacher": 1774,
      "pers": 1775,
      "â€œI": 1776,
      "hit": 1777,
      "neighb": 1778,
      "free": 1779,
      "piece": 1780,
      "smo": 1781,
      "##ourn": 1782,
      "games": 1783,
      "cheered": 1784,
      "journ": 1785,
      "ben": 1786,
      "yard": 1787,
      "longer": 1788,
      "wings": 1789,
      "##ord": 1790,
      "explained": 1791,
      "forget": 1792,
      "corn": 1793,
      "##ible": 1794,
      "accident": 1795,
      "##umb": 1796,
      "along": 1797,
      "dry": 1798,
      "sang": 1799,
      "noises": 1800,
      "Their": 1801,
      "##itting": 1802,
      "How": 1803,
      "##ment": 1804,
      "inst": 1805,
      "neck": 1806,
      "throw": 1807,
      "late": 1808,
      "happen": 1809,
      "##ract": 1810,
      "##lephant": 1811,
      "young": 1812,
      "hugs": 1813,
      "shoes": 1814,
      "turns": 1815,
      "##vel": 1816,
      "miss": 1817,
      "stories": 1818,
      "lon": 1819,
      "adventures": 1820,
      "apple": 1821,
      "key": 1822,
      "singing": 1823,
      "##sc": 1824,
      "trou": 1825,
      "well": 1826,
      "Re": 1827,
      "upset": 1828,
      "gift": 1829,
      "Tw": 1830,
      "lunch": 1831,
      "elephant": 1832,
      "tom": 1833,
      "##ape": 1834,
      "jar": 1835,
      "lonely": 1836,
      "##bby": 1837,
      "dist": 1838,
      "belong": 1839,
      "mine": 1840,
      "Fluffy": 1841,
      "secret": 1842,
      "street": 1843,
      "plac": 1844,
      "##oun": 1845,
      "wish": 1846,
      "fence": 1847,
      "##ountain": 1848,
      "shook": 1849,
      "exploring": 1850,
      "owl": 1851,
      "Go": 1852,
      "moved": 1853,
      "nearby": 1854,
      "purp": 1855,
      "Sammy": 1856,
      "##aughty": 1857,
      "##fused": 1858,
      "##ts": 1859,
      "shop": 1860,
      "stars": 1861,
      "wise": 1862,
      "naughty": 1863,
      "inv": 1864,
      "bring": 1865,
      "##bow": 1866,
      "whe": 1867,
      "soup": 1868,
      "exp": 1869,
      "caught": 1870,
      "seemed": 1871,
      "##ail": 1872,
      "##ward": 1873,
      "##yard": 1874,
      "##ocked": 1875,
      "sea": 1876,
      "bat": 1877,
      "dropped": 1878,
      "ph": 1879,
      "backyard": 1880,
      "relie": 1881,
      "rocks": 1882,
      "##aughter": 1883,
      "Al": 1884,
      "je": 1885,
      "##ces": 1886,
      "drink": 1887,
      "##adow": 1888,
      "bucket": 1889,
      "des": 1890,
      "farm": 1891,
      "purple": 1892,
      "##sy": 1893,
      "Be": 1894,
      "taking": 1895,
      "resp": 1896,
      "orange": 1897,
      "swam": 1898,
      "##ions": 1899,
      "though": 1900,
      "mail": 1901,
      "shapes": 1902,
      "past": 1903,
      "cow": 1904,
      "af": 1905,
      "woke": 1906,
      "bench": 1907,
      "wondered": 1908,
      "sounds": 1909,
      "##ung": 1910,
      "fit": 1911,
      "hello": 1912,
      "My": 1913,
      "##ity": 1914,
      "##og": 1915,
      "Later": 1916,
      "busy": 1917,
      "ob": 1918,
      "nest": 1919,
      "tiny": 1920,
      "rainbow": 1921,
      "mark": 1922,
      "sitting": 1923,
      "daughter": 1924,
      "mad": 1925,
      "##cing": 1926,
      "kite": 1927,
      "##ese": 1928,
      "de": 1929,
      "nose": 1930,
      "nothing": 1931,
      "holding": 1932,
      "##col": 1933,
      "##read": 1934,
      "takes": 1935,
      "cou": 1936,
      "##fish": 1937,
      "juice": 1938,
      "comes": 1939,
      "part": 1940,
      "arms": 1941,
      "##ceful": 1942,
      "With": 1943,
      "Ell": 1944,
      "pig": 1945,
      "##thday": 1946,
      "##cks": 1947,
      "coat": 1948,
      "cir": 1949,
      "##ining": 1950,
      "##raid": 1951,
      "branch": 1952,
      "round": 1953,
      "afraid": 1954,
      "##idge": 1955,
      "##que": 1956,
      "##gn": 1957,
      "driver": 1958,
      "relieved": 1959,
      "inter": 1960,
      "##ose": 1961,
      "Ch": 1962,
      "cute": 1963,
      "forever": 1964,
      "##vered": 1965,
      "spoon": 1966,
      "mil": 1967,
      "te": 1968,
      "carry": 1969,
      "Jenny": 1970,
      "ca": 1971,
      "sick": 1972,
      "boun": 1973,
      "##ek": 1974,
      "Tweet": 1975,
      "##ost": 1976,
      "huge": 1977,
      "##ours": 1978,
      "promise": 1979,
      "Good": 1980,
      "patient": 1981,
      "##unt": 1982,
      "touched": 1983,
      "fing": 1984,
      "king": 1985,
      "grab": 1986,
      "letter": 1987,
      "exciting": 1988,
      "birthday": 1989,
      "##ching": 1990,
      "sunny": 1991,
      "cheese": 1992,
      "Of": 1993,
      "bush": 1994,
      "onto": 1995,
      "journey": 1996,
      "days": 1997,
      "laughing": 1998,
      "##board": 1999,
      "##ped": 2000,
      "gigg": 2001,
      "disco": 2002,
      "creature": 2003,
      "band": 2004,
      "imag": 2005,
      "Emily": 2006,
      "ret": 2007,
      "life": 2008,
      "##ittens": 2009,
      "hope": 2010,
      "##oph": 2011,
      "##shine": 2012,
      "bottle": 2013,
      "bread": 2014,
      "shell": 2015,
      "power": 2016,
      "craw": 2017,
      "cozy": 2018,
      "##gged": 2019,
      "kick": 2020,
      "swimming": 2021,
      "inc": 2022,
      "##gg": 2023,
      "wra": 2024,
      "whist": 2025,
      "sharp": 2026,
      "suc": 2027,
      "watching": 2028,
      "mist": 2029,
      "##alm": 2030,
      "retur": 2031,
      "##ness": 2032,
      "instead": 2033,
      "##esting": 2034,
      "eas": 2035,
      "##ten": 2036,
      "milk": 2037,
      "##let": 2038,
      "cave": 2039,
      "accidentally": 2040,
      "sunshine": 2041,
      "##ndp": 2042,
      "spin": 2043,
      "shout": 2044,
      "har": 2045,
      "Hey": 2046,
      "spo": 2047
    }
  }
}