[PAD]
[UNK]
[CLS]
[SEP]
[MASK]
!
"
#
$
%
&
'
(
)
*
+
,
-
.
/
0
1
2
3
4
5
6
7
8
9
:
;
<
=
>
?
A
B
C
D
E
F
G
H
I
J
K
L
M
N
O
P
Q
R
S
T
U
V
W
X
Y
Z
[
\
]
_
`
a
b
c
d
e
f
g
h
i
j
k
l
m
n
o
p
q
r
s
t
u
v
w
x
y
z
{
~
¡
¢
£
¦
§
¨
©
ª
«
¬
¯
°
±
³
´
º
»
¼
½
¾
¿
Â
Ã
Ä
Å
Ê
á
â
ã
ä
å
æ
ç
è
é
ï
ð
Œ
œ
Š
Ÿ
Ž
ž
ˆ
˜
–
’
‚
“
”
„
†
‡
•
…
‰
‹
›
€
™
##€
##œ
##C
##h
##u
##r
##c
##l
##a
##d
##i
##g
##m
##e
##t
##s
##o
##n
##b
##y
##â
##™
##p
##w
##z
##j
##k
##v
##q
##B
##A
##I
##N
##G
##S
##x
##f
##¦
##U
##T
##L
##E
##W
##O
##˜
##0
##R
##J
##P
##H
##Y
##M
##D
##6
##F
##Ã
##ª
##8
##Â
##´
##K
##å
##ï
##¼
##Œ
##¾
##ˆ
##é
##©
##Z
##5
##7
##1
##3
##Q
##¯
##ç
##Š
##Ÿ
##V
##2
##4
##Å
##á
##9
##³
##X
##±
##ž
##¢
##è
##Ž
##Ê
##ð
##ã
##º
##ä
##¬
##¨
##æ
##Ä
##£
##°
##½
##he
##nd
the
##ed
and
##er
to
wa
##ou
##in
##re
was
##om
The
##ay
##ar
##ing
##il
##it
##id
##at
sa
##en
ha
##is
##an
##or
##im
he
##on
it
th
##ut
##ll
##le
her
##et
He
##ot
She
##ir
##es
They
in
##ow
##ck
##ld
##oo
said
##ily
be
##ig
##am
st
##ce
she
##pp
##ith
##ve
with
Lily
On
on
you
of
##ked
##ri
so
his
pl
##ery
##ad
##ke
##nt
day
that
up
play
had
they
##el
mom
for
##st
##un
##ould
##my
##ent
li
##ch
happ
want
##itt
sh
##her
It
do
##ly
not
##ome
very
##se
##ound
##end
##all
wh
##ime
##ittle
time
little
##al
there
ne
##ht
happy
sm
big
is
but
##ra
an
saw
##riend
friend
##ry
as
##ack
One
##ake
re
##ere
Tim
##ter
##ug
loo
##ved
were
Once
lo
##ore
##ec
him
too
##ur
go
bo
##ide
se
##irl
##ver
are
##ard
wanted
Tom
##ill
girl
upon
out
them
at
Ben
their
##fu
sp
##way
##ind
smil
did
could
##hen
have
##ted
##ain
ex
##hed
But
##rom
went
ar
##lp
can
##ic
##ful
##ood
##hing
friends
nam
##ight
all
help
kn
##um
##ark
##one
back
say
cl
fun
You
no
##are
##ear
##very
Timmy
##op
star
sc
smiled
named
al
##oug
loved
##side
man
##elt
asked
##ick
toy
Mom
like
felt
looked
see
some
around
me
##ep
##ame
##omet
fe
ro
br
##ure
bir
##get
boy
would
##ong
##ss
##ea
bird
somet
fa
##dd
##est
##ings
ag
wor
what
##ade
make
##king
##ie
car
##own
ran
tre
##gether
away
##ag
Th
we
says
started
##ice
##oud
made
something
together
##ther
##ited
park
co
sad
other
new
exc
put
from
##out
pr
scar
la
hug
##ble
mu
##ook
again
home
when
good
who
ch
##ried
found
fl
then
##pped
dec
wal
get
playing
##ought
##ach
##pl
##ally
sw
Su
##ous
##nn
â€
things
excited
liked
got
##uck
Sam
##ro
##ided
##ell
##as
bl
decided
came
Ann
every
##ara
your
##ax
one
scared
##ust
dog
down
##ouse
find
##ny
care
bec
than
Sara
feel
We
Anna
dad
ab
Max
my
##ap
look
##ist
will
gr
##nder
gra
##ess
##ways
didn
po
always
took
about
##bb
##ers
##ned
lot
mommy
toys
kne
So
##ise
##ant
bu
old
outside
##ite
##ave
tree
thought
lear
ball
more
##eci
##ened
##ched
ta
ho
When
##ret
##ged
Jo
know
pu
Wh
##to
laug
sor
take
speci
special
cat
##dden
knew
##ty
##ive
##ff
Her
##ia
any
##ddenly
##fter
how
##au
##ue
show
##ma
##ink
Jack
sorry
tw
much
##ish
tr
Every
run
hand
sl
##ven
house
##and
or
op
sk
mo
clo
sun
into
tried
inside
##ate
told
this
water
en
if
##ump
proud
over
couldn
gave
##dy
heard
##ank
never
each
##by
room
expl
Suddenly
eat
##other
##ause
pick
##ion
pret
played
Then
Mia
##ge
just
##etter
hugged
gre
qu
##here
Let
off
wat
com
##oth
And
nice
box
From
##our
ra
need
str
because
His
pe
##ile
many
##fe
##ft
fo
##uc
jo
bear
##eep
small
##iz
##sed
##ving
long
##gry
##kes
##imal
##ine
##em
animal
sn
##ough
try
That
unt
##sel
##urt
##ort
##ild
until
kind
learned
bea
im
love
better
call
flow
don
end
ad
##vent
best
##ning
##urp
##ady
##ream
cle
ma
##ves
â€œ
##arden
garden
cu
careful
fast
##lly
##ber
beaut
Mommy
fi
bra
even
by
thanked
##ies
che
laughed
sky
##sh
What
jump
gl
Yes
##self
loud
##iny
way
come
beauti
list
##lew
wo
hard
beautiful
##ase
lots
Can
fam
still
animals
Joh
hurt
under
let
stay
##wn
both
##hes
##be
safe
##ct
##ool
col
lea
##ree
two
di
bad
##ace
book
##ople
rem
imp
As
lived
##ane
Luc
##kay
Lucy
##ock
walked
su
brave
should
its
##urpr
##ob
##ished
angry
surpr
family
##ept
##ress
flew
people
Thank
red
##igh
called
After
stor
##ip
##eet
fin
soon
##ast
##led
##ect
kept
John
fore
dan
##art
##fore
Dad
fly
share
##xt
le
##ised
No
##dded
pic
door
tur
going
pretty
##â€
keep
now
clean
rock
dra
advent
##ummy
noise
opened
##age
wind
shiny
cry
id
doll
idea
con
before
##illy
real
sto
Sp
##so
ground
explore
also
far
##ied
##les
ey
##â€™
fr
color
nodded
war
feeling
Bob
un
picked
##oy
##imb
walking
next
##thing
##ture
climb
##ting
has
thr
while
bed
smile
adventure
##th
##aybe
##ger
##ser
looking
##iced
##ious
being
##qu
wr
diff
food
##joy
picture
give
think
Spot
del
tow
truck
##ught
wait
eyes
tra
repl
bro
stopped
listen
after
gi
bre
vo
walk
Do
year
##ember
wonder
great
hands
Sue
head
enjoy
blue
ever
import
flowers
##bbit
forest
noticed
near
own
app
ac
quick
##ized
dis
##irst
fish
remember
##able
important
##llow
sound
slide
us
replied
##maz
amaz
##lease
watch
work
okay
rain
rabbit
showed
tal
##gan
Sarah
mean
##bbed
differ
ru
ask
tou
right
watched
##day
##bye
bright
Look
follow
strong
everyone
been
use
This
mor
voice
stick
quickly
##ered
##ath
where
our
yell
Jane
different
##ng
##ey
curi
sure
child
boat
Maybe
goodbye
became
face
place
hop
##ange
am
high
##aught
##oon
closer
store
warm
dress
does
tea
##llo
curious
##unny
mag
bel
forg
##ila
cook
tell
##ndma
fav
##ass
three
##ount
Lila
##co
##leep
ba
open
block
shar
night
##more
here
anymore
cake
##ull
first
##itc
##iss
pull
##ached
butter
##ired
pain
##imes
##orn
In
sweet
kid
grabbed
##isy
only
mon
fell
Everyone
cont
jumped
birds
glad
sand
bit
##itchen
kitchen
helped
per
fire
squ
sees
flo
Don
##outed
stop
hear
Joe
happened
cra
sing
grass
Tommy
tri
shouted
##nts
dr
story
bunny
##air
reached
beh
realized
mum
brother
yummy
cr
lady
having
prin
##ppy
##ins
favor
##ary
draw
learn
through
mess
cre
less
favorite
game
soft
ate
underst
hat
pare
##zy
##ather
really
thing
ready
began
world
##where
pretend
##ken
himself
looks
##fully
pap
magic
Now
butterf
done
making
duck
cut
rest
pond
##ater
kids
coming
why
waved
fro
fix
tired
prom
mouse
##olly
worry
cars
Fin
name
fill
flower
delic
##aisy
touch
Sally
funny
##eddy
thank
catch
used
top
hair
##bo
seen
parents
another
tast
##rel
##ient
hopped
cried
Wow
##oney
##ak
blocks
hold
##mer
There
##iver
doing
cool
turn
##ac
surprise
##ster
light
green
lesson
years
##ation
read
floor
din
##ards
dri
window
full
wood
smell
worked
running
trees
dro
dark
wished
spot
wear
behind
##ons
paper
likes
par
yellow
##ued
swim
bag
##ely
sat
happily
bow
sho
##ul
##ren
##andy
Daisy
sleep
Em
surprised
Jim
##us
set
frog
butterfly
swing
##â€™s
carefully
lost
cold
Benny
##ike
held
remembered
slow
To
hole
##uff
At
ice
laugh
needed
##rew
buy
perf
left
Gra
ste
##reed
Billy
##cess
move
anything
enjoyed
wrong
Hello
tall
arri
dream
fair
followed
books
Finally
air
##ross
el
table
bus
hun
Molly
children
please
delicious
finished
friendly
dir
contin
snow
hot
herself
##ds
##lf
hill
##ens
understand
close
Amy
cream
##ined
arrived
baby
hid
might
wonderful
arm
forgot
else
res
gent
cast
yes
tight
bug
##ield
colors
build
rel
broken
sig
##ner
able
Jen
gone
##av
song
filled
wall
##ich
##irrel
agreed
mat
fur
someone
gu
creat
continued
##room
ll
##asure
pat
pink
count
##set
wants
squirrel
bar
enough
leaves
##ask
lion
morning
moment
Why
vis
##ama
OK
finally
getting
stayed
cookies
break
##ence
##shed
##ance
poin
beach
fight
few
sometimes
##ced
##app
scary
##row
##red
turned
##ries
fall
hungry
grandma
dinner
mother
##gon
##apped
wet
amazing
ju
trying
pi
daddy
perfect
makes
plan
others
climbed
comp
pictures
castle
mar
talk
##key
##amp
##oup
met
listened
mus
white
balloon
Jill
##oring
##man
##oom
smiles
clot
Come
clothes
alone
tail
pol
spl
##rot
joy
##ated
##ee
brought
wasn
deep
everything
##ister
puppy
##ctor
strange
spark
sear
##elc
pet
##der
sit
grow
pulled
##ling
woods
won
start
sail
ride
##sp
fox
##ott
danger
treat
asks
##eter
roll
Daddy
visit
pie
##uffy
leave
##ucky
Oh
##os
Soon
##med
music
waited
amazed
Mama
teddy
ow
towards
##ang
##me
hide
All
##ever
pre
##cy
##ower
land
##ead
field
flying
##lep
pen
##zz
owner
silly
shared
##ained
runs
##ape
living
belie
##ames
##ugg
qui
job
##ash
##orm
cloud
side
##igg
promised
##ol
moral
paint
##cket
lake
##gs
Mary
sec
thinks
sister
##ope
##thy
##ually
quiet
race
must
money
##ises
##cle
party
Okay
##avy
##sw
worried
answ
pot
Just
Mr
##eces
slowly
##unch
colorful
welc
pieces
grate
bran
dance
faster
broke
bott
Sure
Fl
##ix
cup
grateful
train
bigger
such
##ze
St
snack
cho
blank
reach
pro
join
monster
win
##less
stu
black
scream
river
blanket
##ased
treasure
princess
##eak
magical
dangerous
smart
candy
ear
##uit
bike
across
everywhere
monkey
helping
nap
dragon
most
Jimmy
Mum
farmer
em
pea
##outh
##cked
##aw
Grandma
mouth
disapp
words
tower
##icy
##eared
stre
##ming
dolls
threw
pass
stepped
##leph
heavy
dirty
twins
same
##de
believe
crying
bite
bee
##ored
bowl
##â€™t
doctor
spr
acc
##ident
Hi
bath
##ale
heal
sign
wouldn
##fort
##ches
##chool
heart
carrot
hig
closed
##bble
att
stuck
plant
Please
buck
brown
hoped
cour
school
fruit
min
##ipped
##iting
suddenly
bask
chair
basket
mix
Emma
cray
feels
clapped
coll
town
##cher
eating
butt
course
gentle
fairy
##pping
pack
##ventually
stand
drove
welcome
##ors
##ire
pushed
##ier
##issed
##br
without
today
pocket
Inside
##orrow
hit
higher
swings
â€œI
neigh
teacher
ve
free
pers
##ord
##ourn
journ
games
neighb
ben
cheered
wings
forget
smo
yard
piece
explained
longer
##ible
accident
dry
##umb
along
sang
neck
##ment
corn
##itting
Their
inst
noises
happen
late
young
How
throw
##ract
hugs
turns
shoes
##sc
Re
##lephant
stories
lon
##vel
miss
adventures
singing
shap
well
apple
trou
jar
key
upset
Tw
gift
lonely
lunch
secret
mine
##oun
fence
street
elephant
dist
plac
belong
tom
##bby
Sammy
wish
exploring
shook
Go
##ts
moved
##ountain
purp
##aughty
Fluffy
naughty
wise
owl
nearby
stars
shop
exp
sea
##fused
##ocked
bring
##bow
soup
caught
inv
##yard
##ward
whe
##ail
ph
seemed
relie
backyard
##aughter
dropped
rocks
Al
bat
Be
swam
je
bucket
des
purple
##ces
resp
mail
drink
farm
taking
orange
##adow
past
##ions
shapes
though
##sy
cow
bench
##ung
##ity
af
sounds
woke
hello
My
busy
wondered
nose
Later
fit
##og
mark
sitting
daughter
nest
tiny
mad
rainbow
cou
##col
ob
##ese
kite
##fish
takes
holding
nothing
Ell
##cing
pig
##read
##cks
##ceful
juice
comes
arms
##thday
de
coat
part
With
##ose
##ining
##raid
relieved
##gn
cir
branch
afraid
##idge
round
mil
inter
##que
forever
##vered
te
driver
ca
cute
carry
##ost
sick
boun
##ek
spoon
Jenny
Tweet
Ch
touched
Good
king
promise
##ours
huge
patient
fing
birthday
##unt
letter
##ching
exciting
grab
sunny
cheese
laughing
bush
days
journey
onto
##ped
Of
band
##board
gigg
creature
bread
disco
ret
shell
life
Emily
power
imag
##shine
craw
hope
##oph
##ittens
##gged
kick
swimming
inc
cozy
##let
mist
whist
sharp
suc
##ness
milk
bottle
instead
##gg
retur
##esting
watching
wra
spin
##alm
##ten
accidentally
cave
