[PAD]
[UNK]
[CLS]
[SEP]
[MASK]
!
"
#
$
%
&
'
(
)
*
+
,
-
.
/
0
1
2
3
4
5
6
7
8
9
:
;
<
=
>
?
A
B
C
D
E
F
G
H
I
J
K
L
M
N
O
P
Q
R
S
T
U
V
W
X
Y
Z
[
\
]
_
`
a
b
c
d
e
f
g
h
i
j
k
l
m
n
o
p
q
r
s
t
u
v
w
x
y
z
{
}
~
¡
¢
£
¤
¦
§
¨
©
ª
«
¬
¯
°
±
³
´
¶
·
¸
º
»
¼
½
¿
Â
Ã
Ä
Å
É
Ê
Ñ
Ò
á
â
ã
î
ï
ð
Œ
œ
Š
Ÿ
Ž
ž
˜
–
‘
’
‚
“
”
„
‡
•
…
‰
‹
€
™
##r
##o
##w
##n
##t
##a
##s
##h
##e
##d
##b
##y
##i
##c
##l
##m
##â
##€
##™
##u
##p
##k
##g
##A
##N
##G
##E
##R
##f
##K
##U
##œ
##Y
##˜
##M
##H
##O
##P
##z
##x
##S
##T
##v
##j
##Š
##C
##I
##D
##L
##7
##B
##q
##Z
##Ã
##¢
##©
##0
##¦
##W
##J
##º
##Q
##X
##Â
##´
##3
##£
##5
##F
##V
##6
##°
##á
##4
##8
##2
##1
##9
##³
##±
##¨
##Ÿ
##Œ
##ï
##¬
##ž
##¼
##É
##ª
##Ä
##Ž
##Å
##Ñ
##¯
##Ê
##ð
##¤
##¸
##Ò
##he
##nd
the
##ed
and
##er
to
wa
##ou
##in
##re
was
##om
The
##ay
##ar
##ing
##il
##it
##id
##at
sa
##en
ha
##is
##an
##or
##im
he
##on
it
th
##ut
##ll
##le
her
##et
He
##ot
She
##ir
##es
They
in
##ow
##ck
##ld
##oo
said
##ily
be
##ig
##am
st
##ce
she
##pp
##ith
##ve
with
Lily
On
on
you
of
##ked
##ri
so
his
pl
##ery
##ad
##ke
##nt
day
that
up
play
had
they
##el
mom
for
##st
##un
##ould
##my
##ent
li
##ch
happ
want
##itt
sh
##her
It
do
##ly
not
##ome
very
##se
##ound
##end
##all
wh
##ime
##ittle
time
little
##al
there
ne
##ht
happy
sm
big
is
but
##ra
an
saw
##riend
friend
as
##ry
##ack
One
##ake
re
##ere
Tim
##ter
##ug
loo
##ved
were
Once
lo
##ore
##ec
him
too
go
##ur
bo
##ide
se
##irl
##ver
are
Tom
wanted
##ard
##ill
girl
upon
out
them
at
Ben
their
##fu
sp
##way
##ind
smil
did
could
##hen
have
##ted
##ain
ex
##hed
But
##rom
went
ar
##lp
can
##ic
##ful
##ood
##hing
friends
nam
##ight
all
kn
help
##um
##ark
##one
back
say
cl
fun
You
no
##are
##ear
##very
Timmy
##op
star
smiled
sc
named
al
##oug
loved
##side
man
##elt
asked
##ick
toy
Mom
like
felt
see
looked
some
around
me
##ep
##ame
##omet
fe
ro
br
##ure
bir
##get
boy
would
##ong
##ea
##ss
somet
bird
fa
##dd
##est
##ings
wor
ag
what
##ade
##king
make
##ie
car
##own
tre
##gether
ran
away
##ag
Th
we
says
started
##ice
##oud
made
something
together
##ther
##ited
park
co
sad
other
new
exc
put
from
##out
pr
scar
la
hug
##ble
mu
##ook
again
home
when
good
who
ch
##ried
fl
found
then
dec
##pped
wal
get
playing
##ought
##ach
##pl
##ally
Su
sw
##ous
â€
things
##nn
excited
liked
got
##uck
Sam
##ro
##ided
##as
##ell
decided
bl
every
came
##ara
Ann
your
##ax
one
scared
##ust
dog
down
##ny
##ouse
find
care
bec
than
Sara
feel
We
Anna
dad
ab
my
Max
look
##ap
##ist
will
gr
##nder
gra
##ways
##ess
didn
po
took
always
about
##bb
##ers
mommy
##ned
lot
toys
kne
So
##ise
##ant
bu
old
##ite
outside
##ave
tree
ball
thought
lear
more
##eci
##ened
ta
##ched
ho
When
##ret
##ged
know
pu
Jo
Wh
##to
laug
take
sor
speci
special
cat
##dden
knew
##ty
##ive
Her
##ff
any
##ddenly
##ia
##fter
how
##au
##ue
##ma
show
##ink
sorry
Jack
tw
much
##ish
run
tr
Every
hand
sl
##ven
house
##and
or
op
sk
mo
clo
sun
into
tried
inside
##ate
told
this
water
en
proud
if
##ump
couldn
over
##dy
gave
heard
##ank
never
each
##by
room
eat
expl
Suddenly
##other
##ause
##ion
pick
pret
played
Then
##ge
##etter
Mia
just
gre
hugged
qu
Let
##here
off
wat
com
##oth
box
##our
nice
And
From
because
str
need
ra
His
pe
##ile
many
##ft
##fe
##uc
bear
fo
small
jo
##eep
##iz
##sed
##ving
long
##kes
##em
##gry
##ine
##imal
animal
sn
##ough
try
That
unt
##ort
##ild
##sel
##urt
until
kind
learned
im
bea
better
love
call
flow
don
end
ad
##vent
best
##ning
##ady
##urp
##ream
cle
##ves
ma
â€œ
##arden
garden
cu
fast
##lly
careful
##ber
Mommy
beaut
fi
even
by
bra
thanked
##ies
che
laughed
sky
What
##sh
jump
gl
Yes
loud
##self
##iny
way
beauti
##lew
come
list
wo
beautiful
hard
lots
##ase
fam
Can
still
animals
Joh
hurt
under
let
stay
##wn
both
##hes
##ct
safe
##be
##ool
##ree
col
lea
two
di
bad
book
##ace
##ane
imp
##ople
rem
As
lived
Luc
##kay
Lucy
walked
##ock
su
should
brave
##urpr
##ob
its
##ished
family
angry
surpr
##ept
flew
##igh
##ress
Thank
people
called
red
After
##ip
stor
fin
##eet
soon
##ast
##led
kept
fore
##ect
Dad
##art
##fore
John
dan
fly
share
##xt
le
##ised
No
##dded
pic
door
going
tur
pretty
keep
##â€
now
rock
clean
##ummy
dra
advent
noise
opened
shiny
##age
wind
con
before
id
cry
doll
real
idea
##illy
sto
Sp
##so
ground
explore
also
far
##les
##ied
ey
fr
##â€™
color
nodded
war
feeling
Bob
un
picked
##oy
next
##imb
walking
##thing
##ture
##ting
has
climb
thr
while
bed
smile
adventure
##th
##aybe
##ser
##iced
##ious
##qu
##ger
looking
being
wr
diff
food
##joy
give
picture
think
del
wait
Spot
eyes
truck
tow
##ught
tra
repl
gi
bro
stopped
listen
after
Do
walk
bre
vo
year
##ember
great
wonder
Sue
hands
head
enjoy
import
forest
ever
##bbit
blue
flowers
noticed
near
##ized
own
quick
app
dis
##irst
ac
##able
important
remember
fish
sound
##llow
##maz
replied
us
slide
amaz
watch
rain
work
##lease
showed
rabbit
tal
##gan
okay
##bbed
ru
ask
Sarah
differ
mean
right
tou
##bye
Look
##day
watched
bright
everyone
follow
strong
This
use
stick
mor
been
voice
##ered
quickly
our
where
Jane
##ath
yell
different
curi
child
sure
##ng
boat
##ey
goodbye
Maybe
became
face
place
##ange
hop
high
##oon
am
closer
##aught
store
##unny
warm
does
tea
##ila
dress
##llo
mag
curious
bel
cook
forg
tell
fav
Lila
##ndma
##ass
three
##ount
##leep
ba
##co
cake
night
open
shar
here
##more
block
anymore
##itc
##ull
first
##iss
pull
##ached
##imes
##ired
butter
In
pain
##isy
sweet
grabbed
kid
##orn
mon
only
fell
Everyone
birds
cont
jumped
##itchen
kitchen
glad
sand
bit
sees
Don
per
fire
helped
squ
flo
stop
hear
##outed
Joe
happened
cra
bunny
sing
Tommy
grass
tri
##nts
shouted
story
dr
##air
realized
brother
yummy
beh
reached
cr
##ppy
lady
mum
having
favor
##ins
prin
learn
##ary
mess
favorite
hat
cre
ate
through
game
soft
underst
draw
less
##zy
pare
thing
##ather
really
ready
##where
began
pretend
world
himself
##ken
magic
looks
##fully
pap
done
Now
butterf
making
cut
rest
coming
duck
why
pond
##ater
waved
kids
fro
prom
tired
worry
fix
fill
##olly
cars
delic
Fin
name
mouse
##aisy
flower
##eddy
Sally
touch
funny
catch
thank
tast
seen
used
hair
##ak
##ient
##bo
top
another
parents
##rel
hopped
Wow
cried
##oney
hold
blocks
There
doing
##iver
cool
##mer
##ac
surprise
green
turn
light
##ster
years
lesson
##ation
read
floor
dri
din
wood
full
trees
##ards
running
window
worked
dark
dro
par
spot
smell
wished
##ons
likes
behind
wear
paper
bow
##ued
bag
yellow
Daisy
happily
swim
##ely
##andy
##ren
##ul
sho
sat
Em
sleep
##us
Benny
frog
Jim
surprised
butterfly
set
swing
carefully
##â€™s
lost
cold
slow
held
remembered
##ike
ice
To
##uff
At
laugh
buy
hole
##rew
needed
perf
Gra
ste
left
move
Billy
anything
##reed
enjoyed
tall
wrong
dream
Hello
##cess
air
arri
Finally
fair
el
followed
books
##ross
hun
children
bus
delicious
Molly
please
table
finished
friendly
contin
hot
snow
herself
dir
##lf
##ds
understand
cream
##ens
Amy
hill
close
##ined
cast
arm
arrived
else
hid
baby
wonderful
might
tight
gent
res
yes
forgot
##ield
bug
Jen
rel
sig
build
colors
##ner
broken
able
##av
gone
filled
squir
song
wall
##ich
agreed
someone
gu
mat
fur
##room
continued
count
creat
ll
##asure
##set
pat
wants
squirrel
##ask
pink
leaves
enough
bar
lion
##ama
morning
moment
vis
Why
OK
finally
getting
stayed
break
cookies
##shed
beach
##ence
##ance
sometimes
poin
##app
few
##ries
scary
fight
##ced
hungry
##row
##red
turned
fall
grandma
dinner
##gon
wet
amazing
trying
ju
mother
pi
##apped
daddy
perfect
makes
castle
plan
others
pictures
comp
##key
##oup
climbed
talk
met
mus
mar
##man
##amp
white
listened
smiles
##oring
##oom
balloon
clot
Jill
Come
alone
clothes
##rot
pol
spl
joy
tail
##ated
wasn
##ee
puppy
brought
deep
everything
##ctor
pet
strange
sear
##ister
spark
##elc
sit
##der
grow
woods
##ling
pulled
start
sail
##sp
##ott
won
ride
asks
##eter
pie
treat
roll
danger
visit
Daddy
fox
Soon
##med
##os
music
##uffy
teddy
leave
Oh
Mama
##ucky
ow
hide
amazed
waited
##ang
towards
All
pre
##ever
##me
##ower
field
land
##ead
##zz
##lep
flying
##cy
silly
##ained
shared
owner
runs
pen
cloud
##ugg
living
belie
##ape
job
##ol
qui
##ames
##ash
promised
##igg
side
moral
lake
##orm
##gs
Mary
##cket
thinks
paint
sister
##ope
sec
##thy
##ually
party
##ises
quiet
must
money
##avy
worried
Okay
pot
##unch
##cle
race
##sw
Just
Mr
##eces
answ
grate
slowly
colorful
pieces
faster
bran
welc
dance
##ix
bott
cup
broke
Sure
grateful
such
##ze
bigger
Fl
snack
train
cho
St
blank
reach
monster
pro
##less
black
##uit
river
join
stu
scream
pea
blanket
win
magical
##ased
candy
ear
smart
treasure
dragon
princess
dangerous
Mum
bike
everywhere
##eak
most
nap
monkey
across
Jimmy
em
helping
##aw
##outh
##cked
farmer
mouth
Grandma
##icy
disapp
words
stre
##eared
tower
stepped
##ming
##leph
heavy
bowl
pass
threw
##de
dolls
bite
spr
believe
bee
dirty
doctor
twins
crying
##ored
##â€™t
same
sign
acc
##ches
##ident
heal
carrot
Hi
##fort
wouldn
bath
closed
hig
##chool
fruit
##ale
##bble
stuck
heart
cour
att
min
buck
Emma
Please
hoped
plant
##asket
brown
mix
basket
school
##ipped
suddenly
##iting
eating
cray
feels
town
clapped
chair
course
##cher
butt
gentle
fairy
coll
pack
##pping
##ventually
stand
##ier
drove
welcome
pushed
##ire
##ors
##issed
##br
without
Inside
higher
swings
##orrow
today
ve
neigh
hit
pocket
teacher
â€œI
smo
pers
neighb
free
piece
##ord
cheered
games
wings
explained
##ourn
##ible
journ
forget
ben
yard
longer
accident
along
corn
dry
##umb
##ment
neck
Their
noises
inst
##itting
sang
late
##ract
happen
hugs
throw
How
##vel
shoes
young
##lephant
stories
turns
miss
##sc
lon
Re
trou
adventures
gift
well
singing
lunch
shap
Tw
upset
key
jar
apple
lonely
tom
street
secret
elephant
mine
plac
dist
wish
belong
##oun
##bby
shook
fence
exploring
##ountain
Go
soup
owl
moved
nearby
##ts
bring
Sammy
##aughty
shop
##bow
naughty
Fluffy
purp
##fused
stars
wise
##ocked
whe
caught
exp
inv
##yard
bat
seemed
sea
relie
##ward
backyard
##ail
Be
dropped
ph
##aughter
rocks
##adow
resp
drink
je
taking
swam
farm
##ces
##sy
mail
bucket
Al
des
orange
purple
though
##ions
past
shapes
My
fit
##og
woke
hello
##ity
af
sounds
bench
rainbow
busy
wondered
nose
##ung
Later
cow
tiny
ob
daughter
mark
sitting
nest
kite
mad
takes
nothing
##fish
cou
##ese
holding
##cing
##col
##read
arms
juice
part
##ceful
Ell
comes
##thday
de
coat
With
##cks
pig
cir
round
##ining
relieved
branch
##raid
driver
afraid
ca
spoon
##gn
forever
Ch
##que
cute
inter
##ose
##vered
Jenny
##idge
mil
carry
te
##ost
sick
##ours
##ek
boun
Tweet
promise
king
Good
huge
##unt
touched
letter
fing
birthday
patient
grab
##ching
sunny
exciting
days
##ped
Of
laughing
onto
cheese
band
##board
journey
gigg
bush
creature
disco
shell
life
ret
##oph
imag
kick
##ittens
hope
##gged
power
##shine
bread
cozy
swimming
Emily
inc
craw
bottle
mist
suc
##ness
##let
wra
sharp
whist
##gg
instead
spin
retur
watching
##ten
##alm
##esting
eas
milk
accidentally
sunshine
shout
##pa
cave
spo
