[PAD]
[UNK]
[CLS]
[SEP]
[MASK]
!
"
#
$
%
&
'
(
)
*
+
,
-
.
/
0
1
2
3
4
5
6
7
8
9
:
;
<
=
>
?
@
A
B
C
D
E
F
G
H
I
J
K
L
M
N
O
P
Q
R
S
T
U
V
W
X
Y
Z
[
\
]
_
`
a
b
c
d
e
f
g
h
i
j
k
l
m
n
o
p
q
r
s
t
u
v
w
x
y
z
}
~
¡
¢
£
¤
¥
¦
§
¨
©
ª
«
¬
¯
°
±
²
³
´
¶
·
¸
º
»
¼
½
¿
Â
Ã
Ä
Å
É
Ê
á
â
ã
ï
ð
Œ
œ
Š
Ÿ
Ž
ž
ˆ
˜
‘
’
‚
“
”
„
‡
•
…
‰
‹
›
€
™
##a
##v
##i
##g
##u
##t
##r
##o
##w
##n
##l
##e
##b
##y
##z
##m
##h
##s
##p
##c
##d
##M
##f
##â
##€
##™
##k
##œ
##C
##H
##J
##F
##x
##q
##¦
##˜
##L
##5
##N
##V
##A
##W
##I
##S
##E
##U
##D
##R
##T
##0
##Y
##B
##O
##3
##j
##P
##G
##1
##Š
##Ã
##©
##£
##K
##Z
##6
##Â
##ª
##´
##2
##Ž
##X
##8
##7
##±
##Q
##9
##ð
##Ÿ
##Œ
##³
##¢
##°
##4
##¤
##á
##¥
##ž
##Ê
##Ä
##Å
##ˆ
##É
##¨
##ï
##¬
##¯
##²
##¸
##¼
##º
##he
##nd
the
##ed
and
##er
to
wa
##ou
##in
##re
was
##om
The
##ay
##ar
##ing
##il
##it
##id
##at
sa
##en
ha
##is
##an
##or
##im
he
##on
it
th
##ut
##ll
##le
her
##et
He
##ot
She
##ir
##es
They
in
##ow
##ck
##ld
##oo
said
##ily
be
##ig
##am
st
##ce
she
##pp
##ith
##ve
with
Lily
On
on
you
of
##ked
##ri
so
his
pl
##ery
##ad
##ke
##nt
day
that
up
play
had
they
##el
mom
for
##st
##un
##ould
##my
##ent
li
##ch
happ
want
##itt
sh
##her
It
do
##ly
not
##ome
very
##se
##end
##ound
##all
wh
##ime
##ittle
time
little
##al
there
ne
##ht
happy
sm
big
is
but
##ra
an
saw
##riend
friend
as
##ry
##ack
One
##ake
re
##ere
Tim
##ter
##ug
loo
##ved
were
Once
##ore
lo
##ec
go
him
##ur
too
bo
##ide
se
##irl
##ver
are
##ard
wanted
Tom
##ill
girl
upon
out
them
at
Ben
their
##fu
sp
##way
##ind
smil
did
could
##hen
have
##ted
##ain
ex
##hed
But
##rom
went
ar
##lp
can
##ic
##ful
##ood
##hing
friends
nam
##ight
all
kn
help
##um
##ark
back
##one
say
cl
fun
no
You
##are
##ear
##very
Timmy
##op
star
smiled
sc
named
al
##oug
loved
##side
man
##elt
asked
##ick
toy
Mom
like
felt
looked
see
some
around
me
##ep
##ame
##omet
fe
br
ro
##ure
bir
##get
boy
would
##ong
##ss
##ea
bird
somet
fa
##dd
##est
##ings
ag
wor
what
##ade
make
##king
##ie
car
##own
tre
ran
##gether
away
##ag
we
Th
says
started
##ice
##oud
made
something
together
##ther
##ited
park
co
sad
other
new
exc
from
put
##out
pr
scar
la
hug
##ble
mu
##ook
again
home
when
good
who
ch
##ried
found
fl
then
dec
##pped
wal
get
playing
##ought
##pl
##ach
##ally
sw
Su
##ous
##nn
â€
things
excited
liked
##uck
got
Sam
##ro
##ided
##as
##ell
decided
bl
came
every
Ann
##ara
your
##ax
scared
##ust
one
dog
down
##ouse
##ny
find
care
than
bec
Sara
feel
We
Anna
dad
ab
my
Max
##ap
look
##ist
will
gr
##nder
gra
##ways
##ess
didn
po
always
took
about
##bb
lot
##ers
##ned
kne
mommy
toys
So
##ise
##ant
bu
old
##ite
outside
tree
##ave
thought
ball
lear
more
##eci
##ened
ta
##ched
ho
##ret
When
##ged
pu
know
Jo
Wh
##to
laug
take
speci
special
sor
cat
##dden
knew
##ty
##ive
##ff
Her
##ia
any
##ddenly
##fter
how
##au
show
##ink
##ma
##ue
sorry
Jack
tw
much
tr
##ish
run
Every
sl
hand
##ven
house
##and
or
op
sk
mo
clo
sun
tried
into
##ate
inside
water
told
this
en
if
##ump
proud
over
couldn
##dy
gave
heard
##ank
never
each
##by
room
expl
eat
Suddenly
##other
##ause
pick
##ion
pret
Mia
played
Then
##ge
##etter
just
gre
hugged
qu
##here
off
Let
com
wat
##oth
And
From
box
nice
##our
ra
str
because
His
need
pe
##ile
many
##ft
##fe
fo
jo
##uc
##eep
bear
small
##sed
##iz
long
##ving
##kes
##gry
##ine
##em
##imal
animal
sn
##ough
try
That
unt
##ild
##ort
##sel
##urt
until
kind
learned
bea
im
love
better
call
flow
don
end
ad
##vent
best
##ning
##urp
##ady
##ream
cle
##ves
ma
â€œ
##arden
garden
fast
cu
beaut
careful
##lly
Mommy
##ber
even
fi
by
thanked
bra
##ies
che
laughed
What
sky
##sh
jump
gl
Yes
##self
loud
##iny
way
beauti
##lew
come
list
beautiful
wo
lots
hard
##ase
fam
Can
still
animals
Joh
hurt
under
let
stay
##wn
both
##hes
##ool
safe
##ct
##be
lea
col
##ree
two
di
bad
##ace
imp
book
##ane
##ople
rem
As
lived
Luc
##kay
Lucy
walked
##ock
su
##urpr
should
brave
its
##ob
family
##ished
surpr
angry
flew
##ept
##ress
called
red
Thank
##igh
people
After
##ip
stor
##eet
soon
fin
##ast
##led
kept
##ect
##art
fore
Dad
John
##fore
fly
dan
##xt
share
le
##ised
No
pic
##dded
door
going
tur
pretty
keep
now
clean
##â€
dra
rock
advent
##ummy
noise
opened
shiny
##age
wind
id
con
idea
cry
before
real
doll
##illy
sto
Sp
##so
explore
##les
ground
also
far
##ied
ey
fr
##â€™
color
nodded
war
feeling
Bob
##imb
picked
un
next
##oy
##thing
walking
##ture
climb
##ting
has
thr
while
smile
bed
adventure
##th
##aybe
##ser
##iced
##ger
##ious
##qu
looking
being
diff
food
##joy
picture
give
wr
think
Spot
del
truck
tra
wait
tow
##ught
eyes
repl
bro
stopped
listen
after
gi
vo
Do
bre
walk
year
wonder
##ember
great
Sue
hands
import
enjoy
head
ever
##bbit
noticed
flowers
forest
blue
near
app
##ized
ac
own
dis
##irst
quick
important
##able
remember
fish
slide
##llow
sound
us
replied
##maz
amaz
##lease
work
rain
rabbit
showed
watch
okay
##gan
tal
ru
ask
##bbed
Sarah
mean
differ
right
tou
Look
##day
##bye
watched
bright
follow
strong
everyone
stick
use
been
voice
This
mor
##ered
quickly
where
our
##ath
Jane
yell
boat
child
different
##ng
curi
sure
##ey
Maybe
goodbye
face
place
became
hop
am
##ange
##aught
high
closer
store
##unny
does
warm
tea
##oon
dress
##llo
##ila
mag
curious
bel
forg
cook
tell
fav
##ass
Lila
three
##ount
##ndma
ba
##leep
##co
open
shar
here
block
cake
##more
night
anymore
##ull
##itc
first
pull
##ached
##iss
##ired
butter
##imes
##orn
In
pain
sweet
kid
grabbed
mon
##isy
only
fell
cont
Everyone
jumped
sand
bit
birds
glad
##itchen
kitchen
helped
squ
sees
per
##outed
fire
stop
Don
flo
hear
happened
cra
Joe
sing
grass
bunny
shouted
Tommy
tri
##nts
dr
story
##air
beh
reached
realized
brother
yummy
##ppy
mum
lady
prin
cr
having
##ins
favor
draw
learn
through
favorite
ate
mess
##ary
cre
underst
game
hat
soft
less
pare
##zy
thing
##ather
really
ready
began
pretend
##where
##ken
world
looks
himself
magic
##fully
done
butterf
pap
Now
making
##ater
cut
rest
duck
coming
pond
waved
why
kids
fro
tired
prom
fix
mouse
fill
worry
##olly
cars
delic
name
Fin
##aisy
flower
##eddy
touch
thank
hair
Sally
funny
used
catch
seen
tast
##bo
##rel
another
top
parents
##ient
hopped
Wow
##ak
hold
##iver
blocks
cried
##oney
There
##mer
cool
doing
##ster
turn
surprise
light
##ac
green
lesson
years
##ation
read
floor
din
wood
dri
full
##ards
window
worked
smell
trees
running
dro
behind
dark
wear
likes
##ons
wished
##andy
##ued
yellow
par
paper
spot
happily
Em
bow
##ren
bag
##ely
sho
swim
Daisy
sat
##ul
surprised
sleep
frog
Jim
butterfly
set
swing
Benny
carefully
##ike
slow
##us
cold
held
remembered
##uff
##â€™s
lost
To
ice
hole
laugh
##rew
At
needed
buy
perf
left
move
Gra
Billy
ste
anything
##reed
tall
enjoyed
##cess
Hello
dream
wrong
arri
air
fair
Finally
followed
##ross
el
children
hun
books
bus
delicious
Molly
please
contin
table
snow
finished
dir
friendly
hot
Amy
herself
##lf
##ens
understand
##ds
cream
hill
hid
##ined
close
cast
arrived
baby
arm
wonderful
else
gent
might
tight
yes
forgot
res
##ield
bug
rel
build
colors
sig
Jen
##ner
broken
##av
able
gone
filled
##ich
squir
wall
song
fur
agreed
someone
gu
continued
mat
creat
##room
ll
pat
##asure
wants
count
squirrel
##set
pink
leaves
##ask
bar
enough
lion
##ama
vis
moment
Why
morning
getting
finally
OK
stayed
break
cookies
##shed
##ence
poin
##app
few
##ance
beach
sometimes
fight
scary
##red
##ced
##row
hungry
turned
##ries
fall
dinner
wet
mother
##gon
ju
grandma
trying
amazing
##apped
makes
daddy
castle
pi
perfect
climbed
others
plan
##oup
##key
pictures
comp
talk
met
mus
##amp
##oom
mar
listened
white
##man
clot
smiles
clothes
##oring
Jill
alone
Come
joy
balloon
tail
spl
pol
##ated
puppy
##rot
brought
wasn
everything
##ee
deep
sear
strange
##ctor
##elc
pet
spark
##ister
sit
grow
woods
##der
##ling
pulled
start
sail
won
fox
##sp
ride
asks
##uffy
##ott
treat
pie
##eter
visit
danger
Daddy
roll
leave
Soon
Oh
Mama
##med
##ucky
music
##os
amazed
hide
waited
teddy
towards
##me
All
ow
##ever
##ang
##ower
field
land
##cy
##ead
flying
pre
##zz
pen
##lep
shared
silly
##ained
runs
owner
cloud
shap
##ames
belie
##ash
qui
##ugg
job
##ol
living
##igg
promised
side
moral
##orm
lake
thinks
##gs
##cket
##ope
Mary
paint
sec
##thy
sister
##ually
quiet
##ises
party
##cle
must
##avy
race
money
Okay
pot
worried
##unch
Just
Fl
##sw
grate
slowly
answ
colorful
welc
Mr
dance
faster
##eces
pieces
bran
broke
train
grateful
bott
cup
##ix
Sure
such
##ze
bigger
snack
cho
reach
monster
St
blank
pro
win
join
candy
river
black
##less
##ased
stu
##uit
magical
treasure
scream
smart
ear
blanket
princess
##eak
monkey
dangerous
across
dragon
Mum
everywhere
bike
helping
Jimmy
most
farmer
nap
em
pea
##aw
##cked
##outh
##icy
disapp
mouth
Grandma
##eared
words
threw
##ming
tower
stre
heavy
dirty
pass
bite
stepped
dolls
bowl
##leph
twins
believe
crying
same
##de
bee
##ored
doctor
sign
##â€™t
acc
spr
##ident
wouldn
Hi
heal
bath
##fort
##chool
##ches
hig
carrot
min
closed
buck
##bble
stuck
##ale
heart
fruit
Emma
Please
cour
att
hoped
plant
brown
school
##ipped
bask
##iting
basket
suddenly
feels
mix
eating
chair
town
clapped
cray
course
##cher
butt
gentle
fairy
##pping
coll
pack
##ventually
stand
##ier
drove
welcome
##ors
pushed
##ire
##issed
ve
##br
today
swings
neigh
without
Inside
higher
pocket
hit
##orrow
â€œI
teacher
##ord
neighb
piece
games
pers
smo
free
wings
cheered
##ourn
ben
longer
yard
journ
explained
forget
##ible
accident
corn
dry
along
Their
##umb
##ment
noises
##itting
How
sang
inst
happen
late
##ract
throw
neck
young
hugs
##vel
turns
lon
##sc
stories
miss
adventures
shoes
##lephant
singing
apple
trou
well
lunch
##ape
lonely
Tw
jar
gift
Re
##bby
upset
mine
belong
Fluffy
tom
dist
plac
wish
key
secret
##oun
elephant
fence
street
##ountain
moved
shook
purp
exploring
##bow
soup
nearby
Sammy
##ts
shop
Go
##aughty
stars
bring
##fused
naughty
wise
caught
inv
owl
exp
##ocked
##yard
sea
##ward
ph
##ail
whe
relie
seemed
bat
backyard
##aughter
dropped
bucket
drink
Al
rocks
des
purple
Be
##ces
##adow
swam
farm
je
taking
##sy
resp
orange
##ions
mail
though
shapes
cow
past
##ity
woke
hello
bench
af
##og
rainbow
My
wondered
busy
Later
##ung
sounds
nose
fit
tiny
nest
ob
daughter
sitting
nothing
cou
mad
kite
holding
takes
##read
mark
de
##col
##fish
##ese
arms
pig
comes
part
##ceful
##thday
##cks
##cing
coat
juice
cir
With
##ining
round
##gn
relieved
##ose
Ell
##raid
branch
##que
afraid
##idge
##vered
inter
te
forever
driver
cute
ca
##ost
##ek
Ch
sick
mil
boun
spoon
carry
Jenny
Tweet
##unt
##ours
king
Good
promise
touched
fing
huge
birthday
patient
exciting
letter
grab
sunny
##ped
##ching
days
Of
onto
band
laughing
journey
bush
##board
cheese
gigg
##oph
disco
creature
##ittens
##gged
Emily
##shine
life
ret
bread
power
hope
imag
kick
craw
wra
cozy
swimming
##gg
##let
inc
##ness
shell
mist
sharp
suc
instead
watching
bottle
whist
retur
sunshine
##alm
##esting
shout
eas
##ten
accidentally
cave
pudd
milk
##pa
