[PAD]
[UNK]
[CLS]
[SEP]
[MASK]
!
"
#
$
%
&
'
(
)
*
+
,
-
.
/
0
1
2
3
4
5
6
7
8
9
:
;
<
=
>
?
A
B
C
D
E
F
G
H
I
J
K
L
M
N
O
P
Q
R
S
T
U
V
W
X
Y
Z
[
\
]
_
`
a
b
c
d
e
f
g
h
i
j
k
l
m
n
o
p
q
r
s
t
u
v
w
x
y
z
{
}
~
¡
¢
£
¥
¦
§
¨
©
ª
¬
¯
°
±
³
´
·
º
»
¼
¾
¿
Â
Ã
Ä
Å
Ê
á
â
ã
ä
å
æ
ç
è
é
ï
ð
Œ
œ
Š
Ÿ
Ž
ˆ
˜
–
’
‚
“
”
„
†
‡
•
…
‰
‹
›
€
™
##e
##j
##c
##t
##i
##n
##g
##y
##r
##p
##â
##€
##v
##w
##s
##u
##a
##l
##o
##™
##h
##f
##d
##b
##m
##¦
##I
##N
##G
##x
##˜
##M
##T
##k
##œ
##L
##E
##J
##O
##R
##B
##A
##C
##0
##H
##D
##W
##P
##S
##z
##K
##F
##q
##7
##U
##Y
##2
##V
##Š
##Ã
##1
##8
##Q
##©
##ˆ
##ï
##¼
##Œ
##X
##¢
##¨
##ç
##è
##´
##¾
##é
##3
##4
##Â
##9
##Z
##¯
##ª
##5
##Ä
##£
##á
##6
##å
##¥
##³
##±
##Ÿ
##æ
##ä
##ã
##°
##Ž
##º
##¬
##ð
##Å
##Ê
##he
##nd
the
##ed
and
##er
to
wa
##ou
##in
##re
was
##om
The
##ay
##ar
##ing
##il
##it
##id
##at
sa
##en
ha
##is
##an
##or
##im
he
##on
it
th
##ut
##ll
##le
her
##et
He
##ot
She
##ir
##es
They
in
##ow
##ck
##ld
##oo
said
##ily
be
##ig
##am
st
##ce
she
##pp
##ith
##ve
with
Lily
On
on
you
of
##ked
##ri
so
his
pl
##ery
##ad
##ke
##nt
day
that
up
play
had
they
##el
mom
for
##st
##un
##ould
##my
##ent
li
##ch
happ
want
##itt
sh
##her
It
do
##ly
not
##ome
very
##se
##ound
##end
##all
wh
##ime
##ittle
time
little
##al
there
ne
##ht
happy
sm
big
is
but
##ra
an
saw
##riend
friend
##ry
as
##ack
One
##ake
re
##ere
Tim
##ter
##ug
loo
##ved
were
Once
lo
##ore
##ec
him
go
too
##ur
bo
##ide
se
##irl
##ver
are
##ard
Tom
wanted
##ill
girl
upon
them
out
at
Ben
their
##fu
sp
##way
##ind
smil
did
could
##hen
have
##ted
##ain
ex
##hed
But
##rom
went
ar
##lp
can
##ic
##ful
##ood
##hing
friends
nam
##ight
all
help
kn
##um
##one
##ark
back
say
fun
cl
You
no
##are
##ear
##very
Timmy
##op
star
smiled
sc
named
al
##oug
loved
##side
man
asked
##elt
##ick
toy
Mom
like
felt
see
looked
some
around
##ep
me
##ame
##omet
fe
ro
br
##ure
bir
##get
would
boy
##ong
##ea
##ss
bird
somet
fa
##dd
##est
##ings
ag
wor
what
##ade
make
##king
##ie
car
##own
tre
ran
##gether
away
##ag
we
Th
says
started
##ice
##oud
made
something
together
##ther
##ited
co
park
sad
other
new
exc
put
from
##out
pr
scar
la
hug
##ble
##ook
mu
again
home
when
good
who
ch
##ried
found
fl
then
dec
##pped
wal
get
playing
##ought
##ach
##pl
##ally
sw
Su
##ous
##nn
things
â€
excited
liked
got
Sam
##uck
##ro
##ided
##as
##ell
bl
decided
Ann
came
every
##ara
your
##ax
one
scared
##ust
dog
down
##ny
##ouse
find
care
bec
than
Sara
feel
We
Anna
ab
dad
my
Max
##ap
look
will
##ist
gr
##nder
gra
##ways
##ess
po
didn
about
always
took
##bb
##ers
mommy
lot
##ned
toys
kne
So
##ise
##ant
bu
old
outside
tree
##ite
##ave
ball
thought
lear
more
##eci
##ened
##ched
ta
ho
##ret
When
##ged
pu
Jo
know
Wh
##to
take
laug
speci
special
sor
cat
##dden
knew
##ty
##ive
##ff
Her
##ia
any
##ddenly
##fter
how
##au
##ue
show
##ma
##ink
Jack
sorry
tw
much
##ish
Every
tr
run
hand
sl
##ven
house
##and
op
or
sk
mo
clo
sun
into
tried
inside
##ate
told
water
this
##ump
en
if
proud
over
couldn
gave
##dy
heard
##ank
never
each
##by
room
expl
eat
Suddenly
##other
##ause
pick
##ion
pret
Mia
played
Then
##ge
##etter
gre
just
hugged
qu
Let
##here
off
wat
com
box
##oth
##our
And
nice
From
because
ra
need
His
str
pe
##ile
many
##fe
##ft
fo
##eep
##uc
jo
bear
small
##sed
##iz
##ving
long
##kes
##gry
##ine
##imal
##em
animal
sn
##ough
That
try
unt
##ild
##ort
##sel
##urt
until
kind
learned
bea
im
love
better
call
flow
end
don
ad
##vent
best
##ning
##ady
##urp
##ream
cle
ma
##ves
##arden
â€œ
garden
fast
cu
careful
Mommy
##lly
beaut
##ber
fi
even
bra
by
##ies
thanked
che
laughed
sky
What
##sh
jump
gl
Yes
loud
##self
##iny
way
beauti
come
##lew
wo
beautiful
list
hard
lots
##ase
Can
fam
animals
still
Joh
hurt
under
let
stay
##wn
both
##hes
safe
##ool
##ct
##be
lea
col
##ree
di
two
bad
book
##ace
##ople
imp
rem
##ane
As
lived
Luc
##kay
Lucy
##ock
walked
##urpr
brave
su
its
should
##ob
surpr
family
##ished
angry
##ept
##ress
people
##igh
flew
Thank
called
After
red
##ip
stor
##eet
soon
fin
##ast
##ect
Dad
kept
##art
##led
John
fore
##fore
dan
fly
share
##xt
le
No
##ised
door
##dded
pic
going
tur
pretty
keep
##â€
now
rock
clean
dra
advent
##ummy
noise
##age
opened
shiny
id
con
idea
wind
cry
doll
before
##illy
real
sto
Sp
##so
explore
ground
also
##les
##ied
far
ey
fr
##â€™
color
nodded
war
feeling
un
Bob
picked
next
##oy
##imb
walking
##thing
##ture
has
climb
##ting
thr
while
bed
smile
adventure
##th
##aybe
##ser
##iced
##ger
##ious
##qu
looking
being
diff
wr
##joy
food
give
picture
think
del
Spot
wait
truck
##ught
eyes
tow
repl
tra
bro
stopped
gi
listen
after
bre
walk
Do
vo
year
wonder
great
##ember
hands
Sue
import
enjoy
head
ever
##bbit
flowers
blue
noticed
forest
own
near
app
dis
quick
ac
##irst
##ized
fish
important
##able
remember
##llow
sound
us
replied
slide
##maz
amaz
##lease
watch
rain
work
rabbit
showed
okay
tal
##gan
Sarah
ask
##bbed
differ
ru
mean
right
tou
##day
Look
##bye
watched
bright
follow
everyone
strong
been
use
This
stick
mor
quickly
voice
##ered
where
our
##ath
yell
Jane
different
child
curi
##ng
boat
##ey
sure
Maybe
face
goodbye
became
place
hop
am
high
##aught
##ange
closer
store
##oon
warm
##unny
does
dress
tea
##llo
curious
mag
bel
cook
forg
##ila
tell
##ndma
fav
##ass
three
##ount
ba
##leep
Lila
##co
night
open
cake
shar
##more
block
anymore
##iss
here
pull
first
##itc
##ull
##ached
##ired
butter
##imes
In
##orn
pain
sweet
grabbed
kid
##isy
only
mon
fell
Everyone
cont
jumped
birds
glad
bit
##itchen
kitchen
sand
sees
helped
per
squ
Don
fire
stop
##outed
flo
Joe
hear
happened
cra
Tommy
grass
bunny
sing
tri
shouted
story
##nts
dr
##air
##ppy
beh
reached
yummy
brother
realized
cr
lady
mum
prin
having
##ins
favor
mess
learn
favorite
cre
through
ate
##ary
hat
draw
soft
game
less
underst
##zy
##ather
pare
thing
ready
really
pretend
##where
began
world
##ken
looks
##fully
himself
pap
magic
cut
done
making
Now
butterf
rest
coming
duck
##ater
pond
why
kids
fro
waved
prom
fix
tired
worry
mouse
cars
delic
##olly
Sally
Fin
fill
flower
name
##aisy
funny
touch
catch
used
thank
##eddy
tast
seen
##ient
##ak
##bo
hair
top
another
##rel
##iver
parents
Wow
cried
hopped
##oney
hold
cool
blocks
doing
There
##mer
surprise
turn
green
##ac
##ster
light
years
##ation
lesson
read
din
floor
dri
trees
wood
full
worked
##ards
running
window
dro
smell
behind
dark
par
wear
wished
likes
spot
paper
##ued
##ons
swim
yellow
##ely
sat
bag
happily
##ren
bow
##ul
##andy
sho
Em
Daisy
sleep
frog
surprised
Jim
##us
##ike
butterfly
cold
carefully
set
lost
Benny
To
swing
held
slow
##â€™s
remembered
##uff
hole
ice
##rew
needed
laugh
At
perf
buy
Gra
ste
Billy
left
move
##reed
tall
enjoyed
anything
wrong
dream
arri
##cess
Hello
air
followed
fair
el
books
Finally
##ross
children
hun
delicious
bus
please
table
Molly
contin
dir
snow
friendly
finished
hot
herself
##lf
##ds
cream
##ens
hill
Amy
understand
close
##ined
arrived
hid
else
cast
baby
arm
wonderful
gent
might
forgot
tight
yes
res
##ield
Jen
colors
bug
rel
broken
build
##ner
able
##av
sig
gone
##ich
filled
squir
wall
song
agreed
mat
someone
fur
gu
continued
##room
creat
ll
##asure
pat
count
wants
##set
pink
##ask
leaves
squirrel
enough
bar
lion
##ama
morning
Why
vis
OK
moment
finally
getting
stayed
break
cookies
##shed
##ence
poin
##app
##ance
beach
few
##row
fight
sometimes
scary
##ced
##red
fall
hungry
dinner
turned
grandma
wet
##ries
##gon
mother
makes
trying
perfect
##apped
amazing
ju
pi
daddy
others
castle
plan
climbed
talk
comp
##oup
pictures
##amp
##key
met
##oom
mus
mar
white
Jill
##man
listened
balloon
smiles
##oring
clot
alone
clothes
Come
pol
##rot
spl
tail
puppy
##ated
joy
deep
brought
##ee
wasn
sear
everything
pet
strange
sit
##der
##ctor
spark
grow
##elc
##ister
woods
pulled
start
##ling
sail
won
##ott
fox
asks
pie
##sp
treat
Daddy
danger
ride
##eter
roll
##uffy
visit
leave
Mama
Oh
##med
Soon
##os
amazed
music
ow
waited
##ucky
##me
hide
All
towards
##ever
teddy
##ang
pre
##cy
##ead
field
land
##ower
pen
owner
flying
silly
##zz
##ained
shared
shap
runs
##lep
cloud
##ugg
qui
living
job
##ames
##ol
##ash
belie
lake
promised
side
moral
##orm
##igg
##gs
##cket
thinks
sec
paint
Mary
##ually
##thy
sister
quiet
race
##ope
party
##ises
money
##avy
Okay
must
##cle
##sw
worried
##unch
answ
grate
Just
colorful
slowly
faster
##eces
Fl
bran
pieces
Mr
welc
bott
##ix
pot
broke
grateful
dance
St
Sure
cup
such
bigger
##ze
train
cho
snack
blank
reach
pro
black
river
monster
join
##less
win
##ased
blanket
##eak
##uit
treasure
stu
candy
smart
scream
magical
dangerous
princess
ear
bike
dragon
across
helping
most
monkey
Mum
Jimmy
everywhere
##outh
em
nap
pea
##cked
mouth
Grandma
farmer
##aw
disapp
##icy
words
##ming
##eared
stre
stepped
heavy
tower
threw
dolls
pass
dirty
same
bite
twins
##ored
##de
spr
crying
##â€™t
bee
believe
bowl
acc
##leph
##ident
doctor
##ches
wouldn
sign
bath
##fort
heal
Hi
hig
##chool
##ale
carrot
closed
##bble
stuck
min
buck
heart
cour
att
plant
fruit
brown
Please
hoped
bask
school
##iting
basket
mix
##ipped
Emma
feels
chair
suddenly
eating
town
cray
##cher
course
clapped
gentle
fairy
pack
butt
coll
##pping
##ventually
stand
##ire
##ors
drove
pushed
##ier
welcome
##br
##issed
today
swings
Inside
##orrow
neigh
without
higher
ve
teacher
pocket
neighb
hit
free
â€œI
pers
##ord
ben
smo
games
##ourn
wings
piece
yard
forget
cheered
journ
corn
explained
longer
##ible
dry
accident
Their
along
##umb
neck
##ment
##itting
noises
sang
How
happen
inst
late
throw
##ract
hugs
turns
young
stories
lon
miss
##vel
shoes
adventures
##sc
lunch
apple
singing
Tw
##lephant
well
##ape
trou
upset
jar
lonely
gift
secret
Re
key
tom
belong
##bby
mine
street
dist
##oun
Fluffy
fence
##ountain
wish
plac
exploring
Sammy
elephant
shook
moved
nearby
##ail
purp
Go
wise
##ts
##aughty
shop
stars
soup
naughty
owl
whe
bring
##fused
inv
caught
sea
##ocked
##bow
##yard
bat
##ward
ph
exp
rocks
seemed
##aughter
backyard
dropped
relie
bucket
swam
des
Be
Al
drink
mail
##ces
farm
purple
je
resp
##ions
taking
##sy
shapes
though
##adow
past
orange
woke
cow
bench
##og
af
ob
fit
##ity
##ung
My
hello
daughter
wondered
sounds
busy
Later
##read
tiny
sitting
nest
cou
nose
rainbow
mark
mad
nothing
##col
takes
##ese
##fish
holding
comes
##cks
arms
##cing
de
##thday
part
##ceful
kite
pig
##ining
With
round
coat
juice
Ell
cir
branch
##raid
##que
driver
afraid
relieved
forever
##gn
##ose
##vered
inter
##idge
mil
cute
##ost
te
##ek
Tweet
boun
ca
carry
sick
promise
spoon
Jenny
king
letter
Ch
huge
touched
##ours
##unt
Good
patient
birthday
fing
grab
exciting
##ching
sunny
Of
bush
onto
cheese
##ped
days
laughing
band
disco
gigg
##board
##ittens
journey
creature
imag
ret
life
Emily
kick
##shine
swimming
bread
##let
shell
cozy
##gged
power
hope
##oph
##gg
sharp
craw
mist
inc
wra
bottle
##ness
whist
spin
suc
retur
instead
##ten
watching
accidentally
##esting
##alm
milk
shout
sunshine
