[PAD]
[UNK]
[CLS]
[SEP]
[MASK]
!
"
#
$
%
&
'
(
)
*
+
,
-
.
/
0
1
2
3
4
5
6
7
8
9
:
;
<
=
>
?
A
B
C
D
E
F
G
H
I
J
K
L
M
N
O
P
Q
R
S
T
U
V
W
X
Y
Z
[
\
]
_
`
a
b
c
d
e
f
g
h
i
j
k
l
m
n
o
p
q
r
s
t
u
v
w
x
y
z
}
~
¡
¢
£
¥
¦
§
¨
©
ª
«
¬
¯
°
±
³
´
·
º
»
¼
½
¾
¿
Â
Ã
Ä
Å
â
ã
ä
å
æ
ç
è
é
ï
ð
Œ
œ
Š
Ÿ
Ž
ž
ˆ
˜
–
’
‚
“
”
„
†
‡
•
…
‰
‹
›
€
™
##m
##z
##i
##n
##g
##l
##p
##d
##e
##s
##k
##u
##€
##œ
##M
##o
##h
##t
##a
##r
##c
##f
##w
##â
##¦
##b
##™
##T
##y
##v
##P
##˜
##S
##I
##D
##E
##N
##A
##C
##L
##j
##K
##q
##O
##x
##B
##Ã
##¯
##U
##H
##Â
##´
##æ
##W
##±
##G
##R
##9
##0
##V
##J
##F
##6
##5
##X
##³
##å
##ˆ
##Z
##1
##Y
##Š
##Ÿ
##©
##2
##ï
##¼
##Œ
##Q
##7
##ð
##4
##8
##º
##é
##Ž
##ä
##¨
##3
##è
##ã
##£
##¢
##Ä
##ç
##ª
##½
##¬
##ž
##°
##¥
##¾
##Å
##he
##nd
the
##ed
and
##er
to
wa
##ou
##in
##re
was
##om
The
##ay
##ar
##ing
##il
##it
##id
##at
sa
##en
ha
##is
##an
##or
##im
he
##on
it
th
##ut
##ll
##le
her
##et
He
##ot
She
##ir
##es
They
in
##ow
##ck
##ld
##oo
said
##ily
be
##ig
##am
st
##ce
she
##pp
##ith
##ve
with
Lily
On
on
you
of
##ked
##ri
so
his
pl
##ery
##ad
##ke
##nt
day
that
up
play
had
they
##el
mom
for
##st
##un
##ould
##my
##ent
li
##ch
happ
want
##itt
sh
##her
It
do
##ly
not
##ome
very
##se
##ound
##end
##all
wh
##ime
##ittle
time
little
##al
there
ne
##ht
happy
sm
big
is
but
##ra
an
saw
##riend
friend
as
##ry
##ack
One
##ake
re
##ere
Tim
##ug
##ter
loo
##ved
were
Once
lo
##ore
##ec
him
too
go
##ur
bo
##ide
se
##irl
##ver
are
Tom
wanted
##ard
##ill
girl
upon
out
them
at
Ben
their
##fu
sp
##way
##ind
smil
did
could
##hen
have
##ted
##ain
ex
##hed
But
##rom
went
ar
##lp
can
##ic
##ful
##ood
##hing
friends
nam
##ight
all
help
kn
##um
##ark
##one
back
say
cl
fun
You
no
##are
##ear
##very
Timmy
##op
star
smiled
sc
named
al
##oug
loved
##side
man
##elt
asked
##ick
toy
Mom
like
felt
looked
see
some
around
me
##ep
##ame
##omet
fe
ro
br
##ure
bir
##get
boy
would
##ong
##ss
##ea
somet
bird
fa
##dd
##est
##ings
ag
wor
what
##ade
make
##king
##ie
car
##own
tre
ran
##gether
away
##ag
we
Th
says
started
##ice
##oud
made
something
together
##ther
##ited
co
park
sad
other
new
exc
put
from
##out
pr
scar
la
hug
##ble
mu
##ook
again
home
when
good
who
ch
##ried
found
fl
then
dec
##pped
wal
get
playing
##ought
##ach
##pl
##ally
Su
sw
##ous
##nn
â€
things
excited
liked
got
##uck
Sam
##ro
##ided
##as
##ell
decided
bl
came
every
Ann
##ara
your
##ax
scared
one
##ust
dog
down
##ny
##ouse
find
care
bec
than
Sara
feel
We
Anna
dad
ab
my
##ap
Max
look
will
##ist
gr
gra
##nder
##ways
##ess
didn
po
always
about
took
##bb
##ers
lot
##ned
mommy
kne
toys
So
##ant
bu
##ise
old
##ite
outside
tree
##ave
thought
ball
lear
more
##eci
##ened
ta
##ched
ho
##ret
When
##ged
pu
Jo
know
Wh
##to
laug
take
speci
sor
special
##dden
cat
knew
##ty
##ive
##ff
Her
##ia
any
##ddenly
##fter
how
##au
##ma
show
##ue
##ink
Jack
sorry
tw
much
##ish
Every
run
tr
hand
sl
house
##ven
##and
op
or
sk
mo
clo
sun
tried
into
##ate
inside
told
water
this
en
if
proud
##ump
couldn
over
##dy
gave
heard
##ank
never
each
room
##by
expl
eat
Suddenly
##other
##ause
pick
##ion
pret
played
Then
##ge
Mia
##etter
just
hugged
gre
Let
qu
##here
off
com
wat
##oth
box
From
##our
And
nice
str
because
ra
His
need
pe
##ile
##fe
many
##ft
fo
##eep
jo
##uc
small
bear
##sed
##iz
##ving
long
##kes
##em
##gry
##imal
##ine
sn
animal
##ough
That
try
unt
##ort
##ild
##sel
##urt
until
kind
learned
im
bea
love
better
flow
call
don
end
ad
best
##vent
##ning
##urp
##ady
##ream
cle
ma
##ves
â€œ
##arden
garden
fast
cu
careful
##lly
beaut
Mommy
##ber
fi
even
by
thanked
##ies
bra
che
laughed
What
##sh
sky
jump
Yes
gl
##self
loud
##iny
way
beauti
come
##lew
wo
list
beautiful
lots
hard
##ase
still
Can
animals
fam
Joh
hurt
under
let
stay
##wn
both
##hes
safe
##ool
##ct
##be
col
##ree
lea
di
two
bad
##ace
book
##ane
imp
rem
##ople
As
lived
##kay
Luc
##ock
Lucy
walked
su
##urpr
should
its
##ob
brave
##ished
surpr
angry
family
##ept
##ress
##igh
flew
people
Thank
called
red
After
stor
##ip
##eet
soon
fin
##ast
##ect
John
kept
##led
Dad
fore
dan
##fore
##art
share
fly
##xt
##ised
le
No
##dded
door
pic
going
tur
keep
pretty
##â€
clean
now
rock
dra
advent
##ummy
opened
noise
##age
shiny
doll
id
con
cry
idea
wind
before
real
##illy
sto
Sp
##so
explore
##les
ground
far
also
##ied
ey
##â€™
fr
color
nodded
war
Bob
un
feeling
##imb
picked
##oy
next
walking
##thing
##ture
climb
##ting
has
thr
while
bed
smile
adventure
##th
##aybe
##ser
##iced
##ger
looking
##qu
##ious
being
diff
wr
##joy
food
give
picture
think
Spot
del
tow
wait
eyes
truck
##ught
tra
repl
bro
listen
stopped
after
gi
Do
walk
vo
year
bre
##ember
great
wonder
hands
Sue
import
ever
head
enjoy
noticed
flowers
forest
##bbit
blue
near
app
dis
own
##ized
ac
##irst
quick
important
remember
##able
fish
sound
##llow
us
##maz
replied
slide
amaz
showed
##lease
work
rain
watch
rabbit
okay
tal
##gan
Sarah
##bbed
differ
ru
ask
mean
right
tou
Look
##day
##bye
bright
watched
follow
everyone
strong
stick
mor
use
This
been
##ered
voice
quickly
our
where
##ath
Jane
yell
different
child
##ng
curi
sure
##ey
boat
became
Maybe
goodbye
place
face
##ange
hop
am
high
closer
##aught
##unny
store
##oon
warm
does
dress
tea
##llo
mag
curious
bel
cook
forg
##ndma
##ila
tell
fav
##ass
three
##ount
ba
##co
Lila
night
##leep
shar
open
##more
anymore
block
here
cake
##itc
pull
##iss
##ull
first
##ached
##ired
##imes
butter
sweet
In
grabbed
##orn
kid
pain
mon
##isy
only
Everyone
fell
cont
jumped
birds
bit
##itchen
kitchen
sand
glad
helped
per
squ
sees
fire
Don
##outed
stop
flo
Joe
hear
cra
Tommy
bunny
happened
grass
sing
story
shouted
tri
##nts
dr
##air
##ppy
reached
beh
realized
brother
yummy
cr
lady
mum
having
prin
##ins
favor
mess
draw
through
learn
favorite
hat
ate
cre
soft
less
game
##ary
underst
##zy
thing
pare
really
##ather
ready
began
pretend
##where
world
##ken
looks
pap
himself
magic
##fully
done
Now
making
cut
coming
butterf
rest
waved
pond
kids
why
##ater
duck
prom
fro
tired
mouse
fix
worry
cars
flower
##olly
delic
fill
Fin
name
Sally
##eddy
##aisy
funny
touch
thank
seen
catch
used
hair
##bo
tast
top
##ak
##oney
##ient
##rel
Wow
parents
another
hopped
cried
hold
There
doing
blocks
cool
farm
##iver
##ac
##ster
surprise
turn
light
years
green
lesson
read
##ation
wood
floor
dri
din
##ards
trees
full
window
running
wear
dark
smell
worked
spot
dro
paper
behind
likes
##ons
wished
par
bag
##ued
swim
bow
yellow
##ely
happily
sho
sat
##andy
##ul
##ren
Em
Daisy
surprised
sleep
Jim
frog
Benny
set
carefully
butterfly
##us
##â€™s
cold
swing
ice
remembered
slow
held
lost
##ike
##uff
To
laugh
hole
At
##rew
buy
perf
needed
ste
Gra
left
Billy
##reed
move
anything
tall
dream
##cess
enjoyed
Hello
fair
wrong
air
arri
Finally
followed
##ross
el
books
children
hun
delicious
bus
table
please
Molly
finished
snow
friendly
contin
hot
dir
herself
cream
Amy
##ds
##ens
##lf
hill
understand
close
##ined
hid
arm
baby
wonderful
else
arrived
tight
cast
gent
forgot
might
res
yes
##ield
Jen
bug
build
colors
rel
broken
sig
##ner
able
##av
gone
squir
filled
song
wall
##ich
agreed
fur
someone
mat
gu
continued
##room
pat
##asure
ll
creat
##set
squirrel
count
wants
leaves
##ask
pink
lion
enough
bar
##ama
morning
moment
Why
vis
OK
getting
finally
cookies
stayed
break
##shed
beach
##ence
##app
poin
few
##ance
sometimes
scary
##ced
fight
##row
grandma
hungry
##ries
##red
turned
fall
dinner
ju
mother
##gon
amazing
wet
perfect
##apped
daddy
trying
makes
others
plan
climbed
##oup
pi
castle
##amp
pictures
comp
##key
mar
##oom
met
talk
white
mus
##man
listened
clot
##oring
Jill
smiles
balloon
alone
clothes
Come
pol
tail
##ated
puppy
spl
joy
##rot
brought
wasn
everything
pet
sear
deep
strange
##elc
##ee
##ister
##ctor
spark
grow
##der
sit
woods
pulled
##ling
start
sail
ride
won
asks
##sp
##ott
fox
roll
##eter
danger
treat
pie
Daddy
visit
##uffy
Soon
leave
##med
##os
Oh
Mama
##ucky
amazed
teddy
hide
waited
music
ow
##me
towards
##ang
All
##ower
pre
##ever
field
land
##ead
##cy
pen
flying
##zz
##lep
silly
shared
runs
##ained
##ugg
owner
shap
belie
job
cloud
##ames
living
promised
##ol
##orm
qui
moral
##igg
##ash
side
##gs
lake
em
thinks
##ope
##cket
sec
Mary
party
##thy
##ually
sister
quiet
##avy
money
must
paint
##ises
##cle
race
Okay
##sw
worried
answ
Just
##unch
colorful
dance
slowly
grate
welc
bran
pot
Fl
faster
##eces
bott
pieces
such
##ze
Mr
broke
grateful
St
bigger
Sure
cho
##ix
cup
train
snack
monster
reach
blank
pro
black
win
##less
river
treasure
join
candy
##ased
##uit
##eak
magical
scream
stu
blanket
smart
ear
princess
dangerous
bike
across
monkey
dragon
most
pea
nap
everywhere
##outh
Mum
helping
##aw
mouth
Jimmy
farmer
##cked
Grandma
disapp
##icy
words
##eared
stepped
tower
dolls
##ming
heavy
pass
threw
stre
bee
bite
dirty
##leph
same
twins
crying
bowl
believe
##de
spr
##ored
##â€™t
acc
##ident
wouldn
##fort
Hi
doctor
##ches
heal
sign
##chool
bath
closed
hig
carrot
##bble
buck
stuck
heart
cour
##ale
att
plant
fruit
min
Please
school
hoped
brown
Emma
##ipped
suddenly
##iting
##asket
chair
basket
feels
eating
mix
clapped
##cher
cray
course
town
fairy
butt
gentle
coll
pack
##pping
##ventually
stand
##ors
welcome
pushed
##ier
##ire
drove
##issed
Inside
without
ve
##br
swings
today
neigh
higher
pocket
##orrow
teacher
hit
â€œI
free
neighb
pers
games
smo
cheered
piece
forget
##ourn
##ord
explained
journ
wings
longer
ben
##ible
accident
corn
dry
yard
along
##ment
##umb
neck
noises
sang
Their
inst
##itting
happen
How
throw
late
young
##vel
hugs
shoes
##ract
miss
##sc
turns
stories
lon
##lephant
adventures
trou
jar
singing
apple
Re
lunch
##ape
upset
key
lonely
well
Tw
belong
gift
##bby
plac
secret
wish
mine
dist
tom
##oun
elephant
##ountain
street
exploring
fence
shook
Fluffy
Go
soup
stars
moved
purp
nearby
##ts
Sammy
##aughty
bring
owl
naughty
shop
wise
whe
##fused
##bow
inv
exp
##ocked
caught
ph
sea
##yard
##ward
##ail
bat
##adow
seemed
bucket
backyard
des
relie
##aughter
dropped
rocks
drink
Be
mail
##ces
purple
resp
swam
taking
Al
##sy
cow
je
past
orange
though
##ions
shapes
woke
My
af
hello
bench
##ung
sounds
fit
busy
##og
tiny
wondered
##ity
nose
mark
rainbow
Later
daughter
kite
##fish
##col
nest
mad
takes
sitting
ob
cou
##cing
de
##read
juice
##ceful
holding
arms
##ese
With
##thday
nothing
comes
part
##cks
Ell
##ining
pig
coat
cir
branch
##raid
##que
round
afraid
Jenny
forever
driver
relieved
##gn
inter
##ose
##vered
cute
spoon
##idge
ca
mil
##ost
##ek
Ch
carry
sick
boun
promise
##ours
te
king
Tweet
Good
##unt
huge
touched
patient
birthday
sunny
letter
grab
exciting
fing
##ching
Of
##ped
onto
bush
laughing
journey
cheese
days
band
gigg
##board
disco
ret
##ittens
##alm
life
creature
##shine
imag
shell
##gged
hope
craw
swimming
cozy
Emily
kick
power
bread
##oph
inc
##let
##ness
wra
mist
sharp
retur
suc
bottle
##gg
instead
##ten
##esting
watching
milk
spin
sunshine
eas
accidentally
whist
cave
