[PAD]
[UNK]
[CLS]
[SEP]
[MASK]
!
"
#
$
%
&
'
(
)
*
+
,
-
.
/
0
1
2
3
4
5
6
7
8
9
:
;
<
=
>
?
@
A
B
C
D
E
F
G
H
I
J
K
L
M
N
O
P
Q
R
S
T
U
V
W
X
Y
Z
[
\
]
_
`
a
b
c
d
e
f
g
h
i
j
k
l
m
n
o
p
q
r
s
t
u
v
w
x
y
z
{
}
~
¡
¢
£
¤
¥
¦
§
¨
©
ª
¬
¯
°
±
³
´
¶
¸
º
»
½
¿
Â
Ã
Ä
Å
É
Ê
Ñ
á
â
ã
î
ï
ð
Œ
œ
Š
š
Ÿ
Ž
ž
ˆ
˜
–
‘
’
‚
“
”
„
‡
•
…
‰
‹
€
™
##a
##n
##c
##i
##g
##o
##k
##e
##d
##r
##u
##f
##t
##s
##N
##L
##Y
##K
##U
##P
##l
##h
##y
##â
##€
##™
##p
##T
##m
##w
##v
##E
##W
##O
##z
##b
##œ
##S
##q
##D
##¦
##B
##G
##˜
##A
##x
##4
##M
##R
##V
##7
##I
##F
##j
##Â
##H
##´
##C
##Q
##0
##5
##J
##Z
##2
##1
##6
##X
##£
##9
##Ã
##©
##³
##Ä
##±
##Ÿ
##3
##8
##É
##ª
##á
##¢
##Ž
##Š
##¬
##¨
##Å
##š
##ž
##Ê
##Ñ
##ˆ
##°
##ï
##Œ
##ð
##º
##¤
##¸
##¥
##¯
##he
##nd
the
##ed
and
##er
to
wa
##ou
##in
##re
was
##om
The
##ay
##ar
##ing
##il
##it
##id
##at
sa
##en
ha
##is
##an
##or
##im
he
##on
it
th
##ut
##ll
##le
her
##et
He
##ot
She
##ir
##es
They
in
##ow
##ck
##ld
##oo
said
##ily
be
##ig
##am
st
##ce
she
##pp
##ith
##ve
with
Lily
On
on
you
of
##ked
##ri
so
his
pl
##ery
##ad
##ke
##nt
day
that
up
play
had
they
##el
mom
for
##st
##un
##ould
##my
##ent
li
##ch
happ
want
##itt
sh
##her
It
do
##ly
not
##ome
very
##se
##end
##ound
##all
wh
##ime
##ittle
time
little
##al
there
ne
##ht
happy
sm
big
is
but
##ra
an
saw
##riend
friend
as
##ry
##ack
One
##ake
re
##ere
Tim
##ter
##ug
loo
##ved
were
Once
lo
##ore
##ec
him
too
##ur
go
bo
##ide
se
##irl
##ver
are
##ard
wanted
Tom
##ill
girl
upon
out
them
at
Ben
their
##fu
sp
##way
##ind
smil
did
could
##hen
have
##ted
##ain
ex
##hed
But
##rom
went
ar
##lp
can
##ic
##ful
##ood
friends
##hing
nam
##ight
all
help
kn
##um
##one
##ark
back
say
cl
fun
You
no
##are
##ear
##very
Timmy
##op
star
smiled
sc
named
al
##oug
loved
##side
man
##elt
asked
##ick
toy
Mom
like
felt
looked
see
some
around
me
##ep
##ame
##omet
fe
br
ro
##ure
bir
##get
boy
would
##ong
##ss
##ea
bird
somet
fa
##dd
##est
##ings
ag
wor
what
##ade
make
##king
##ie
car
##own
tre
ran
##gether
away
##ag
we
Th
says
started
##ice
##oud
made
together
something
##ther
##ited
park
co
sad
other
new
exc
put
from
##out
pr
la
scar
hug
##ble
mu
again
##ook
home
when
good
who
ch
found
##ried
fl
then
dec
##pped
wal
get
playing
##ought
##ach
##pl
##ally
Su
sw
##ous
##nn
â€
things
excited
liked
got
Sam
##uck
##ro
##ided
##as
##ell
decided
bl
came
every
Ann
##ara
your
##ax
scared
one
##ust
dog
down
##ouse
##ny
find
care
bec
than
Sara
feel
We
Anna
ab
dad
my
Max
look
##ap
will
##ist
gr
##nder
gra
##ways
didn
##ess
po
always
about
took
##bb
##ers
lot
mommy
##ned
kne
toys
So
##ant
##ise
bu
old
tree
##ite
outside
##ave
thought
lear
ball
more
##eci
##ened
##ched
ta
ho
##ret
When
##ged
pu
know
Jo
Wh
##to
laug
take
sor
speci
special
cat
##dden
knew
##ty
##ive
##ff
Her
##ia
##ddenly
any
##fter
how
##au
##ue
show
##ma
##ink
Jack
sorry
tw
much
Every
tr
run
##ish
hand
sl
house
##and
##ven
or
op
sk
mo
clo
sun
into
tried
inside
##ate
told
this
water
en
if
##ump
proud
##dy
over
couldn
heard
gave
##ank
never
each
##by
room
expl
Suddenly
eat
##other
##ause
pick
##ion
pret
played
Mia
Then
##ge
##etter
just
gre
hugged
qu
Let
##here
off
com
wat
##oth
box
##our
From
nice
And
ra
because
need
His
str
pe
##ile
##fe
many
##ft
fo
jo
##eep
bear
##uc
small
##sed
##iz
##ving
long
##ine
##gry
##em
##imal
##kes
animal
sn
##ough
That
try
unt
##ort
##ild
##sel
##urt
until
kind
learned
im
bea
better
love
call
flow
don
end
ad
best
##vent
##ning
##urp
##ady
##ream
cle
##ves
ma
â€œ
##arden
garden
cu
##lly
fast
##ber
careful
beaut
Mommy
fi
even
by
bra
thanked
che
laughed
##ies
##sh
What
sky
jump
Yes
gl
loud
##self
##iny
way
beauti
come
wo
##lew
beautiful
list
lots
hard
##ase
Can
animals
still
fam
Joh
hurt
under
let
stay
##wn
both
##hes
safe
##ct
##ool
##be
col
##ree
lea
di
two
bad
imp
##ace
book
rem
##ople
As
lived
##ane
##kay
Luc
Lucy
walked
##ock
su
##urpr
should
brave
its
##ob
surpr
angry
##ished
family
##ept
##igh
##ress
flew
people
After
called
Thank
red
stor
##ip
##eet
soon
fin
##ast
##led
##ect
kept
##art
John
Dad
fore
##fore
dan
fly
share
##xt
##ised
le
No
pic
##dded
door
going
tur
keep
pretty
##â€
now
clean
rock
dra
##ummy
advent
noise
##age
shiny
opened
wind
doll
con
id
before
cry
idea
real
##illy
sto
Sp
##so
explore
ground
far
also
##les
##ied
ey
fr
##â€™
color
war
nodded
feeling
##imb
picked
Bob
un
##oy
walking
next
##thing
##ture
climb
##ting
thr
has
while
bed
smile
adventure
##th
##aybe
##ser
##iced
##ger
##qu
##ious
being
looking
diff
wr
food
##joy
picture
give
think
Spot
truck
del
wait
eyes
##ught
tow
bro
repl
stopped
tra
gi
listen
after
Do
walk
bre
vo
great
year
wonder
##ember
Sue
hands
head
import
enjoy
flowers
##bbit
ever
forest
blue
noticed
near
own
app
dis
ac
##ized
##irst
quick
important
remember
##able
fish
sound
##llow
slide
us
replied
##maz
amaz
watch
##lease
rabbit
work
rain
okay
showed
##gan
tal
Sarah
##bbed
differ
ask
ru
mean
tou
right
##day
bright
##bye
Look
watched
follow
everyone
strong
been
This
use
mor
stick
voice
##ath
##ered
quickly
our
where
yell
Jane
different
child
##ng
curi
boat
sure
##ey
Maybe
goodbye
became
face
place
hop
##ange
high
am
##aught
store
##unny
closer
warm
tea
##oon
does
dress
mag
##llo
curious
bel
##ila
cook
forg
fav
##ass
##ndma
tell
three
##ount
ba
##leep
Lila
night
##co
open
shar
here
cake
##more
anymore
first
block
##ull
##ached
pull
##iss
##itc
butter
##ired
##imes
##orn
In
sweet
pain
kid
grabbed
##isy
mon
only
fell
Everyone
cont
birds
jumped
bit
glad
sand
##itchen
kitchen
fire
helped
squ
per
sees
flo
stop
Don
hear
##outed
happened
cra
grass
bunny
sing
Joe
story
##nts
dr
shouted
tri
Tommy
##air
brother
reached
beh
yummy
realized
##ppy
mum
cr
lady
having
prin
favor
##ins
through
favorite
learn
mess
cre
draw
hat
game
ate
less
underst
soft
##ary
pare
##zy
thing
really
ready
##ather
began
pretend
##where
world
##ken
looks
magic
himself
##fully
butterf
pap
Now
done
cut
making
##ater
coming
rest
why
kids
waved
duck
pond
prom
fro
tired
mouse
##olly
fix
worry
fill
delic
cars
name
##eddy
Fin
##aisy
touch
flower
Sally
catch
funny
thank
seen
used
tast
##bo
##ient
hair
parents
top
##rel
another
##ak
hold
Wow
hopped
cried
##iver
##oney
There
cool
##mer
blocks
doing
surprise
##ster
##ac
turn
green
light
years
lesson
##ation
read
floor
din
dri
wood
##ards
running
window
worked
full
trees
smell
par
dro
spot
wear
dark
behind
##andy
wished
likes
##ons
##ued
paper
yellow
happily
sho
bag
##ely
bow
##ul
Daisy
sat
swim
##ren
Em
sleep
surprised
frog
butterfly
Benny
##us
##ike
Jim
carefully
set
##uff
##â€™s
slow
remembered
swing
lost
cold
held
To
laugh
hole
needed
At
ice
##rew
buy
perf
Gra
left
ste
##reed
Billy
move
tall
enjoyed
##cess
dream
anything
Hello
wrong
fair
arri
air
followed
Finally
books
el
##ross
children
hun
Molly
delicious
bus
please
finished
contin
friendly
table
##ds
dir
herself
hot
Amy
##lf
snow
##ens
hill
understand
close
cream
##ined
hid
baby
arrived
wonderful
might
else
arm
cast
gent
res
##ield
tight
yes
forgot
rel
sig
colors
bug
Jen
build
broken
##ner
able
gone
##av
##ich
song
filled
wall
squir
agreed
someone
mat
fur
gu
continued
##room
creat
ll
pat
##asure
count
##set
squirrel
wants
leaves
pink
bar
##ask
enough
lion
##ama
morning
Why
vis
moment
finally
OK
getting
stayed
cookies
break
##shed
##ence
##ance
##app
poin
beach
sometimes
fight
scary
few
##row
##ries
##ced
hungry
fall
##red
turned
dinner
mother
ju
grandma
##gon
##apped
wet
trying
amazing
pi
perfect
makes
plan
daddy
others
climbed
pictures
##oup
talk
castle
##key
comp
mus
##amp
Jill
mar
met
white
listened
smiles
##oring
##oom
clot
##man
Come
pol
clothes
alone
tail
joy
spl
puppy
balloon
##ated
##rot
##ee
wasn
brought
everything
deep
##ctor
pet
##ister
sear
grow
spark
sit
strange
##elc
pulled
woods
##ott
##der
start
##ling
sail
won
##sp
##eter
ride
asks
treat
##uffy
fox
danger
pie
Daddy
roll
visit
##med
##os
leave
Mama
Oh
Soon
music
##ucky
ow
teddy
amazed
##me
waited
hide
towards
All
##ever
field
##ang
##ower
pre
##ead
land
##lep
flying
##cy
pen
shared
owner
silly
runs
##zz
##ained
belie
##ugg
qui
cloud
##ames
living
job
shap
##ash
promised
##igg
moral
##orm
##gs
side
##ol
##cket
lake
sister
paint
thinks
party
##ually
sec
##thy
quiet
race
Mary
##ope
##ises
must
money
##avy
Okay
worried
##sw
##cle
answ
Fl
##unch
bott
##eces
slowly
Just
bran
grate
faster
pot
pieces
dance
Mr
colorful
welc
cup
broke
Sure
grateful
##ze
such
bigger
St
##ix
snack
train
blank
reach
cho
pro
monster
river
candy
win
join
##less
##uit
black
smart
##ased
blanket
treasure
scream
stu
pea
magical
ear
princess
bike
dangerous
Mum
everywhere
dragon
across
helping
nap
em
monkey
Grandma
farmer
most
##eak
##aw
##outh
##cked
mouth
disapp
Jimmy
words
##icy
##eared
stre
##leph
dolls
tower
##ming
bite
stepped
pass
heavy
same
threw
believe
bee
##de
spr
twins
bowl
crying
dirty
doctor
sign
##ored
##â€™t
acc
##ident
##chool
##ches
Hi
wouldn
bath
##fort
heal
##bble
##ale
hig
closed
heart
carrot
fruit
stuck
cour
school
buck
plant
Please
att
min
brown
##ipped
hoped
suddenly
##iting
Emma
chair
feels
cray
bask
mix
eating
basket
town
##cher
clapped
course
fairy
##pping
gentle
##ventually
coll
butt
stand
pack
##ier
drove
##ire
pushed
##ors
welcome
##br
ve
##issed
Inside
neigh
swings
today
##orrow
higher
without
pocket
teacher
pers
â€œI
hit
neighb
free
piece
smo
##ourn
games
cheered
journ
ben
yard
longer
wings
##ord
explained
forget
corn
##ible
accident
##umb
along
dry
sang
noises
Their
##itting
How
##ment
inst
neck
throw
late
happen
##ract
##lephant
young
hugs
shoes
turns
##vel
miss
stories
lon
adventures
apple
key
singing
##sc
trou
well
Re
upset
gift
Tw
lunch
elephant
tom
##ape
jar
lonely
##bby
dist
belong
mine
Fluffy
secret
street
plac
##oun
wish
fence
##ountain
shook
exploring
owl
Go
moved
nearby
purp
Sammy
##aughty
##fused
##ts
shop
stars
wise
naughty
inv
bring
##bow
whe
soup
exp
caught
seemed
##ail
##ward
##yard
##ocked
sea
bat
dropped
ph
backyard
relie
rocks
##aughter
Al
je
##ces
drink
##adow
bucket
des
farm
purple
##sy
Be
taking
resp
orange
swam
##ions
though
mail
shapes
past
cow
af
woke
bench
wondered
sounds
##ung
fit
hello
My
##ity
##og
Later
busy
ob
nest
tiny
rainbow
mark
sitting
daughter
mad
##cing
kite
##ese
de
nose
nothing
holding
##col
##read
takes
cou
##fish
juice
comes
part
arms
##ceful
With
Ell
pig
##thday
##cks
coat
cir
##ining
##raid
branch
round
afraid
##idge
##que
##gn
driver
relieved
inter
##ose
Ch
cute
forever
##vered
spoon
mil
te
carry
Jenny
ca
sick
boun
##ek
Tweet
##ost
huge
##ours
promise
Good
patient
##unt
touched
fing
king
grab
letter
exciting
birthday
##ching
sunny
cheese
Of
bush
onto
journey
days
laughing
##board
##ped
gigg
disco
creature
band
imag
Emily
ret
life
##ittens
hope
##oph
##shine
bottle
bread
shell
power
craw
cozy
##gged
kick
swimming
inc
##gg
wra
whist
sharp
suc
watching
mist
##alm
retur
##ness
instead
##esting
eas
##ten
milk
##let
cave
accidentally
sunshine
##ndp
spin
shout
